.	-2.22553
<s>	0
</s>	0
<unk>	0
▁a	-3.84505
▁tom	-3.86029
▁i	-3.98251
'	-3.99917
?	-4.09332
▁the	-4.18999
▁to	-4.23882
s	-4.31554
▁you	-4.38115
▁de	-4.39228
▁no	-4.47182
▁que	-4.48686
▁la	-4.63224
t	-4.73464
▁¿	-4.78731
▁el	-4.80415
▁me	-4.84859
▁is	-4.85044
,	-4.88486
▁he	-4.98386
▁en	-4.99307
▁es	-5.04665
▁un	-5.19063
▁it	-5.29187
▁in	-5.34663
▁	-5.37578
▁mary	-5.38003
▁of	-5.42916
▁that	-5.43524
▁se	-5.485
▁was	-5.52486
n	-5.53723
▁él	-5.5905
▁do	-5.61649
▁lo	-5.63265
▁have	-5.67646
▁una	-5.67814
▁this	-5.68203
▁my	-5.6987
▁por	-5.72698
▁for	-5.80185
▁she	-5.82518
▁we	-5.82676
▁what	-5.86105
▁su	-5.88876
▁mi	-5.92707
▁con	-5.94217
▁los	-5.94683
▁don	-5.9512
▁can	-5.9545
▁está	-5.97318
▁are	-5.99267
▁be	-6.00717
▁le	-6.0135
▁ella	-6.02485
▁his	-6.03426
m	-6.05722
▁did	-6.07951
▁your	-6.08086
▁on	-6.11955
▁want	-6.15937
▁para	-6.16248
▁with	-6.16275
▁al	-6.18438
▁has	-6.18925
▁and	-6.23714
▁not	-6.25012
▁y	-6.2548
▁te	-6.26439
▁like	-6.26801
▁know	-6.30012
▁las	-6.30645
▁más	-6.30704
▁at	-6.37998
▁him	-6.38995
▁there	-6.46749
▁go	-6.47437
▁they	-6.49306
re	-6.49428
▁tu	-6.51363
d	-6.51938
▁yo	-6.53627
▁her	-6.53938
ll	-6.54853
▁qué	-6.56764
ó	-6.58844
▁will	-6.63436
▁time	-6.66547
▁estoy	-6.6699
▁muy	-6.68852
▁how	-6.68888
ed	-6.69308
▁very	-6.7144
▁esta	-6.7156
▁had	-6.72113
▁eso	-6.73045
▁este	-6.73203
▁tiene	-6.73662
ve	-6.74923
▁all	-6.77167
▁del	-6.78384
▁here	-6.79152
▁estaba	-6.79251
▁up	-6.79553
▁about	-6.79768
a	-6.81602
▁quiero	-6.8192
qué	-6.83062
▁think	-6.83397
▁si	-6.83525
▁tengo	-6.8442
▁fue	-6.84995
!	-6.85047
▁casa	-6.8681
▁aquí	-6.87587
▁get	-6.89269
▁out	-6.89961
▁when	-6.90464
▁as	-6.91875
▁hacer	-6.91888
▁from	-6.93206
ing	-6.93272
te	-6.93887
▁como	-6.94404
▁if	-6.96395
▁were	-6.99018
▁who	-6.99539
▁one	-6.99638
▁son	-7.00242
▁come	-7.01251
▁ha	-7.01786
▁an	-7.0487
▁todo	-7.05517
▁could	-7.05564
▁algo	-7.05569
▁esto	-7.07288
▁doesn	-7.07558
▁going	-7.08092
▁would	-7.08155
▁by	-7.08804
▁tiempo	-7.09049
▁gusta	-7.11647
▁why	-7.12072
▁see	-7.12144
o	-7.13125
▁good	-7.13719
▁favor	-7.14431
▁tan	-7.17615
▁please	-7.19166
▁ir	-7.19181
▁should	-7.19511
▁nada	-7.2044
▁so	-7.20866
▁just	-7.21069
▁puedo	-7.21645
▁era	-7.21858
▁been	-7.21944
▁todos	-7.21996
▁hay	-7.22034
▁where	-7.22185
▁need	-7.22301
▁let	-7.2337
▁cuando	-7.24207
▁boston	-7.24427
▁vez	-7.25244
▁tell	-7.25411
▁bien	-7.2758
▁mucho	-7.27738
▁help	-7.29405
▁more	-7.30211
mos	-7.30591
▁puede	-7.31654
▁but	-7.33395
▁now	-7.34072
▁than	-7.3457
▁never	-7.36007
▁ellos	-7.3616
es	-7.3619
por	-7.36397
▁ser	-7.36613
▁us	-7.36867
▁car	-7.37456
▁sé	-7.38447
▁some	-7.38593
▁solo	-7.39143
▁something	-7.39382
me	-7.39837
▁got	-7.40229
▁too	-7.41426
▁take	-7.41554
▁mañana	-7.41899
▁nunca	-7.41905
▁day	-7.4329
▁am	-7.43941
▁trabajo	-7.44579
▁much	-7.44613
▁last	-7.44624
▁¡	-7.45761
▁creo	-7.4742
▁money	-7.47511
▁home	-7.50052
▁work	-7.50379
▁ahora	-7.50926
▁dijo	-7.5102
▁dinero	-7.51112
▁people	-7.51498
▁hablar	-7.51779
▁sus	-7.5227
▁ya	-7.5349
▁dos	-7.53737
▁había	-7.55056
▁pero	-7.56277
é	-7.5652
▁tomás	-7.56854
▁back	-7.5759
▁día	-7.61042
▁soy	-7.61971
▁our	-7.62763
▁siempre	-7.62985
▁house	-7.63417
▁hace	-7.63477
▁really	-7.63751
▁nos	-7.64245
▁book	-7.64274
▁went	-7.64314
▁many	-7.64434
▁ese	-7.64476
▁said	-7.64845
▁libro	-7.65448
▁están	-7.65498
▁told	-7.65735
▁o	-7.66069
▁must	-7.66181
▁give	-7.66752
▁any	-7.67944
▁poco	-7.69028
▁anything	-7.69373
▁haber	-7.69685
▁man	-7.69817
▁hoy	-7.70028
▁lot	-7.7046
▁thought	-7.7087
▁today	-7.71038
▁say	-7.71279
▁school	-7.71363
▁quiere	-7.7148
▁eat	-7.71603
▁make	-7.71624
▁does	-7.71981
▁voy	-7.72076
▁room	-7.72249
▁new	-7.72294
▁va	-7.72695
▁french	-7.73269
▁only	-7.73361
▁nadie	-7.73392
▁ver	-7.73438
▁mejor	-7.74186
▁two	-7.74482
▁esa	-7.74913
▁always	-7.75215
▁made	-7.75231
ta	-7.76148
ly	-7.76191
▁tú	-7.76384
▁años	-7.76526
▁speak	-7.77184
no	-7.77352
▁estar	-7.77454
▁long	-7.77576
▁right	-7.7794
▁father	-7.78079
▁idea	-7.7818
se	-7.78443
▁tarde	-7.7846
e	-7.78773
▁sabe	-7.78867
▁francés	-7.79223
▁maría	-7.79994
▁quería	-7.80023
▁demasiado	-7.80121
▁john	-7.80121
▁padre	-7.80254
▁"	-7.81883
▁tenía	-7.83356
▁parece	-7.83415
▁three	-7.83799
▁hizo	-7.83934
▁every	-7.83952
▁love	-7.84149
▁may	-7.84386
▁old	-7.8487
▁antes	-7.85097
▁tienes	-7.86275
▁estás	-7.87071
▁mis	-7.8746
▁tres	-7.87876
▁well	-7.87897
▁night	-7.88316
▁debería	-7.88451
▁wanted	-7.89557
▁look	-7.89629
▁still	-7.89724
▁off	-7.90035
▁noche	-7.91363
▁tomorrow	-7.91441
-	-7.9173
▁talk	-7.91988
▁before	-7.92604
dónde	-7.92854
▁won	-7.93189
▁hora	-7.93522
▁asked	-7.93579
▁over	-7.95081
▁left	-7.95269
▁sin	-7.95437
▁dog	-7.96308
▁put	-7.96349
▁usted	-7.96601
▁way	-7.96749
▁eres	-7.97019
▁sobre	-7.97239
r	-7.97366
▁or	-7.97509
▁leave	-7.98278
▁little	-7.99248
▁ti	-7.99809
▁nothing	-8.00033
▁uno	-8.00075
▁job	-8.00202
y	-8.00346
▁mí	-8.00394
▁perro	-8.00645
▁hombre	-8.00804
▁ayer	-8.00829
▁again	-8.00968
▁verdad	-8.00986
▁yesterday	-8.01298
▁saw	-8.01303
▁comer	-8.01787
▁live	-8.01909
▁after	-8.02098
▁estado	-8.02227
cómo	-8.02378
▁into	-8.03165
▁better	-8.04208
▁down	-8.04541
▁puedes	-8.0462
▁years	-8.04632
▁debe	-8.05325
▁vida	-8.05507
▁english	-8.06028
▁mother	-8.0603
▁alguna	-8.06437
▁find	-8.06776
quién	-8.06893
▁everything	-8.07037
▁nuevo	-8.07454
▁necesito	-8.07549
▁buy	-8.07728
▁inglés	-8.07886
▁stay	-8.08172
▁read	-8.08866
le	-8.09312
▁came	-8.09411
do	-8.09758
▁happy	-8.10122
▁días	-8.10489
▁play	-8.11772
▁first	-8.11878
▁coche	-8.12755
▁decir	-8.13433
ok	-8.13695
▁next	-8.13846
▁mismo	-8.14402
▁todavía	-8.14436
▁gente	-8.14571
▁hecho	-8.14592
▁nosotros	-8.15119
▁tenemos	-8.15325
▁believe	-8.15664
▁life	-8.15667
▁other	-8.15697
▁understand	-8.15969
▁problema	-8.16522
▁children	-8.16594
▁así	-8.16928
▁ask	-8.17764
▁madre	-8.18312
▁hard	-8.18828
▁gustaría	-8.19236
cuál	-8.19311
▁them	-8.1962
▁pensé	-8.20006
▁alguien	-8.20437
▁semana	-8.20641
▁these	-8.21722
▁call	-8.22145
▁keep	-8.22228
▁stop	-8.22455
▁morning	-8.22917
▁plan	-8.23066
▁friends	-8.2312
mente	-8.23172
▁bought	-8.23514
▁wants	-8.2411
on	-8.24629
▁sabía	-8.2481
▁otra	-8.24844
▁name	-8.25066
▁problem	-8.25091
▁door	-8.25163
▁habitación	-8.25523
▁used	-8.25726
▁feel	-8.25776
▁quieres	-8.2618
▁their	-8.26448
▁buen	-8.26524
▁puerta	-8.26532
▁pasado	-8.26557
▁estamos	-8.26858
▁ever	-8.27331
▁escuela	-8.27574
▁deberías	-8.27616
▁doing	-8.28104
▁away	-8.28258
▁después	-8.28825
gún	-8.28825
▁dónde	-8.30153
lo	-8.30242
▁gave	-8.30316
cuánto	-8.30461
▁podría	-8.30811
▁friend	-8.30899
▁casi	-8.30947
▁doctor	-8.31286
▁cosas	-8.31303
▁soon	-8.31447
▁quién	-8.3156
▁mundo	-8.32025
▁1	-8.32822
▁late	-8.32901
▁amigos	-8.32932
▁happened	-8.34295
▁sure	-8.34316
▁feliz	-8.35781
▁niños	-8.361
▁fuera	-8.36144
▁remember	-8.36351
▁ayuda	-8.36889
▁bus	-8.37047
▁difícil	-8.37068
▁lost	-8.37225
▁veces	-8.37365
▁saber	-8.37402
cuándo	-8.37797
▁tus	-8.37945
▁año	-8.38045
▁allí	-8.38099
▁hacerlo	-8.3816
▁already	-8.38283
▁year	-8.38641
▁cómo	-8.38694
▁pronto	-8.3921
▁sea	-8.39309
▁enough	-8.40381
▁auto	-8.40439
▁otro	-8.40746
▁water	-8.40755
▁alone	-8.40862
▁show	-8.40929
▁teacher	-8.40999
▁niño	-8.41224
▁week	-8.41233
▁boy	-8.41471
á	-8.41557
▁married	-8.41805
▁turn	-8.41973
▁ni	-8.42117
▁heard	-8.42209
▁without	-8.42772
▁menos	-8.4283
▁seguro	-8.42945
▁wrong	-8.43006
."	-8.43157
▁dio	-8.43216
▁agua	-8.4324
▁best	-8.43379
▁bad	-8.43454
▁busy	-8.43527
▁even	-8.43716
▁buena	-8.43803
ble	-8.43958
▁comprar	-8.44011
▁mal	-8.44158
▁beautiful	-8.44468
cause	-8.44712
▁desde	-8.44732
▁bed	-8.44983
▁muchos	-8.45217
que	-8.45593
▁often	-8.45713
▁realmente	-8.45752
▁try	-8.46107
▁hear	-8.46153
▁amigo	-8.46158
▁things	-8.46208
▁found	-8.4632
▁cold	-8.46457
▁looking	-8.46899
▁visto	-8.46953
▁comida	-8.4771
▁party	-8.48233
▁same	-8.48475
▁wait	-8.48503
▁thing	-8.48981
▁nuestro	-8.49241
▁conmigo	-8.49243
▁ahí	-8.49245
▁vi	-8.49277
▁done	-8.49433
▁ciudad	-8.49765
0	-8.50095
▁habla	-8.50303
▁vino	-8.50855
▁persona	-8.51414
▁seen	-8.51464
▁nombre	-8.51625
▁food	-8.5164
▁podía	-8.51851
▁sólo	-8.51852
▁brother	-8.52153
puedo	-8.52165
cada	-8.52226
▁train	-8.52603
▁looks	-8.52677
de	-8.52759
▁use	-8.52886
▁ten	-8.5329
▁person	-8.53312
▁big	-8.53446
▁todas	-8.53984
▁everyone	-8.54259
▁knew	-8.54528
▁personas	-8.54795
▁gran	-8.54809
▁fiesta	-8.54901
▁answer	-8.54932
▁vas	-8.54986
▁café	-8.55345
▁hermano	-8.55426
▁tener	-8.56
▁open	-8.56152
▁tren	-8.5638
▁hope	-8.56395
▁tired	-8.56456
en	-8.56555
▁coffee	-8.56723
▁dice	-8.57005
▁hotel	-8.57213
▁toda	-8.57449
▁wish	-8.57774
▁contigo	-8.58119
▁being	-8.58245
▁australia	-8.58328
▁knows	-8.58443
▁while	-8.58684
▁true	-8.58707
▁drink	-8.59038
▁lugar	-8.59536
▁watch	-8.59824
▁learn	-8.59892
▁letter	-8.59971
▁carta	-8.60099
▁around	-8.60108
tuvo	-8.60313
▁haciendo	-8.60398
▁likes	-8.60559
▁suficiente	-8.60574
▁someone	-8.60687
▁japan	-8.60971
▁les	-8.61211
▁tanto	-8.61463
▁profesor	-8.61641
▁japón	-8.61845
▁which	-8.62137
▁girl	-8.62616
▁yet	-8.63024
▁once	-8.63062
▁hospital	-8.63242
▁cama	-8.63328
▁clase	-8.63509
▁acerca	-8.64065
▁salir	-8.64212
▁policía	-8.64416
▁pay	-8.64997
▁leer	-8.65117
▁world	-8.65715
▁mind	-8.65723
▁cuenta	-8.65957
▁bueno	-8.66069
is	-8.66163
▁sleep	-8.66438
▁books	-8.66687
▁muchas	-8.66779
▁few	-8.66936
▁libros	-8.67108
▁nuestra	-8.67187
▁grande	-8.67521
▁momento	-8.67894
most	-8.67929
▁died	-8.68329
▁kind	-8.68396
▁place	-8.68557
▁own	-8.69338
▁days	-8.69552
▁study	-8.69644
▁most	-8.69926
▁care	-8.70177
▁sister	-8.70682
▁diez	-8.70693
▁young	-8.70764
▁write	-8.70984
ther	-8.71136
▁those	-8.71332
▁truth	-8.71332
▁another	-8.71655
▁pasó	-8.71696
▁each	-8.71976
▁hermana	-8.71979
▁siento	-8.7198
ndo	-8.72309
▁cerca	-8.72567
▁walk	-8.7275
▁talking	-8.72839
▁rápido	-8.72954
▁seems	-8.72998
▁lunch	-8.73275
▁parents	-8.733
ando	-8.73796
▁lunes	-8.73934
▁happen	-8.74077
▁family	-8.74264
▁getting	-8.74301
▁espero	-8.74311
estás	-8.74388
▁looked	-8.74546
▁teléfono	-8.74595
▁tv	-8.74928
▁anyone	-8.7493
▁hijo	-8.75305
▁problemas	-8.75606
▁monday	-8.75667
▁tried	-8.75932
▁historia	-8.75994
▁padres	-8.76258
▁afraid	-8.76267
▁early	-8.76272
▁dejó	-8.76291
▁vive	-8.76436
▁pudo	-8.76609
▁great	-8.76609
▁familia	-8.76735
▁fui	-8.76871
▁both	-8.76883
os	-8.77152
▁aún	-8.77352
▁hate	-8.77388
▁ago	-8.77443
▁sido	-8.77499
▁mujer	-8.77902
▁anoche	-8.7799
until	-8.78411
▁vivir	-8.78504
▁vamos	-8.78525
▁rain	-8.78863
▁acuerdo	-8.79007
▁también	-8.79008
▁duran	-8.79111
▁trabajar	-8.79187
tienes	-8.79462
▁mine	-8.79564
▁together	-8.79707
▁puso	-8.79708
▁joven	-8.79892
▁difficult	-8.80011
▁gustan	-8.80039
▁cat	-8.80128
▁tienen	-8.8034
▁jugar	-8.80389
▁nueva	-8.8049
▁cosa	-8.80874
▁horas	-8.81011
▁mayor	-8.81394
▁venir	-8.8147
▁child	-8.81816
▁murió	-8.82172
▁dinner	-8.8253
▁estaban	-8.82633
▁else	-8.82694
l	-8.82868
▁angry	-8.8289
▁wife	-8.83255
▁coming	-8.83634
quieres	-8.8367
▁country	-8.83976
▁donde	-8.83983
▁aprender	-8.84137
▁entre	-8.84682
▁since	-8.84683
▁favorite	-8.84708
▁dije	-8.8506
▁cinco	-8.85076
▁nadar	-8.85159
▁dejar	-8.85311
▁hurt	-8.85657
▁parte	-8.86095
▁himself	-8.86187
▁han	-8.86268
▁encontrar	-8.86284
▁pregunta	-8.86377
▁yourself	-8.8656
▁hice	-8.86561
▁haven	-8.8658
▁mano	-8.86665
▁nobody	-8.86935
puedes	-8.86942
▁tomar	-8.87133
▁accidente	-8.87192
▁question	-8.87403
▁mesa	-8.87408
▁playing	-8.87514
▁ocupado	-8.87531
▁five	-8.88105
▁wouldn	-8.88138
▁hours	-8.88155
▁meeting	-8.8878
▁table	-8.88851
▁hand	-8.88976
▁gato	-8.8907
▁temprano	-8.89213
▁pasar	-8.89335
▁might	-8.89596
▁bastante	-8.89598
▁viene	-8.89846
▁phone	-8.89851
▁matter	-8.89853
▁menudo	-8.89987
▁ayudar	-8.90038
▁televisión	-8.9037
▁meet	-8.90687
?"	-8.90732
▁accident	-8.90917
▁mucha	-8.91137
▁easy	-8.9115
▁everybody	-8.91151
▁sorry	-8.91153
▁reading	-8.91367
▁such	-8.91561
▁fácil	-8.91839
▁estudiar	-8.9191
▁police	-8.91933
▁piano	-8.91936
▁llegar	-8.91968
▁volver	-8.92108
has	-8.9219
▁necesita	-8.9227
▁under	-8.92729
▁month	-8.9303
▁start	-8.93114
▁dormir	-8.93134
▁gracias	-8.93165
▁sí	-8.93178
▁swim	-8.93527
▁d	-8.93698
▁lleva	-8.93803
▁eating	-8.94253
▁visit	-8.94258
▁camino	-8.94332
▁japanese	-8.94335
▁última	-8.94633
▁nice	-8.94657
▁says	-8.94693
▁aren	-8.9505
▁pidió	-8.95142
er	-8.95173
▁waiting	-8.95295
▁trying	-8.95298
▁solía	-8.95561
▁lives	-8.95565
▁far	-8.95612
as	-8.95731
▁fire	-8.95823
▁mientra	-8.96372
▁spend	-8.96372
▁algunos	-8.96924
▁ve	-8.96952
▁drive	-8.9713
▁estación	-8.97271
▁finished	-8.97308
▁wonder	-8.97501
▁office	-8.97583
▁park	-8.97752
▁minutos	-8.97761
▁dar	-8.97844
▁trouble	-8.97846
▁called	-8.97989
▁dicho	-8.98036
▁decided	-8.98108
▁cansado	-8.98504
▁minutes	-8.99056
▁será	-8.99121
▁razón	-8.99301
▁started	-8.9943
▁sola	-8.99531
▁podemos	-8.99825
▁fuerte	-9.00124
▁small	-9.00141
▁lado	-9.00395
la	-9.00426
▁story	-9.00583
▁myself	-9.01014
▁miedo	-9.01016
▁station	-9.01018
▁students	-9.0107
▁estos	-9.01255
▁important	-9.01347
having	-9.01442
▁tonight	-9.01469
verdad	-9.01837
▁colegio	-9.01882
▁preguntó	-9.01889
▁window	-9.01896
▁ready	-9.01967
▁woman	-9.0232
▁felt	-9.02327
▁tipo	-9.02345
▁alto	-9.02454
▁thank	-9.02564
▁país	-9.02691
▁met	-9.03155
emos	-9.03192
▁arrived	-9.03265
ía	-9.03443
▁error	-9.03607
▁conozco	-9.0364
▁radio	-9.03641
▁ran	-9.03665
▁importante	-9.03725
▁shoes	-9.03765
▁frío	-9.04086
▁ventana	-9.04128
▁sick	-9.04529
▁importa	-9.04583
▁music	-9.04919
▁city	-9.0498
▁hablando	-9.05016
▁red	-9.0517
0.	-9.05305
▁change	-9.0534
▁usually	-9.05443
▁vio	-9.05667
i	-9.05923
▁zapatos	-9.05939
▁estuvo	-9.06
▁working	-9.06341
▁hot	-9.06373
▁oficina	-9.06793
▁haya	-9.06967
ar	-9.06994
▁hijos	-9.07191
▁música	-9.07252
▁pretty	-9.07253
▁word	-9.07393
▁ate	-9.07539
▁anymore	-9.07713
▁película	-9.07806
▁fun	-9.08011
▁goes	-9.08601
▁china	-9.08644
▁fast	-9.09076
▁compró	-9.09108
▁pienso	-9.09108
▁cabeza	-9.09109
▁hubiera	-9.09109
▁gone	-9.09188
▁da	-9.0943
▁fin	-9.09557
▁llegó	-9.09593
▁quisiera	-9.09599
▁punto	-9.09691
▁ustedes	-9.09816
▁homework	-9.1005
▁needs	-9.10369
▁large	-9.10601
▁broke	-9.10609
▁deja	-9.10686
▁tal	-9.10702
sabes	-9.10712
▁rich	-9.11017
▁reloj	-9.11407
▁christmas	-9.11478
▁enjoy	-9.11486
▁mistake	-9.11714
▁estudiantes	-9.11863
▁bicicleta	-9.11959
▁tennis	-9.11959
▁esperar	-9.12029
▁picture	-9.12113
▁juntos	-9.12368
▁town	-9.12451
▁fueron	-9.12502
▁seis	-9.12633
▁único	-9.12927
▁eyes	-9.12934
▁reunión	-9.12955
▁movie	-9.13115
▁di	-9.13195
▁contra	-9.1327
▁ojos	-9.13308
▁near	-9.1341
▁six	-9.13422
▁esperando	-9.13428
▁primera	-9.13509
▁times	-9.13701
nos	-9.13986
▁media	-9.14075
▁cualquier	-9.14281
▁baby	-9.14398
▁nin	-9.14672
▁edad	-9.14828
▁high	-9.1488
▁afternoon	-9.14893
▁breakfast	-9.14893
▁misma	-9.14899
▁quite	-9.15011
▁run	-9.15083
▁language	-9.15091
▁ido	-9.15115
▁plane	-9.15117
▁forget	-9.15491
▁dream	-9.15497
▁game	-9.156
▁tenis	-9.16387
hay	-9.16434
00	-9.16631
▁creer	-9.16858
▁fumar	-9.16904
▁esposa	-9.16904
ba	-9.17512
▁sueño	-9.17647
▁finish	-9.17797
▁stupid	-9.17914
▁río	-9.17916
▁quien	-9.17924
▁queda	-9.18589
▁song	-9.18737
▁class	-9.18748
▁somos	-9.18902
▁hair	-9.18968
▁war	-9.19312
▁unidos	-9.19551
▁debo	-9.19573
▁pasa	-9.1971
▁viejo	-9.19728
▁river	-9.19983
▁bring	-9.19984
▁buscando	-9.19986
▁summer	-9.19988
▁against	-9.20021
▁caja	-9.20249
▁advice	-9.20507
▁interesting	-9.20521
▁canción	-9.20662
▁cake	-9.2079
▁guerra	-9.21033
▁compré	-9.21033
▁conducir	-9.21041
▁listen	-9.21107
▁haga	-9.21419
▁comes	-9.21452
▁estados	-9.21588
▁ganas	-9.21592
▁present	-9.21628
▁ra	-9.219
▁verte	-9.21959
▁bajo	-9.22043
▁caught	-9.22094
▁pueda	-9.22404
▁chico	-9.22405
▁palabra	-9.22406
▁lived	-9.22587
ever	-9.22965
▁smoking	-9.23178
▁fell	-9.2319
▁face	-9.23323
▁close	-9.23391
▁verano	-9.23475
▁fish	-9.23619
▁escribir	-9.23624
▁through	-9.23707
▁perder	-9.24107
▁parecía	-9.24255
▁milk	-9.2426
▁along	-9.24262
▁studying	-9.24416
▁number	-9.24587
▁número	-9.24587
▁kill	-9.24644
▁began	-9.24798
▁salió	-9.24799
▁veo	-9.25461
▁oído	-9.25717
not	-9.25856
▁weather	-9.25899
▁longer	-9.25957
▁re	-9.25957
▁sol	-9.25961
▁taxi	-9.26258
▁respuesta	-9.26269
▁llave	-9.26272
▁free	-9.2631
▁pueden	-9.26435
▁avión	-9.26454
▁calle	-9.26717
▁tienda	-9.26824
▁cuarto	-9.27013
▁sabes	-9.27082
▁cree	-9.27243
▁chica	-9.27402
▁b	-9.27539
▁lejos	-9.27576
▁interesante	-9.2797
▁full	-9.28375
▁pensar	-9.28424
▁perdido	-9.28708
▁sería	-9.28714
▁leche	-9.28725
▁later	-9.28875
▁iba	-9.28928
▁bebé	-9.29103
▁manera	-9.29118
▁chance	-9.29121
▁dolor	-9.29137
c	-9.29146
▁short	-9.29214
▁autobús	-9.29279
▁navidad	-9.29854
▁dólares	-9.29859
▁terminar	-9.29949
í	-9.30211
▁médico	-9.3028
▁hour	-9.30302
▁death	-9.30437
▁sit	-9.30462
▁cierto	-9.30476
▁older	-9.3049
▁mean	-9.30658
▁age	-9.31082
▁watching	-9.3121
▁usar	-9.31365
▁makes	-9.31552
▁secret	-9.31592
▁kept	-9.31598
▁box	-9.31988
▁juego	-9.32067
▁living	-9.32187
▁america	-9.3233
▁snow	-9.32414
▁pelo	-9.32612
▁bit	-9.32618
da	-9.32684
▁thinking	-9.32746
▁dark	-9.32767
▁ropa	-9.32778
▁quedó	-9.32804
▁capaz	-9.32843
▁sat	-9.32857
▁llevar	-9.33179
▁street	-9.3326
▁vivo	-9.33262
▁cut	-9.33315
ado	-9.33364
▁oír	-9.33738
▁tree	-9.33877
▁esté	-9.34152
▁light	-9.34335
▁clean	-9.3434
be	-9.34438
▁ven	-9.34557
▁encontré	-9.34609
▁killed	-9.34709
▁pie	-9.34905
▁loves	-9.34982
▁cámara	-9.35076
▁student	-9.35102
ninguna	-9.35181
▁enfermo	-9.35181
▁part	-9.35187
▁parque	-9.35202
▁mío	-9.3542
▁encanta	-9.35679
▁became	-9.35797
▁vos	-9.35826
▁sometimes	-9.35899
▁camera	-9.3633
▁surprised	-9.36479
▁seem	-9.36565
▁par	-9.36567
▁hands	-9.36637
está	-9.36711
▁hija	-9.36941
▁libre	-9.3695
▁daughter	-9.36955
▁regalo	-9.36964
▁spoke	-9.37021
▁perdió	-9.37022
▁vaya	-9.37163
▁end	-9.37222
▁die	-9.37299
▁stand	-9.37479
▁trust	-9.37529
▁bicycle	-9.37643
▁york	-9.3765
▁white	-9.37653
▁preguntas	-9.37822
▁computer	-9.38221
▁hurry	-9.38268
▁tokyo	-9.38268
▁forgot	-9.38268
▁muerte	-9.38269
▁cuidado	-9.38273
▁cara	-9.38419
▁questions	-9.38535
▁hungry	-9.38897
▁quit	-9.38902
▁stopped	-9.38903
▁estas	-9.39071
▁mak	-9.39232
▁manos	-9.39288
▁listo	-9.39336
▁entender	-9.39466
▁pude	-9.39531
▁born	-9.39537
▁real	-9.40126
▁company	-9.40166
▁luz	-9.40188
▁wine	-9.40266
▁miss	-9.40371
▁forma	-9.4047
▁vacaciones	-9.40808
▁realidad	-9.4081
▁beber	-9.40936
▁dollars	-9.40947
▁store	-9.41422
▁pequeño	-9.41451
▁calor	-9.4146
▁duro	-9.4156
▁primero	-9.41617
▁news	-9.41942
▁sos	-9.41963
▁careful	-9.42065
▁terrible	-9.42074
▁spent	-9.42102
▁acá	-9.42102
taking	-9.42104
▁consejo	-9.42104
ra	-9.4254
▁tocar	-9.42578
▁glad	-9.42713
▁posible	-9.42728
▁hambre	-9.42755
▁birthday	-9.42756
▁hold	-9.42773
able	-9.43221
al	-9.43327
▁cuanto	-9.43423
▁ojal	-9.43434
▁dead	-9.43439
▁secreto	-9.43518
▁queremos	-9.43706
▁culpa	-9.43754
▁moment	-9.43905
▁lie	-9.43912
▁tokio	-9.44076
▁odio	-9.44077
▁pregunto	-9.4408
▁espera	-9.44156
▁hit	-9.4427
▁e	-9.4463
▁drunk	-9.44741
▁vuelta	-9.44776
▁niña	-9.44779
▁whe	-9.44862
▁necesitas	-9.4511
▁tea	-9.45142
▁falta	-9.45282
tom	-9.45401
▁banco	-9.45414
▁rest	-9.45427
▁largo	-9.45457
▁viaje	-9.45464
▁cocina	-9.45707
▁10	-9.45781
▁volvió	-9.46132
▁malo	-9.4638
▁trabaja	-9.4657
▁beer	-9.4666
▁cumpleaños	-9.46771
▁clothes	-9.46775
▁flores	-9.46791
▁déjame	-9.46798
▁extraño	-9.46829
▁become	-9.46841
▁hombres	-9.46842
▁entiendo	-9.4685
clock	-9.46968
▁hagas	-9.47078
▁saying	-9.47323
▁follow	-9.47332
▁behind	-9.47454
▁cerveza	-9.47454
▁suerte	-9.47455
▁equipo	-9.4746
▁empezó	-9.47477
▁siquiera	-9.47485
▁van	-9.47566
▁llama	-9.47728
▁cena	-9.47754
▁terminado	-9.4816
▁sing	-9.48203
▁té	-9.48211
▁recuerdo	-9.48215
▁rico	-9.48225
▁cost	-9.48246
▁flowers	-9.48615
▁crees	-9.487
▁ruido	-9.48784
▁tío	-9.48843
▁novia	-9.48916
▁oportunidad	-9.49466
▁business	-9.49535
▁hiciste	-9.49537
▁haci	-9.49705
▁entrar	-9.4993
▁pagar	-9.50107
▁japonés	-9.50244
▁perros	-9.50327
▁canadian	-9.50351
▁cantar	-9.50532
▁touch	-9.50753
▁dur	-9.5086
▁cuatro	-9.50951
ween	-9.50951
▁possible	-9.50951
▁wrote	-9.5096
▁head	-9.50966
▁haré	-9.50992
▁justo	-9.5107
▁eaten	-9.51081
▁prefer	-9.51198
▁dogs	-9.51295
▁helped	-9.51347
▁piensa	-9.51423
▁árbol	-9.51599
▁compañía	-9.51665
▁próximo	-9.51665
▁catch	-9.51674
an	-9.51726
ste	-9.5175
▁building	-9.51803
▁foto	-9.51806
▁estudiante	-9.51813
▁works	-9.51824
▁send	-9.5185
▁stayed	-9.52174
▁speaking	-9.52219
▁trip	-9.5229
▁expensive	-9.52387
▁girlfriend	-9.5239
▁jamás	-9.52394
▁wearing	-9.52464
▁paper	-9.5253
▁changed	-9.52622
▁os	-9.52768
▁dress	-9.52919
▁final	-9.52986
▁others	-9.53105
▁black	-9.53109
▁uncle	-9.5311
▁pensando	-9.53124
▁lengua	-9.53265
▁allá	-9.53467
▁vista	-9.5384
▁reason	-9.53993
▁asunto	-9.54002
▁tarea	-9.54004
▁sunday	-9.54006
▁key	-9.54016
▁advise	-9.54136
▁esperaba	-9.54187
▁bet	-9.54209
▁golf	-9.54563
▁nieve	-9.5458
▁outside	-9.54589
aron	-9.5462
▁four	-9.54737
▁team	-9.54837
▁aconsej	-9.54893
▁cook	-9.55103
▁decidió	-9.55317
▁travel	-9.55381
▁quieras	-9.55399
▁speaks	-9.55491
▁cuánto	-9.55518
▁palabras	-9.55626
▁color	-9.56005
▁anybody	-9.56062
podrías	-9.56093
▁order	-9.56136
▁dame	-9.5616
▁estaré	-9.56204
▁bank	-9.56225
▁gets	-9.56262
▁otros	-9.56401
▁blame	-9.56701
▁break	-9.56909
▁visitar	-9.57019
▁pain	-9.57279
▁estará	-9.57377
▁conoce	-9.57479
▁única	-9.57571
▁mujeres	-9.57719
▁canadiense	-9.57792
▁extranjero	-9.57794
amos	-9.58148
▁strange	-9.58255
▁women	-9.58334
▁running	-9.58335
▁famous	-9.58337
▁acaba	-9.58387
▁lista	-9.58419
▁worked	-9.58535
▁puesto	-9.58559
▁cup	-9.58563
▁eran	-9.58634
▁tall	-9.58676
▁heart	-9.58926
▁herself	-9.59104
▁cuándo	-9.59192
▁amor	-9.592
▁necesitamos	-9.59247
▁ice	-9.59305
▁vestido	-9.59318
▁equivocado	-9.59329
▁point	-9.59362
▁whole	-9.59508
▁needed	-9.59622
▁oí	-9.59654
▁asleep	-9.59879
▁dentro	-9.59879
▁último	-9.59879
▁perdí	-9.59886
▁fuego	-9.5993
▁salud	-9.59942
▁pan	-9.59999
▁pequeña	-9.60128
▁different	-9.60618
▁lose	-9.60629
▁biblioteca	-9.6066
▁edificio	-9.6066
▁examen	-9.6067
▁glasses	-9.6072
▁escuchar	-9.60929
▁debemos	-9.60968
▁thinks	-9.61179
▁apena	-9.61345
▁strong	-9.61402
▁decisión	-9.61448
▁proud	-9.61448
▁floor	-9.61448
▁sound	-9.6174
▁carne	-9.61751
▁taza	-9.62242
▁paid	-9.62259
▁noise	-9.6249
▁bag	-9.6253
▁explain	-9.62919
▁aquel	-9.62997
▁baseball	-9.63041
▁éxito	-9.63041
▁sombrero	-9.63042
▁dangerous	-9.63042
▁library	-9.63043
▁tenido	-9.63066
▁trabajando	-9.63068
▁montón	-9.63077
▁least	-9.63097
▁offer	-9.63104
▁move	-9.63131
▁diccionario	-9.63302
▁quieren	-9.63367
ron	-9.63576
▁air	-9.6358
▁telephone	-9.63693
▁llover	-9.63811
▁crazy	-9.63848
▁jardín	-9.63848
▁lluvia	-9.63848
▁quickly	-9.63858
▁caminar	-9.63895
u	-9.6397
▁raining	-9.64071
▁worry	-9.64564
▁dictionary	-9.64661
▁poder	-9.64664
▁interested	-9.6469
▁loved	-9.64754
▁primer	-9.65119
▁win	-9.65202
▁popular	-9.65206
▁sale	-9.65314
▁conseguir	-9.65479
▁fútbol	-9.6548
▁club	-9.65483
▁exactly	-9.65485
▁encontró	-9.65488
▁hide	-9.65505
▁empezar	-9.65509
▁agree	-9.65659
▁restaurant	-9.65676
▁mala	-9.65732
▁gatos	-9.65786
▁restaurante	-9.65821
▁return	-9.66185
▁alrededor	-9.66236
▁cayó	-9.66309
▁errores	-9.6643
▁decirle	-9.6651
▁muerto	-9.66668
▁haría	-9.66682
▁waited	-9.66712
▁takes	-9.66744
▁cats	-9.6687
▁played	-9.66876
▁safe	-9.67096
▁treinta	-9.6714
▁exactamente	-9.67149
▁sentido	-9.67158
▁weight	-9.67243
▁problems	-9.67445
▁favorito	-9.67497
▁poor	-9.67921
▁poner	-9.67934
▁health	-9.67946
▁concert	-9.67981
▁sitio	-9.67983
▁baño	-9.67985
▁frente	-9.6799
▁pensaba	-9.6799
▁leyendo	-9.67994
▁probabl	-9.67996
▁thirty	-9.6804
▁men	-9.68088
▁camisa	-9.68342
▁blanco	-9.68355
▁inteligente	-9.68368
▁tenga	-9.68387
▁cenar	-9.68461
▁mistakes	-9.68563
▁loco	-9.68572
▁pass	-9.6866
▁words	-9.68666
▁certain	-9.68828
▁swimming	-9.68828
▁siete	-9.68829
▁front	-9.6883
▁"¿	-9.68837
▁lucky	-9.68846
▁concierto	-9.68863
▁severa	-9.6893
cuánta	-9.69194
eres	-9.69328
▁sigue	-9.69371
▁result	-9.69393
▁garden	-9.6956
▁television	-9.69683
▁umbrella	-9.69683
▁atención	-9.69711
▁entonces	-9.69718
ada	-9.69768
▁sal	-9.70009
▁evening	-9.7002
"	-9.70051
▁abogado	-9.70088
ited	-9.70114
▁pens	-9.70143
ción	-9.70232
▁mad	-9.70342
▁glass	-9.7048
▁peligro	-9.70532
▁béisbol	-9.70545
▁miró	-9.70547
▁half	-9.70547
▁guitarra	-9.70552
▁jugando	-9.70552
▁dijiste	-9.70555
▁llorar	-9.70562
▁seven	-9.70573
▁pasando	-9.70593
▁seemed	-9.70729
▁mira	-9.70806
▁clases	-9.70845
▁opened	-9.70932
▁dormido	-9.70952
▁ganar	-9.71081
▁broken	-9.7126
▁cry	-9.71321
▁guitar	-9.71407
▁paraguas	-9.71414
▁prefiero	-9.71414
▁finally	-9.71466
▁estuve	-9.71652
▁deal	-9.71738
▁walked	-9.71739
▁caso	-9.71833
el	-9.71876
▁shirt	-9.71901
▁aire	-9.71946
▁almuerzo	-9.72291
▁road	-9.72291
▁somebody	-9.72291
▁cuesta	-9.72298
▁estudiando	-9.72303
▁wear	-9.72316
▁pasada	-9.72318
▁vendrá	-9.72343
cabo	-9.72352
▁venga	-9.72356
g	-9.72833
▁movies	-9.7287
▁guess	-9.73105
▁dirección	-9.73176
▁side	-9.73206
▁missed	-9.73383
▁llamar	-9.73472
▁choice	-9.73616
▁talked	-9.7392
▁peor	-9.73998
▁comió	-9.7407
▁entró	-9.74076
▁nuestros	-9.74076
▁dime	-9.74182
▁arm	-9.74183
▁sad	-9.74232
▁accept	-9.74834
ate	-9.74903
▁quizá	-9.7497
▁universidad	-9.7497
rought	-9.74971
▁husband	-9.74977
▁feeling	-9.74997
▁animales	-9.75021
▁shut	-9.75074
▁haz	-9.751
▁sell	-9.75131
▁estaría	-9.7521
▁mía	-9.75231
▁learned	-9.75354
▁lawyer	-9.75465
▁abuelo	-9.75472
▁minute	-9.75527
▁pedí	-9.75641
▁expect	-9.75661
▁realize	-9.75834
▁clear	-9.75837
▁llamó	-9.75879
▁figure	-9.7588
▁lying	-9.75883
▁states	-9.76076
▁smoke	-9.76203
▁patient	-9.76329
▁barco	-9.7637
▁seguir	-9.76379
▁apple	-9.76451
▁sent	-9.76654
▁situación	-9.76797
▁deberes	-9.76827
▁driver	-9.76873
▁viven	-9.76961
▁rules	-9.7754
▁thanks	-9.77667
▁rompió	-9.77723
▁rato	-9.77758
▁forward	-9.77817
▁meat	-9.77864
▁fine	-9.78117
▁hat	-9.78145
▁estabas	-9.78372
▁dance	-9.78479
vas	-9.78492
▁piensas	-9.78613
▁danger	-9.78656
▁attention	-9.78657
▁either	-9.78657
▁habría	-9.7866
▁mamá	-9.78664
▁siendo	-9.78679
▁feed	-9.78699
▁paris	-9.78705
▁crying	-9.7876
▁seeing	-9.79094
▁control	-9.79154
▁estúpido	-9.79214
▁peso	-9.7923
▁wall	-9.79231
▁p	-9.79254
▁ok	-9.79305
▁pick	-9.79492
▁leaving	-9.79601
▁twice	-9.79601
▁situation	-9.79601
▁completamente	-9.79605
▁animals	-9.79705
▁mar	-9.79719
▁fishing	-9.79768
▁vale	-9.79904
▁drinking	-9.7992
▁boys	-9.79988
▁wash	-9.80089
▁case	-9.8032
▁opinión	-9.80553
▁pudiera	-9.80553
▁vacation	-9.80554
▁desk	-9.8056
▁probablemente	-9.80568
▁finalmente	-9.80588
▁solve	-9.80607
▁invited	-9.80646
▁digas	-9.80789
▁irme	-9.80829
▁visited	-9.80841
▁sala	-9.80923
▁arrive	-9.81004
▁promise	-9.81018
▁decision	-9.81088
▁hermosa	-9.81161
▁minuto	-9.81183
to	-9.81231
▁responder	-9.81251
turned	-9.81267
▁playa	-9.81421
▁normal	-9.81454
▁driving	-9.81514
▁parís	-9.81515
▁share	-9.81516
▁imposible	-9.81517
▁terminó	-9.81522
▁alive	-9.8156
▁llevaba	-9.81641
▁sentó	-9.81658
▁lago	-9.81952
▁llev	-9.82018
▁cambiar	-9.82234
▁winter	-9.82486
▁ocupada	-9.82489
▁papá	-9.825
▁beach	-9.82504
▁trata	-9.8263
▁pen	-9.82644
▁ayudarte	-9.82717
▁closed	-9.82757
▁known	-9.82879
▁ello	-9.82905
▁kids	-9.83019
▁vaso	-9.83458
▁blue	-9.83466
▁cuchillo	-9.83466
▁divertido	-9.83466
▁suppose	-9.83466
▁traffic	-9.83466
▁excuse	-9.83466
▁worried	-9.83467
▁invierno	-9.83468
▁address	-9.83473
▁ocurrió	-9.83475
▁completely	-9.8348
▁grandfather	-9.83487
rank	-9.83742
▁second	-9.84111
▁pedir	-9.84122
▁mountain	-9.84146
▁seat	-9.84159
▁resolver	-9.84166
puede	-9.84278
▁causa	-9.84284
▁papel	-9.84389
▁boca	-9.84425
▁test	-9.84431
▁próxima	-9.84456
▁pieza	-9.84458
▁duele	-9.84479
▁carro	-9.84544
aba	-9.84569
▁lake	-9.84609
▁sleeping	-9.84768
▁medio	-9.8509
▁peligroso	-9.85124
▁montaña	-9.85153
▁ticket	-9.85154
▁ship	-9.85159
▁shopping	-9.85456
▁atrás	-9.85457
▁knife	-9.85459
▁meses	-9.85662
▁pena	-9.85801
▁eggs	-9.85913
crees	-9.86117
▁triste	-9.86151
▁kiss	-9.86233
▁pase	-9.86384
▁abroad	-9.86466
▁kitchen	-9.86466
▁londres	-9.86466
▁london	-9.8647
▁hubo	-9.8647
▁intentando	-9.86476
▁mayoría	-9.86499
▁younger	-9.86508
▁casado	-9.86794
▁learning	-9.86806
tú	-9.87078
▁weekend	-9.87172
▁voz	-9.87486
▁writing	-9.87486
▁abrió	-9.87487
▁cine	-9.87487
▁airport	-9.87487
▁comido	-9.87487
▁desearía	-9.87498
▁estábamos	-9.87507
▁venido	-9.87509
▁lamento	-9.87538
▁vayas	-9.87576
▁singing	-9.87628
▁promised	-9.87645
▁viajar	-9.87686
▁mantener	-9.87731
▁capital	-9.88054
▁hiciera	-9.88099
▁esos	-9.88179
▁guy	-9.88259
▁worth	-9.8829
▁fight	-9.8836
▁llegué	-9.88517
▁ambos	-9.8852
▁suele	-9.8854
▁per	-9.88681
▁diga	-9.88958
▁huevos	-9.89002
▁less	-9.89279
ro	-9.89545
▁except	-9.89558
▁aeropuerto	-9.89559
▁empieza	-9.89559
▁wake	-9.89559
▁abrigo	-9.89561
▁sense	-9.89708
▁tie	-9.89961
▁begin	-9.90378
▁abrir	-9.9038
▁dejes	-9.90466
▁simple	-9.9055
▁serious	-9.90573
▁impossible	-9.90612
▁coat	-9.90612
▁escritorio	-9.90612
▁intentó	-9.90621
▁carry	-9.90635
▁hiding	-9.90661
▁ideas	-9.90723
▁passed	-9.90765
▁tenés	-9.90781
▁grandes	-9.90802
▁manzanas	-9.90825
▁recordar	-9.90879
▁doubt	-9.90887
▁though	-9.90944
ya	-9.90963
querés	-9.91191
▁cocinar	-9.91291
▁esas	-9.91313
▁opinion	-9.91339
▁morir	-9.91356
tiene	-9.91359
▁machine	-9.9139
▁success	-9.91672
▁medicine	-9.91675
▁corriendo	-9.91676
▁siguió	-9.91679
▁worse	-9.9171
▁sitting	-9.91717
▁dile	-9.91773
▁traje	-9.91795
▁also	-9.91803
▁llaves	-9.92026
▁apples	-9.92117
▁silla	-9.9251
▁manzana	-9.92533
▁amable	-9.92671
▁caliente	-9.92751
▁soccer	-9.92751
▁written	-9.92751
▁hablo	-9.92754
▁estuviera	-9.92754
▁bailar	-9.92774
▁sun	-9.92785
▁suelo	-9.92805
▁respecto	-9.92808
▁listening	-9.92947
▁consider	-9.93028
tion	-9.93317
▁pareces	-9.93385
▁piece	-9.93635
▁contar	-9.93635
▁bird	-9.93637
▁afuera	-9.93668
▁desayuno	-9.93842
▁hacía	-9.93846
▁tendrá	-9.93885
▁saben	-9.93927
▁chicos	-9.94296
▁partido	-9.94704
▁alta	-9.94718
▁clima	-9.94845
▁bebe	-9.9491
▁propia	-9.94937
▁siguiente	-9.94937
▁cielo	-9.94937
▁trató	-9.94937
▁felices	-9.94941
▁aquella	-9.94969
▁funciona	-9.95
▁serio	-9.95018
▁liked	-9.95274
para	-9.95281
▁taken	-9.95409
▁gas	-9.95437
alguna	-9.95566
ha	-9.95649
▁mensaje	-9.95817
▁fotos	-9.95829
▁rojo	-9.95843
▁derecho	-9.9585
▁lleno	-9.9587
▁count	-9.95932
▁foreign	-9.96033
▁church	-9.96048
▁corazón	-9.96048
▁ninguno	-9.96048
▁detrás	-9.96048
▁jefe	-9.96051
▁quedarme	-9.96106
▁supongo	-9.96136
▁expected	-9.96197
unque	-9.96203
▁matar	-9.96662
▁past	-9.96817
▁paciente	-9.9694
▁message	-9.96969
▁chair	-9.96992
▁brazo	-9.96993
▁smart	-9.97171
▁iglesia	-9.97171
▁sky	-9.97171
▁mirando	-9.97194
▁noticias	-9.97237
▁months	-9.97443
▁walking	-9.97504
▁american	-9.97518
▁cause	-9.97604
▁dicen	-9.97626
▁irse	-9.97627
▁waste	-9.97901
▁perfect	-9.97922
▁public	-9.97952
▁tierra	-9.98095
▁teach	-9.98132
▁precio	-9.98143
▁happens	-9.98205
▁francia	-9.98308
▁éste	-9.98308
▁ocho	-9.98315
▁escribió	-9.98316
▁olvidó	-9.9832
▁favorita	-9.98365
▁ball	-9.98373
▁confiar	-9.98408
▁comprado	-9.98509
▁salt	-9.98719
con	-9.98738
▁girls	-9.98746
▁torta	-9.99175
▁keys	-9.99195
▁caro	-9.99239
▁foot	-9.99354
▁save	-9.99368
▁diciendo	-9.99458
▁viendo	-9.99461
▁pescado	-9.9948
▁correcto	-9.99666
▁france	-9.9972
▁pretend	-9.99879
▁querés	-9.99994
▁languages	-10.0015
▁hermanos	-10.0028
▁quiera	-10.003
▁quedé	-10.0036
▁animal	-10.0043
▁sentence	-10.0046
▁horse	-10.0048
▁join	-10.0061
▁empleo	-10.0062
▁osaka	-10.0062
▁shot	-10.0062
▁bread	-10.0062
▁easily	-10.0062
▁shop	-10.0063
▁across	-10.0063
▁leído	-10.0064
▁refused	-10.0067
▁correr	-10.0085
▁ves	-10.0092
▁amo	-10.0121
or	-10.0129
podría	-10.0132
▁mil	-10.0138
▁smile	-10.0149
▁llega	-10.0159
▁chocolate	-10.0163
▁fault	-10.0163
us	-10.0165
▁negro	-10.0166
▁anciano	-10.0166
▁contento	-10.0166
▁periódico	-10.0166
▁domingo	-10.0168
▁iré	-10.0171
▁tras	-10.0174
▁gun	-10.0175
▁necesario	-10.018
▁comiendo	-10.018
▁choose	-10.018
▁novio	-10.0181
▁segura	-10.0182
▁carefully	-10.0188
cia	-10.0194
▁pared	-10.0206
▁lend	-10.0214
▁happening	-10.0214
▁cuál	-10.0246
▁sounds	-10.0255
▁pictures	-10.026
▁law	-10.0274
▁abierta	-10.0283
▁amiga	-10.0286
▁thousand	-10.0299
▁boss	-10.0299
▁sacó	-10.0299
▁boyfriend	-10.03
▁novela	-10.03
▁poca	-10.03
▁comenzó	-10.0301
▁normalmente	-10.0303
▁necesitaba	-10.0307
▁inside	-10.031
▁domingos	-10.031
▁dejado	-10.0313
▁estés	-10.0317
▁reglas	-10.0337
▁cream	-10.0345
▁warm	-10.0355
▁surprise	-10.0388
▁novel	-10.0396
▁voice	-10.0406
▁vuelve	-10.0406
▁piso	-10.0406
▁pizza	-10.0407
est	-10.0409
▁bath	-10.0412
▁significa	-10.0414
▁almorzar	-10.042
▁habló	-10.042
▁pueblo	-10.042
▁quedarse	-10.0424
▁remind	-10.0444
▁quiet	-10.0479
▁nació	-10.0501
▁noticia	-10.0534
▁future	-10.0541
▁tarta	-10.0541
▁claro	-10.0541
▁suena	-10.0542
▁ayudó	-10.0542
▁vosotros	-10.0544
▁simplemente	-10.0545
▁yours	-10.0549
▁ride	-10.0588
▁honest	-10.0614
▁quedar	-10.0657
▁pobre	-10.0657
▁asiento	-10.0664
▁college	-10.0665
▁enemy	-10.0665
▁hicieron	-10.0665
▁chinese	-10.0665
▁prisa	-10.0665
▁suddenly	-10.0666
▁parar	-10.0666
▁campo	-10.0667
▁evitar	-10.0667
▁llegado	-10.0668
▁contó	-10.0672
▁cooking	-10.0681
▁pon	-10.0697
▁usa	-10.0704
▁pas	-10.0724
▁echar	-10.0726
▁verme	-10.0728
▁cartas	-10.0728
▁date	-10.0731
iendo	-10.0734
acaso	-10.0741
▁escrito	-10.0746
▁c	-10.0752
▁remain	-10.0772
▁difference	-10.0777
▁hundred	-10.0783
▁president	-10.0785
▁encontrado	-10.079
▁somewhere	-10.0791
▁slowly	-10.0791
▁demás	-10.0796
th	-10.0804
less	-10.0846
ncluso	-10.0885
▁sign	-10.0887
▁gustaba	-10.0895
▁fat	-10.0897
▁llegue	-10.0905
▁bridge	-10.0911
▁heavy	-10.0916
▁couple	-10.0916
▁marry	-10.0916
▁policeman	-10.0917
▁translate	-10.0917
▁actually	-10.0917
▁cita	-10.0918
▁fear	-10.0919
▁presidente	-10.0921
▁laughed	-10.0925
▁beat	-10.0925
▁sentía	-10.0936
▁fuimos	-10.0941
▁varia	-10.0942
▁buenos	-10.0958
▁wor	-10.1
▁escape	-10.103
▁puente	-10.1037
▁helado	-10.1038
▁borracho	-10.104
▁propio	-10.1042
▁newspaper	-10.1042
▁caballo	-10.1043
▁lloviendo	-10.1044
▁empty	-10.1045
▁eye	-10.1045
▁acostumbrado	-10.1045
▁mouth	-10.1047
▁pesar	-10.1047
▁américa	-10.1048
▁entered	-10.1054
▁none	-10.1056
▁pescar	-10.1056
▁shower	-10.1062
▁standing	-10.1064
▁stolen	-10.1073
▁decirme	-10.1088
▁green	-10.1101
▁entiende	-10.1132
▁ama	-10.1134
▁fix	-10.1162
▁rock	-10.117
▁regret	-10.1171
▁azúcar	-10.1174
▁experiencia	-10.1174
▁futuro	-10.1174
▁earth	-10.1174
▁necessary	-10.1175
▁idioma	-10.1175
▁verdaderamente	-10.1175
▁humor	-10.118
bajo	-10.1182
▁escribe	-10.1182
▁limpiar	-10.1193
▁ayudarme	-10.1196
in	-10.1196
▁t	-10.1199
▁gana	-10.1199
vimos	-10.1211
▁aware	-10.1213
▁report	-10.1215
▁escucha	-10.122
▁volveré	-10.1221
▁estudia	-10.1222
▁correct	-10.1237
▁brothers	-10.1287
▁experience	-10.129
▁querría	-10.1304
▁prison	-10.1304
▁dejé	-10.1306
▁orgulloso	-10.1306
▁daño	-10.1306
▁twenty	-10.1306
▁nervous	-10.1306
▁público	-10.1306
▁funny	-10.1306
▁eight	-10.1307
▁prueba	-10.1307
▁marido	-10.1307
▁blood	-10.1307
▁check	-10.1307
▁casó	-10.1307
▁price	-10.1308
▁smell	-10.1308
▁sugar	-10.1308
▁habrá	-10.1309
▁failed	-10.1314
▁larga	-10.1316
▁llevo	-10.1317
▁paseo	-10.1321
▁moved	-10.133
▁toca	-10.136
▁plans	-10.1372
ás	-10.1389
▁semanas	-10.139
▁siente	-10.1403
▁sentí	-10.142
▁german	-10.1431
▁enfermedad	-10.1432
▁fly	-10.1432
▁luna	-10.1436
▁enfadado	-10.1437
▁durmiendo	-10.1439
▁kyoto	-10.144
▁button	-10.1442
▁correo	-10.1449
▁dientes	-10.1454
▁ley	-10.1479
▁hará	-10.1544
▁compras	-10.1548
ought	-10.1569
▁fall	-10.158
▁pájaro	-10.158
▁ponga	-10.1584
▁viste	-10.1603
▁guys	-10.1609
▁leaves	-10.1611
▁sino	-10.1633
▁haces	-10.1668
▁veía	-10.1673
▁eats	-10.1675
▁seas	-10.1686
▁deep	-10.1707
▁luego	-10.1711
▁proyecto	-10.1711
▁wallet	-10.1711
▁bolsa	-10.1712
▁blind	-10.1714
▁enamorado	-10.1716
▁famoso	-10.1717
▁bottle	-10.1718
▁joke	-10.1719
▁sentado	-10.1719
▁gift	-10.1722
▁kissed	-10.1728
▁dado	-10.1744
▁dad	-10.1791
▁clock	-10.181
▁vario	-10.1814
▁decide	-10.1846
▁enferma	-10.185
▁storm	-10.185
▁veinte	-10.185
▁negó	-10.185
▁grew	-10.185
▁zoo	-10.185
▁tormenta	-10.1851
▁dijeron	-10.1852
▁wonderful	-10.1858
▁contacto	-10.1859
▁diferente	-10.186
▁perfecto	-10.1866
▁list	-10.187
ting	-10.1881
▁means	-10.1883
▁buenas	-10.1901
▁staying	-10.1929
▁prestar	-10.1939
▁especial	-10.1981
co	-10.1983
▁azul	-10.1984
▁owe	-10.1985
▁llegará	-10.1991
▁corbata	-10.1991
▁matemáticas	-10.1996
▁agradable	-10.1997
▁received	-10.1997
▁vivía	-10.2002
▁preocupado	-10.2002
▁bother	-10.2017
▁verlo	-10.2028
▁llena	-10.2036
▁decirte	-10.2062
▁mejores	-10.2081
▁murder	-10.212
▁borrow	-10.2122
▁attend	-10.2122
▁discuss	-10.2124
▁planes	-10.2126
▁valor	-10.2127
▁jackson	-10.2134
▁stood	-10.2134
▁taught	-10.2134
▁beginning	-10.2134
▁prometió	-10.2134
▁sintió	-10.2135
▁worst	-10.2135
▁grave	-10.2141
▁native	-10.2143
▁bonita	-10.2145
▁recuerda	-10.2147
▁botella	-10.2148
▁paso	-10.2155
▁herido	-10.2156
▁fact	-10.2158
▁king	-10.216
▁vimos	-10.2223
▁india	-10.2238
▁europe	-10.2266
▁speech	-10.2271
▁arma	-10.2274
▁despierto	-10.2279
▁tuviera	-10.2279
▁abuela	-10.2279
▁oferta	-10.2279
▁diferencia	-10.2281
▁sight	-10.2287
▁smiled	-10.2297
▁igual	-10.2306
▁calm	-10.2326
▁pone	-10.2331
▁hang	-10.2341
▁watched	-10.2341
▁temo	-10.2382
▁ayude	-10.2393
▁cuidar	-10.2396
▁conocí	-10.2411
▁charge	-10.2423
▁común	-10.2423
▁discurso	-10.2426
▁levantó	-10.2426
▁spring	-10.2426
▁information	-10.2426
▁información	-10.2426
▁decidido	-10.2426
▁planning	-10.2426
▁common	-10.2426
▁inmediatamente	-10.2426
▁quise	-10.2427
▁soup	-10.2427
▁tratando	-10.2428
▁fruit	-10.2437
▁film	-10.2437
▁bill	-10.2444
ieron	-10.2454
▁birds	-10.2454
▁bar	-10.2459
urante	-10.247
ce	-10.2487
▁parado	-10.2513
p	-10.2521
▁yen	-10.2526
▁alegr	-10.2542
▁village	-10.2575
▁europa	-10.2575
▁llueve	-10.2575
▁nueve	-10.2575
▁built	-10.2576
▁totalmente	-10.2576
▁creía	-10.2578
▁top	-10.2578
▁sopa	-10.2578
▁aceptar	-10.2582
▁podrá	-10.2582
▁cambio	-10.2593
▁line	-10.2598
▁trees	-10.2599
▁depende	-10.2612
▁dios	-10.2618
▁fit	-10.2619
▁haberlo	-10.2622
▁feelings	-10.2642
▁deje	-10.2658
▁succeed	-10.2714
▁crowd	-10.2716
▁encima	-10.2727
▁máquina	-10.2727
▁tampoco	-10.2727
▁shall	-10.2727
▁assume	-10.2727
▁roto	-10.2727
▁enojado	-10.2727
▁guapa	-10.2727
▁sorprendió	-10.2727
▁neither	-10.2728
▁anywhere	-10.2728
▁moon	-10.2728
▁enseñó	-10.2729
▁cierra	-10.273
▁hago	-10.2733
▁junto	-10.2752
▁tuyo	-10.2757
▁volverá	-10.2766
▁dan	-10.2823
▁grow	-10.283
▁comí	-10.2852
▁sepa	-10.2867
▁alemán	-10.288
▁primavera	-10.288
▁repente	-10.288
▁silencio	-10.288
▁studied	-10.288
▁mintiendo	-10.288
▁cheese	-10.2881
▁paz	-10.2881
▁apartment	-10.2881
▁single	-10.2888
▁type	-10.289
▁sentimientos	-10.2892
▁picnic	-10.2897
▁carrera	-10.29
▁enemigo	-10.2905
▁rey	-10.2905
▁odia	-10.2907
▁plays	-10.291
▁olvidé	-10.2912
▁resto	-10.292
▁weeks	-10.2944
▁puedas	-10.2946
▁hacen	-10.2952
▁bear	-10.2976
eso	-10.2979
▁abajo	-10.298
alguien	-10.2989
▁deserve	-10.3021
án	-10.3023
▁usual	-10.3031
▁exam	-10.3034
▁conocido	-10.3037
▁fuji	-10.3037
▁project	-10.3037
▁slept	-10.3037
▁sorpresa	-10.3037
▁botón	-10.3037
▁guilty	-10.3037
▁respect	-10.3038
▁teeth	-10.3039
▁quedarte	-10.3049
▁locked	-10.3051
▁darle	-10.3057
▁rang	-10.3059
▁sorprendido	-10.3062
▁ésta	-10.3066
▁lavar	-10.308
▁god	-10.3089
▁andar	-10.3102
▁fill	-10.3136
▁alegra	-10.3136
▁forgive	-10.3155
▁baja	-10.3155
▁welcome	-10.3181
▁menor	-10.319
▁bosque	-10.3195
▁yellow	-10.3195
▁grandmother	-10.3196
▁ganó	-10.3196
▁estáis	-10.3196
▁adelante	-10.3196
▁tonto	-10.3197
▁lentes	-10.3198
▁rule	-10.3205
▁web	-10.3222
▁deseo	-10.3224
▁pelota	-10.3229
▁painting	-10.3232
▁cualquiera	-10.3233
▁verde	-10.325
▁likely	-10.3279
▁tengas	-10.3281
▁leg	-10.3282
ver	-10.3295
▁cards	-10.3301
▁apologize	-10.3342
▁funeral	-10.3357
▁history	-10.3357
▁vuelto	-10.3357
▁bike	-10.3357
▁earlier	-10.3357
▁mitad	-10.3357
▁immediately	-10.3357
hrew	-10.3357
▁wedding	-10.3358
▁prestado	-10.3359
▁throw	-10.336
▁nine	-10.3372
▁mom	-10.338
▁saturday	-10.3381
▁pintura	-10.3386
▁agreed	-10.3386
▁segundo	-10.3387
▁quitó	-10.3392
▁duda	-10.3408
▁sonó	-10.3413
cogió	-10.3416
▁olvides	-10.3418
▁player	-10.3433
▁drinks	-10.3444
▁películas	-10.3487
▁pocos	-10.3517
▁jóvenes	-10.3521
▁vuestra	-10.3521
▁fence	-10.3521
▁resfriado	-10.3521
▁seguridad	-10.3521
▁intención	-10.3522
▁soportar	-10.3523
▁tomado	-10.3523
▁cars	-10.3525
▁tele	-10.3536
b	-10.3544
▁esperanza	-10.3553
▁finger	-10.3557
▁ojo	-10.3561
▁sabemos	-10.3605
ré	-10.3636
▁hacerte	-10.3637
▁crime	-10.3649
▁breath	-10.3658
▁pertenece	-10.366
▁coger	-10.3675
▁pájaros	-10.368
▁conocía	-10.3685
▁despacio	-10.3687
▁medicina	-10.3687
▁prisión	-10.3687
▁ahead	-10.3687
▁classroom	-10.3687
▁premio	-10.3688
▁satisfied	-10.3688
▁boat	-10.3689
▁olvidado	-10.3689
▁held	-10.3689
▁escuchando	-10.3689
▁taller	-10.369
▁position	-10.3691
▁culpable	-10.3691
▁cerrar	-10.3695
▁intentar	-10.3695
▁grupo	-10.3722
▁admit	-10.3727
▁idiota	-10.3732
▁star	-10.3743
▁tratar	-10.3767
▁alarm	-10.3788
▁rid	-10.3789
idad	-10.3831
1	-10.3846
▁ordenador	-10.385
▁alemania	-10.3857
▁canadá	-10.3857
▁multitud	-10.3857
▁woke	-10.3857
▁oyó	-10.3857
▁cruel	-10.3857
▁memoria	-10.3857
▁hermoso	-10.3858
▁diario	-10.3858
▁extra	-10.3859
▁germany	-10.3861
béis	-10.3868
▁painted	-10.387
▁allowed	-10.387
▁árboles	-10.3873
▁picked	-10.3879
▁returned	-10.3884
▁museo	-10.3889
▁museum	-10.3889
f	-10.3893
▁estudio	-10.3895
▁vieja	-10.3895
▁vuestro	-10.3898
▁ech	-10.3913
▁otras	-10.3918
▁fired	-10.392
▁asking	-10.3952
▁oro	-10.3958
▁alcohol	-10.3959
▁negocios	-10.3972
▁interesa	-10.3981
▁queso	-10.4002
▁special	-10.4005
▁computador	-10.4009
▁convince	-10.4014
▁furniture	-10.4029
▁izquierda	-10.4029
▁paciencia	-10.4029
▁tráfico	-10.4029
▁gustó	-10.4029
▁video	-10.4029
▁kioto	-10.403
▁rápidamente	-10.403
▁cansada	-10.403
▁juega	-10.4031
▁ladrón	-10.4031
▁digo	-10.4031
▁paint	-10.4033
▁faster	-10.4034
▁probable	-10.4037
▁harder	-10.4041
▁tears	-10.4044
▁noticed	-10.4044
▁personal	-10.4044
▁laugh	-10.4049
▁dressed	-10.4061
▁allow	-10.4062
▁espalda	-10.4071
son	-10.4075
▁tema	-10.408
▁miles	-10.4086
▁enviar	-10.409
▁hablan	-10.4104
▁wears	-10.4114
▁peace	-10.4184
▁sientes	-10.4203
▁veré	-10.4203
▁ashamed	-10.4205
▁gafas	-10.4205
▁university	-10.4205
▁bajó	-10.4205
▁government	-10.4205
▁quiso	-10.4205
▁headache	-10.4205
▁cambiado	-10.4206
▁raro	-10.4207
▁oscuro	-10.4207
▁interesado	-10.4209
▁bedroom	-10.4209
▁avoid	-10.421
▁tía	-10.4211
▁covered	-10.4214
▁casarse	-10.4216
▁vayamos	-10.4223
▁decid	-10.4225
▁aunt	-10.4226
les	-10.4227
▁honesto	-10.423
▁correcta	-10.4238
▁amaba	-10.4241
▁nervioso	-10.4245
▁principio	-10.4246
▁listened	-10.4247
▁lied	-10.4247
▁roja	-10.4251
▁canada	-10.4258
▁liar	-10.4267
▁nuevos	-10.43
▁forever	-10.4306
▁traer	-10.4326
▁100	-10.433
▁merece	-10.4331
▁rains	-10.4334
▁podés	-10.4334
era	-10.4336
▁enter	-10.4339
▁stole	-10.4344
▁ellas	-10.4352
▁fond	-10.4373
▁support	-10.4383
▁absent	-10.4383
▁arroz	-10.4383
▁courage	-10.4383
▁escuchó	-10.4383
▁vuelo	-10.4383
▁fresh	-10.4383
▁rice	-10.4383
▁aprendí	-10.4383
▁unfortunately	-10.4384
▁subject	-10.4384
▁caminando	-10.4384
▁mostró	-10.4385
▁sonrió	-10.4385
▁solución	-10.4385
▁complaining	-10.4389
▁golpeó	-10.4392
▁scared	-10.4393
▁buscar	-10.4399
▁washing	-10.4401
▁vegetables	-10.4403
▁preferiría	-10.442
▁pair	-10.4425
▁wood	-10.4434
▁levanta	-10.4452
▁platos	-10.4468
▁judge	-10.4542
▁notice	-10.4555
▁windows	-10.4559
▁pastel	-10.4559
▁luck	-10.4562
▁body	-10.4565
▁course	-10.4565
▁delicious	-10.4565
▁ejercicio	-10.4565
▁friday	-10.4565
▁introduce	-10.4565
▁permiso	-10.4565
▁sofá	-10.4565
▁viernes	-10.4565
▁spanish	-10.4565
▁boring	-10.4565
▁brush	-10.4565
▁horrible	-10.4565
▁robado	-10.4565
▁prize	-10.4566
▁disappointed	-10.457
▁arrested	-10.4573
▁preguntaba	-10.4574
bido	-10.4577
▁theater	-10.4584
▁entera	-10.4593
▁missing	-10.4595
▁island	-10.4601
▁paró	-10.4606
▁ended	-10.4606
ciones	-10.4612
▁map	-10.4613
▁ring	-10.4615
▁chino	-10.4617
▁llamada	-10.4619
▁chicas	-10.4621
▁soldiers	-10.4629
▁soldados	-10.463
▁rent	-10.4631
mong	-10.4637
▁profesora	-10.4652
todavía	-10.4702
▁corta	-10.4715
▁sang	-10.4721
▁natural	-10.4741
▁bare	-10.4745
▁cáncer	-10.475
▁encuentro	-10.475
▁hobby	-10.475
▁innocent	-10.475
▁japoneses	-10.475
▁purpose	-10.475
▁sonrisa	-10.475
▁straight	-10.475
▁truck	-10.475
▁viento	-10.475
▁gobierno	-10.475
▁guste	-10.4751
▁consiguió	-10.4751
▁llorando	-10.4751
▁chicago	-10.4751
▁hielo	-10.4752
▁middle	-10.4752
▁centro	-10.4752
▁invite	-10.4753
▁desayunar	-10.4753
▁cargo	-10.4756
▁cancer	-10.4759
▁ex	-10.4766
▁abre	-10.4777
▁explained	-10.4779
▁wind	-10.4782
▁raise	-10.4787
▁lee	-10.4791
▁corto	-10.4799
▁suit	-10.4801
▁preparado	-10.4803
▁trampa	-10.4806
▁tra	-10.4826
rá	-10.4826
▁sports	-10.4833
▁conocen	-10.4847
▁sacar	-10.485
▁ducha	-10.4851
▁arreglar	-10.4855
▁familiar	-10.4898
▁partir	-10.4915
▁parecen	-10.4924
▁post	-10.4928
▁af	-10.4936
▁heat	-10.4938
▁aburrido	-10.4939
▁jacket	-10.4939
▁license	-10.4939
▁sucedió	-10.4939
▁understood	-10.4939
▁recognize	-10.4939
▁stick	-10.4939
▁dropped	-10.4939
▁profundamente	-10.494
▁linda	-10.494
▁bored	-10.4942
▁actor	-10.4943
▁race	-10.4943
▁yenes	-10.4947
▁reached	-10.4947
▁madera	-10.4951
▁darme	-10.4968
▁nuestras	-10.4974
▁rara	-10.4992
▁discutir	-10.4995
▁cerrada	-10.4995
▁frase	-10.4995
▁bolígrafo	-10.4996
▁verdadero	-10.4998
▁fruta	-10.4998
▁promesa	-10.4999
▁pierna	-10.5
▁flower	-10.5001
▁casada	-10.5004
▁escaleras	-10.5018
▁cd	-10.5024
▁answered	-10.5024
▁belongs	-10.5031
▁permitir	-10.5059
▁conocer	-10.5069
▁español	-10.5071
▁limpia	-10.5095
▁legs	-10.5098
▁attack	-10.5119
▁corre	-10.5119
▁drop	-10.5121
▁explanation	-10.5131
▁frecuencia	-10.5131
▁injured	-10.5131
▁inocente	-10.5131
▁instead	-10.5131
▁intelligent	-10.5131
▁lápiz	-10.5131
▁stuck	-10.5131
▁tarjeta	-10.5131
▁llame	-10.5131
▁viviendo	-10.5131
▁duty	-10.5131
▁sweater	-10.5132
▁corrió	-10.5133
▁isla	-10.5133
▁manejar	-10.5138
▁convinced	-10.5148
▁extreme	-10.5151
▁bella	-10.5156
▁saved	-10.5157
▁tuya	-10.5159
▁países	-10.516
▁ordered	-10.5163
▁explicar	-10.5183
▁satisfecho	-10.5192
▁negocio	-10.5198
▁contact	-10.5222
▁dedo	-10.5253
ford	-10.5275
▁precios	-10.5282
▁duerme	-10.5287
▁appreciate	-10.5312
▁san	-10.5315
▁fail	-10.5315
▁general	-10.5321
▁cool	-10.5326
▁account	-10.5327
▁consciente	-10.5327
▁cuerpo	-10.5327
▁hicimos	-10.5327
▁japonesa	-10.5327
▁opción	-10.5327
▁segunda	-10.5327
▁cash	-10.5327
▁cortó	-10.5327
▁space	-10.5327
▁respondió	-10.5327
▁conductor	-10.5327
▁accused	-10.5328
▁recently	-10.5328
▁power	-10.5329
▁f	-10.5329
▁dishes	-10.5329
▁seriously	-10.5335
▁mapa	-10.5338
▁elegir	-10.5342
▁low	-10.5343
▁averiguar	-10.5343
▁tenéis	-10.5344
▁enseñar	-10.5368
▁darte	-10.5371
▁crimen	-10.5374
▁comenzar	-10.5383
▁rica	-10.5392
▁orden	-10.5392
▁pencil	-10.5394
▁singer	-10.5394
▁broma	-10.5395
▁mentira	-10.5401
▁lock	-10.5401
▁romper	-10.5409
k	-10.5424
ca	-10.5426
robó	-10.5451
▁irte	-10.5456
ful	-10.5456
▁mirar	-10.5475
ia	-10.5476
esto	-10.5484
▁believed	-10.5489
▁fool	-10.5515
▁decidir	-10.5517
▁hung	-10.5525
▁awake	-10.5527
▁england	-10.5527
▁harvard	-10.5527
▁midnight	-10.5527
▁behavior	-10.5527
▁escribiendo	-10.5527
▁dirty	-10.5527
▁explicación	-10.5527
▁absolutely	-10.5529
▁bigger	-10.5529
▁huele	-10.553
▁entire	-10.5533
▁sooner	-10.554
▁sangre	-10.5544
él	-10.5559
▁pies	-10.556
▁employees	-10.558
▁cuerda	-10.5591
▁exercise	-10.5593
▁cantante	-10.5596
▁incendio	-10.5596
▁group	-10.5596
▁nativo	-10.5597
▁encuentra	-10.5598
▁entrada	-10.5599
▁flor	-10.5602
▁intenta	-10.5613
▁speaker	-10.5614
▁keeps	-10.563
▁hables	-10.5639
ted	-10.5651
▁agarr	-10.566
ría	-10.5679
▁agrada	-10.5684
▁cruz	-10.5718
▁prices	-10.5728
▁hid	-10.5728
▁gold	-10.573
▁idiomas	-10.573
▁accord	-10.5731
▁view	-10.5731
▁chaqueta	-10.5731
▁espacio	-10.5731
▁fiebre	-10.5731
▁toilet	-10.5731
▁pasaporte	-10.5731
▁medianoche	-10.5731
▁passport	-10.5732
▁copy	-10.5732
▁dispuesto	-10.5733
▁salvo	-10.5733
▁shy	-10.5734
▁card	-10.5739
▁querías	-10.5739
▁fighting	-10.5752
▁human	-10.5755
id	-10.5756
▁accepted	-10.5759
▁daré	-10.576
▁sold	-10.5787
▁empleados	-10.5791
▁risk	-10.5804
▁línea	-10.5804
▁boda	-10.5804
▁modo	-10.581
▁yes	-10.584
▁dreams	-10.5854
▁compare	-10.5857
▁necesitan	-10.5879
podemos	-10.5892
▁protect	-10.5893
▁art	-10.5894
▁anda	-10.5905
▁apareció	-10.5908
▁relax	-10.5917
▁knock	-10.5931
▁escapar	-10.5939
▁dancing	-10.594
▁escuché	-10.594
▁inglaterra	-10.594
▁themselves	-10.594
▁mood	-10.594
▁nací	-10.594
▁billetera	-10.594
▁descanso	-10.5941
▁size	-10.5943
▁hazlo	-10.5945
▁pregunté	-10.5946
▁pedirle	-10.5947
▁ocultar	-10.5948
▁healthy	-10.5948
▁sisters	-10.5948
▁laughing	-10.5951
▁bote	-10.5951
▁fuiste	-10.5957
▁harm	-10.5967
▁cookies	-10.6017
▁muchacho	-10.602
▁página	-10.602
ió	-10.602
▁handed	-10.6022
▁hey	-10.6049
▁irá	-10.6063
▁dices	-10.6073
▁encantan	-10.6077
adamente	-10.6097
▁bell	-10.6097
.000	-10.61
▁trae	-10.61
▁vivid	-10.6103
▁italia	-10.6109
aste	-10.6128
▁ventanas	-10.6134
▁fair	-10.6148
▁cien	-10.6151
▁hermanas	-10.6151
giving	-10.6152
▁murieron	-10.6152
▁casualidad	-10.6153
▁derecha	-10.6153
▁fresco	-10.6153
▁suicide	-10.6153
▁monte	-10.6153
▁fever	-10.6154
▁involved	-10.6155
▁italy	-10.6155
▁explicó	-10.6156
▁acabó	-10.6157
▁aprendiendo	-10.6157
▁recibió	-10.6157
▁mató	-10.6157
▁motor	-10.6158
▁preocupes	-10.6165
▁solas	-10.617
▁canciones	-10.6183
▁pintar	-10.6191
▁convencer	-10.6208
▁feels	-10.6214
▁idiot	-10.622
".	-10.623
▁rained	-10.6233
▁política	-10.6235
ella	-10.6235
▁bonito	-10.6235
▁magazine	-10.6237
▁sábado	-10.6237
▁maleta	-10.6237
▁resultado	-10.6242
▁deporte	-10.6243
▁luces	-10.6251
ación	-10.6267
▁piernas	-10.63
jo	-10.631
▁talks	-10.6313
▁treat	-10.6355
▁mente	-10.6363
▁sentir	-10.6365
▁comienza	-10.637
▁cárcel	-10.637
▁genial	-10.637
▁lonely	-10.637
▁seldom	-10.637
▁absoluta	-10.637
▁cambió	-10.637
▁asesinato	-10.637
▁oscuridad	-10.637
▁propuesta	-10.637
▁bromeando	-10.637
▁perdón	-10.637
▁vine	-10.637
▁robaron	-10.6372
▁butter	-10.6372
▁fría	-10.6373
▁prove	-10.6381
▁importar	-10.6385
▁arte	-10.639
▁fed	-10.6392
▁expecting	-10.6393
▁considered	-10.6396
▁recibir	-10.6416
▁begins	-10.6421
▁volar	-10.6423
▁casar	-10.6437
▁leí	-10.6445
▁chicken	-10.6452
▁gusto	-10.6454
▁flight	-10.6455
▁revista	-10.646
na	-10.6471
▁calling	-10.6478
▁suyo	-10.6482
▁hablas	-10.65
▁hablado	-10.6511
go	-10.6526
▁uso	-10.6553
amente	-10.6565
▁tanta	-10.6565
▁das	-10.6571
los	-10.6576
▁honor	-10.6577
▁cheap	-10.6591
▁countries	-10.6592
▁jealous	-10.6592
▁pérdida	-10.6592
▁roof	-10.6592
▁camión	-10.6592
▁suspect	-10.6592
▁comportamiento	-10.6592
▁dudo	-10.6592
▁cometido	-10.6592
▁destino	-10.6592
▁continue	-10.6593
▁math	-10.6593
▁ante	-10.6593
▁cried	-10.6594
▁importaría	-10.6595
▁oil	-10.6595
▁cumplir	-10.6596
▁techo	-10.6598
▁podé	-10.6598
▁managed	-10.6599
▁trabajó	-10.66
▁cerró	-10.6604
▁land	-10.6604
▁llamaré	-10.6606
▁fácilmente	-10.6607
▁raised	-10.6611
▁besó	-10.6611
▁muebles	-10.6611
▁dedos	-10.6617
▁hagamos	-10.662
▁pasamos	-10.6622
▁followed	-10.6632
▁pasará	-10.6639
áis	-10.667
▁blanca	-10.6682
▁trozo	-10.6686
▁preguntar	-10.6686
▁pocket	-10.6686
▁cortar	-10.6709
▁sueños	-10.6714
▁lack	-10.6716
▁admitt	-10.6724
▁meant	-10.673
conoces	-10.6735
▁conoces	-10.6803
▁útil	-10.6812
▁ciego	-10.6819
▁eventually	-10.6819
▁hokkaido	-10.6819
▁inmediato	-10.6819
▁internet	-10.6819
▁ourselves	-10.6819
▁propósito	-10.6819
▁quince	-10.6819
▁solution	-10.6819
▁famosa	-10.6819
▁facilidad	-10.6819
▁sencilla	-10.6819
▁mediodía	-10.6819
▁forgotten	-10.682
▁memory	-10.682
▁excelente	-10.682
▁salido	-10.6821
▁lady	-10.6821
▁quédate	-10.6824
tu	-10.6826
▁rope	-10.6828
▁climbed	-10.683
▁llamado	-10.683
▁lágrimas	-10.6833
▁entero	-10.6835
▁subió	-10.6842
▁eras	-10.6857
▁extrem	-10.687
▁ma	-10.687
▁vuelva	-10.6878
▁lay	-10.6895
▁exist	-10.6897
▁taste	-10.6907
▁gra	-10.6912
eron	-10.6915
▁ocupados	-10.6917
▁neighbor	-10.692
▁rumor	-10.6934
▁parada	-10.694
usted	-10.6942
▁games	-10.6958
▁preparar	-10.6998
▁diet	-10.7021
▁enseña	-10.7025
▁iremos	-10.7032
▁jokes	-10.7039
▁appear	-10.704
▁televisor	-10.7044
▁similar	-10.7045
▁step	-10.7052
▁football	-10.7052
▁thief	-10.7052
▁feet	-10.7052
▁escondiendo	-10.7052
▁peces	-10.7052
▁sabido	-10.7052
▁unlikely	-10.7052
▁corner	-10.7052
▁recibí	-10.7052
▁canta	-10.7052
▁denied	-10.7053
▁pegó	-10.7053
▁useful	-10.7054
▁menu	-10.7055
▁delante	-10.7057
▁forced	-10.7061
▁acabado	-10.7062
▁galletas	-10.7069
▁continued	-10.7069
▁tendré	-10.707
▁doble	-10.7076
▁dieta	-10.7079
▁compraste	-10.7081
▁washed	-10.7082
▁contestar	-10.7083
▁cometer	-10.709
▁helping	-10.7107
ies	-10.7108
▁míos	-10.7111
▁extraña	-10.7111
▁sois	-10.7118
▁quedaré	-10.7131
▁vote	-10.7134
▁willing	-10.7144
▁invitados	-10.7151
▁fábrica	-10.7151
▁habit	-10.7154
▁sweet	-10.7154
▁supiera	-10.7156
▁piedra	-10.7156
▁bolsillo	-10.7157
▁dulce	-10.7158
▁claim	-10.7159
▁kid	-10.716
▁stranger	-10.7168
▁songs	-10.7174
▁hable	-10.7177
▁losing	-10.7242
quiera	-10.7261
▁stuff	-10.7276
it	-10.7277
▁principal	-10.7283
▁correos	-10.7285
▁visa	-10.7287
▁rude	-10.729
▁accustom	-10.729
▁barato	-10.729
▁comienzo	-10.729
▁demasiada	-10.729
▁discusión	-10.729
▁disparó	-10.729
▁fifteen	-10.729
▁jazz	-10.729
▁particular	-10.729
▁recommend	-10.729
▁stairs	-10.729
▁juice	-10.729
▁teatro	-10.729
▁joking	-10.729
▁pez	-10.729
▁blew	-10.729
▁goodbye	-10.729
▁pity	-10.7291
▁south	-10.7291
▁educación	-10.7291
▁basura	-10.7291
▁éstos	-10.7292
▁sushi	-10.7292
▁felicidad	-10.7293
▁happiness	-10.7293
▁invitó	-10.7294
▁trap	-10.7294
▁confused	-10.7295
▁gate	-10.7295
▁describe	-10.7296
▁asistir	-10.7302
▁últimamente	-10.7306
▁dumb	-10.731
▁prepared	-10.7311
▁fixed	-10.7313
quiere	-10.7315
▁escaped	-10.7319
▁mo	-10.7324
▁beso	-10.7326
▁querían	-10.7333
▁doce	-10.7347
▁conduce	-10.7398
▁season	-10.7404
▁letters	-10.741
vivió	-10.7421
cted	-10.7438
▁debía	-10.7463
▁lenguas	-10.7483
ness	-10.7487
▁pelea	-10.7491
▁llamas	-10.7496
▁dejara	-10.7506
bbed	-10.7528
▁tight	-10.753
▁adentro	-10.7534
▁appointment	-10.7534
▁obra	-10.7534
▁supermarket	-10.7534
▁supermercado	-10.7534
▁temperatura	-10.7534
▁levanté	-10.7534
▁million	-10.7534
▁distancia	-10.7534
▁above	-10.7534
▁tongue	-10.7534
▁factory	-10.7534
▁comfortable	-10.7534
▁encontramos	-10.7534
▁anyway	-10.7535
▁excited	-10.7535
▁arriba	-10.7536
▁drugs	-10.7537
▁burned	-10.7543
▁brave	-10.7544
▁distance	-10.7547
▁armas	-10.7556
ban	-10.7558
▁vender	-10.7562
ido	-10.7567
▁cola	-10.7589
▁aquellos	-10.7602
▁espere	-10.7602
▁mountains	-10.7611
▁add	-10.7629
▁traj	-10.7635
▁oranges	-10.7641
▁harto	-10.7643
▁muñeca	-10.7647
▁earthquake	-10.7649
▁vecino	-10.7652
gged	-10.7655
▁teníamos	-10.7656
▁calls	-10.766
▁lleve	-10.7674
▁meaning	-10.7682
▁hacemos	-10.7682
▁u	-10.7687
▁condition	-10.7689
▁ayudara	-10.769
▁programa	-10.7703
tuvieron	-10.7713
▁fingers	-10.7732
▁regresar	-10.7733
yo	-10.7736
▁planea	-10.7738
▁descubri	-10.774
▁fingi	-10.774
ped	-10.776
arse	-10.7763
▁tenían	-10.7767
▁intend	-10.7772
▁paga	-10.7779
▁allergi	-10.778
▁enorme	-10.7781
▁jugador	-10.7783
▁cruzar	-10.7783
▁attempt	-10.7784
▁llueva	-10.7784
▁maestro	-10.7784
▁request	-10.7784
▁hablé	-10.7784
▁esquina	-10.7784
▁gratis	-10.7784
▁argue	-10.7784
▁bathroom	-10.7784
▁gordo	-10.7784
▁illness	-10.7784
▁ése	-10.7784
▁intenté	-10.7785
▁diré	-10.7786
▁levantarse	-10.7788
▁increíble	-10.7788
ga	-10.7797
▁bomb	-10.7798
▁llegamos	-10.7798
▁act	-10.7818
hap	-10.7822
▁contado	-10.783
▁g	-10.7837
pareció	-10.7843
▁hojas	-10.786
las	-10.7882
▁acaso	-10.7883
▁preocupa	-10.7889
▁mentiroso	-10.79
ese	-10.7903
rse	-10.7905
▁suitcase	-10.7906
▁stone	-10.7907
▁tastes	-10.7928
▁cuida	-10.7934
▁copia	-10.7957
time	-10.7964
▁hi	-10.798
▁pinta	-10.7987
va	-10.8005
seando	-10.8027
▁obey	-10.8027
▁distinguir	-10.8028
▁area	-10.803
▁pre	-10.803
▁escribí	-10.803
man	-10.8038
▁absoluto	-10.804
▁avergonzado	-10.804
▁bebida	-10.804
▁excellent	-10.804
▁llamé	-10.804
▁nosotras	-10.804
▁studies	-10.804
▁temperature	-10.804
▁lazy	-10.804
▁teoría	-10.804
▁bolso	-10.804
▁naive	-10.804
▁email	-10.8041
▁llámame	-10.8041
▁someday	-10.8042
▁recibido	-10.8042
▁discovered	-10.8043
▁esposo	-10.8044
▁preguntarle	-10.8045
▁llegaste	-10.8049
▁jumped	-10.8049
▁apuesto	-10.8049
▁loud	-10.8057
▁hablante	-10.8057
▁mañanas	-10.8059
▁limpio	-10.8062
▁climate	-10.8062
▁mail	-10.8063
▁pond	-10.8064
▁saberlo	-10.8069
▁pleased	-10.8074
nte	-10.8076
▁urgente	-10.8081
▁americans	-10.8082
▁vemos	-10.8083
▁mt	-10.8091
▁descansar	-10.8091
▁pieces	-10.8092
▁detalles	-10.8094
w	-10.8105
▁vete	-10.8116
▁hearing	-10.8142
▁desea	-10.8155
están	-10.8159
▁pistola	-10.8164
▁costumbre	-10.8165
▁caballero	-10.8165
▁cuidadoso	-10.8168
▁vacía	-10.8169
▁hole	-10.817
▁fotografía	-10.8171
▁metro	-10.8176
▁fondo	-10.818
▁guard	-10.8189
▁partes	-10.8192
▁molesta	-10.8197
▁farm	-10.8207
▁pretende	-10.8208
▁andando	-10.821
▁despertar	-10.8235
prendió	-10.8258
▁imagin	-10.8263
▁reserva	-10.8273
ándose	-10.8285
▁hogar	-10.8296
▁pull	-10.8296
▁posibilidad	-10.8297
▁valiente	-10.83
▁ajedrez	-10.8303
▁cuello	-10.8303
▁moving	-10.8303
▁patience	-10.8303
▁proposal	-10.8303
▁resemble	-10.8303
▁handsome	-10.8304
▁naked	-10.8304
▁permission	-10.8304
▁examination	-10.8304
▁gentleman	-10.8304
▁sospechoso	-10.8304
▁clever	-10.8304
▁menú	-10.8304
▁theory	-10.8304
▁awful	-10.8304
▁pedido	-10.8304
▁salary	-10.8304
▁chess	-10.8305
▁preparando	-10.8305
▁anillo	-10.8305
▁ingenuo	-10.8306
▁dieron	-10.8311
▁prevented	-10.8311
▁skiing	-10.8312
▁rome	-10.8313
▁suggested	-10.8313
▁clearly	-10.8316
▁bajar	-10.8317
▁record	-10.8322
▁llegaron	-10.8324
▁teaching	-10.8326
▁socks	-10.833
▁verduras	-10.833
▁sleepy	-10.8333
▁band	-10.8335
▁montar	-10.834
▁dejaré	-10.8343
▁lights	-10.8344
▁solved	-10.8345
▁drogas	-10.8351
▁alcanzar	-10.8353
▁mayores	-10.8353
▁trusted	-10.8356
▁profesores	-10.8364
▁culpar	-10.8374
viste	-10.8386
▁casados	-10.8388
▁naranjas	-10.8426
▁banda	-10.8433
▁mirada	-10.8436
▁terremoto	-10.8438
▁fuerza	-10.844
▁atrapado	-10.844
▁cousin	-10.8441
▁skirt	-10.8442
▁belong	-10.8443
▁vecinos	-10.8444
▁dura	-10.8444
▁computadora	-10.8453
▁runs	-10.8466
▁golpe	-10.8467
▁apart	-10.8467
iste	-10.8481
▁ganado	-10.8483
▁arrest	-10.8485
▁sh	-10.8485
▁meal	-10.8513
▁sonar	-10.8521
▁necesitar	-10.8531
▁urgent	-10.8532
▁oh	-10.8534
▁cross	-10.8545
▁climb	-10.8551
▁reach	-10.8562
mi	-10.8562
▁smells	-10.857
enza	-10.857
▁carretera	-10.8574
▁durmió	-10.8574
▁empresa	-10.8574
▁población	-10.8574
▁responsible	-10.8574
▁sistema	-10.8574
▁twelve	-10.8574
▁refrigerator	-10.8574
▁impidió	-10.8574
▁jail	-10.8574
▁pareja	-10.8574
▁sueldo	-10.8574
▁orgullosa	-10.8574
▁bottom	-10.8574
▁respeto	-10.8574
▁profundo	-10.8574
▁equivocada	-10.8574
▁confianza	-10.8574
▁cubierta	-10.8575
▁cartera	-10.8575
▁grass	-10.8576
▁upset	-10.8576
▁due	-10.8578
▁abandoned	-10.8579
▁stealing	-10.8581
▁texto	-10.8585
▁cute	-10.859
▁imagine	-10.8591
▁deaf	-10.8597
h	-10.8597
▁attended	-10.8597
▁difficulty	-10.86
▁apagar	-10.8605
▁estuviste	-10.861
▁friendly	-10.8628
▁adopt	-10.8641
▁verg	-10.8667
▁matters	-10.8668
▁noon	-10.867
▁hablaba	-10.8677
filled	-10.8688
▁estrellas	-10.8696
▁ear	-10.8704
▁vol	-10.8704
▁ears	-10.8704
▁cuadro	-10.8711
ity	-10.8711
▁artículo	-10.8713
▁dormitorio	-10.8713
▁objetivo	-10.8715
▁diría	-10.8719
▁page	-10.8719
▁holiday	-10.872
▁plato	-10.872
remos	-10.8721
▁huevo	-10.8721
▁bomba	-10.8724
▁poema	-10.873
▁cabo	-10.8732
▁turno	-10.8736
miento	-10.8747
▁debí	-10.8767
▁costs	-10.879
▁dormí	-10.8818
,"	-10.8819
▁creí	-10.8824
▁dry	-10.8842
▁reír	-10.8844
ry	-10.8845
▁slight	-10.8847
▁slow	-10.8848
▁bright	-10.8849
▁silent	-10.8849
▁amount	-10.8852
▁disculpe	-10.8852
▁emergency	-10.8852
▁nariz	-10.8852
▁responsable	-10.8852
▁stories	-10.8852
▁system	-10.8852
▁drove	-10.8852
▁hubiese	-10.8852
▁opportunity	-10.8852
▁remedio	-10.8852
▁dying	-10.8852
▁nurse	-10.8852
▁ipad	-10.8852
▁vistazo	-10.8852
▁agreement	-10.8852
▁preferido	-10.8853
▁agradecido	-10.8854
▁trago	-10.8854
▁completo	-10.8854
▁envió	-10.8854
▁saludable	-10.8857
▁popula	-10.8859
▁kick	-10.8865
▁cantando	-10.8867
▁teaches	-10.8868
▁listos	-10.8869
▁quedado	-10.887
▁sonido	-10.8873
▁levantar	-10.8882
▁dale	-10.8883
▁kinds	-10.8888
▁probar	-10.8899
▁papas	-10.89
▁duró	-10.8908
▁coge	-10.8912
▁requiere	-10.8915
▁depends	-10.8926
este	-10.8934
▁tickets	-10.8937
▁miembros	-10.8943
▁rare	-10.8944
so	-10.8956
▁loca	-10.8962
▁visita	-10.8982
▁vengas	-10.8987
▁viejos	-10.899
▁poem	-10.8991
▁naranja	-10.9006
▁egg	-10.9007
▁rose	-10.9009
▁luce	-10.901
▁artist	-10.9031
▁hated	-10.9033
▁tomando	-10.9035
▁hagan	-10.9063
ook	-10.9067
▁admiti	-10.9097
▁permite	-10.9118
▁compra	-10.9124
tengo	-10.9128
▁necesidad	-10.913
▁tomé	-10.9131
▁match	-10.9131
▁airplane	-10.9137
▁cincuenta	-10.9137
▁estómago	-10.9137
▁mantequilla	-10.9137
▁neighborhood	-10.9137
▁plenty	-10.9137
▁relación	-10.9137
▁tímido	-10.9137
▁cabello	-10.9137
▁inútil	-10.9137
▁musician	-10.9137
▁amistad	-10.9137
▁emergencia	-10.9137
▁convencido	-10.9137
▁ground	-10.9137
▁castillo	-10.9137
▁convenció	-10.9137
▁esquiar	-10.9137
▁winning	-10.9137
▁matrimonio	-10.9137
▁prohibido	-10.9138
▁ejemplo	-10.9138
▁neck	-10.9139
▁castle	-10.9139
▁potatoes	-10.9139
▁huge	-10.914
bió	-10.9141
▁ciento	-10.9147
▁crossed	-10.915
▁flying	-10.9158
▁bebió	-10.9162
▁calma	-10.9166
▁regalos	-10.9166
▁leyó	-10.9167
▁classes	-10.9174
▁siga	-10.9177
▁express	-10.9183
▁llen	-10.9183
▁acordar	-10.9188
▁prepare	-10.9217
▁caer	-10.9228
▁alarma	-10.9232
▁escritor	-10.9238
▁seré	-10.9249
▁autos	-10.9268
▁rog	-10.9272
io	-10.9273
▁lasted	-10.9286
▁cab	-10.9288
▁pasatiempo	-10.9288
▁ski	-10.929
▁motivo	-10.9292
▁scientist	-10.9295
▁bienvenido	-10.9295
▁esfuerzo	-10.9299
▁photo	-10.9299
▁estrella	-10.93
▁sport	-10.93
▁neighbors	-10.9302
▁acepta	-10.9303
▁buying	-10.9303
▁detail	-10.9313
▁uses	-10.9313
▁malas	-10.9316
▁bite	-10.9322
▁abra	-10.9333
▁mover	-10.934
▁woods	-10.9349
▁stars	-10.9364
▁divide	-10.9372
▁noches	-10.9382
▁proteger	-10.9396
▁diferentes	-10.9411
ri	-10.9411
▁complete	-10.9413
▁salí	-10.9422
▁hechos	-10.9426
▁wise	-10.9427
▁sharp	-10.9429
▁education	-10.943
▁rehus	-10.9431
reció	-10.9431
safortunadamente	-10.9431
▁confío	-10.9431
▁conversation	-10.9431
▁elevator	-10.9431
▁energy	-10.9431
▁españa	-10.9431
▁falda	-10.9431
▁improbable	-10.9431
▁lloró	-10.9431
▁pool	-10.9431
▁puntual	-10.9431
▁smiling	-10.9431
▁eleven	-10.9431
▁market	-10.9431
▁puzzle	-10.9431
▁subway	-10.9431
▁esperó	-10.9431
▁center	-10.9431
▁example	-10.9431
▁easier	-10.9432
▁fifty	-10.9432
▁spain	-10.9432
▁cantidad	-10.9432
▁thirsty	-10.9432
▁bench	-10.9433
▁gritó	-10.9433
▁asustado	-10.9433
▁manager	-10.9434
▁weak	-10.944
▁significado	-10.9441
▁passengers	-10.9441
▁habido	-10.9442
▁querer	-10.9443
▁camina	-10.9444
▁article	-10.9447
▁hill	-10.9448
▁bang	-10.9448
▁ignored	-10.9449
▁attacked	-10.945
▁conocemos	-10.9457
▁millas	-10.9458
▁llevas	-10.9458
▁esperamos	-10.9461
▁drug	-10.9461
▁novelas	-10.9463
▁require	-10.9468
▁invitar	-10.9469
tendremos	-10.9469
▁visité	-10.947
▁saltó	-10.9474
▁complain	-10.9477
▁entra	-10.9479
▁within	-10.9484
▁forest	-10.9494
▁doll	-10.9494
▁sta	-10.9501
ir	-10.9503
▁jugo	-10.9508
▁tarda	-10.9529
▁nor	-10.9562
▁coma	-10.9565
▁asegurar	-10.9571
▁results	-10.9589
▁informe	-10.9593
▁intention	-10.9596
▁afortunado	-10.9598
▁ésa	-10.9598
▁servicio	-10.9599
▁cierta	-10.96
▁estúpida	-10.96
▁estadounidense	-10.9602
▁orange	-10.9603
▁venta	-10.9624
aré	-10.9642
▁dará	-10.9644
red	-10.9665
▁roma	-10.9665
▁suya	-10.9673
▁co	-10.9675
tenés	-10.9686
realmente	-10.9686
▁press	-10.9689
▁modern	-10.9712
je	-10.9719
▁persuade	-10.972
▁suffer	-10.9725
▁main	-10.9725
▁ignore	-10.9725
▁sandwich	-10.9728
virtió	-10.9733
▁curious	-10.9734
▁equipaje	-10.9734
▁ocean	-10.9734
▁pantalones	-10.9734
▁paquete	-10.9734
▁round	-10.9734
▁violence	-10.9734
▁área	-10.9734
▁violencia	-10.9734
▁kidding	-10.9734
▁sofa	-10.9734
▁traducir	-10.9735
▁libertad	-10.9735
▁committed	-10.9735
▁pollo	-10.9735
▁ambas	-10.9735
▁héroe	-10.9735
▁granja	-10.9736
▁puse	-10.9736
▁tallest	-10.9736
▁pagó	-10.9737
▁empezado	-10.9737
▁caballos	-10.9738
▁stronger	-10.974
▁llovió	-10.974
▁third	-10.974
▁confía	-10.974
▁querido	-10.974
▁abandonó	-10.974
▁mathematics	-10.9741
▁robar	-10.9741
▁generally	-10.9741
▁escuchado	-10.9742
▁smaller	-10.9744
▁definite	-10.9744
▁veamos	-10.9745
▁beside	-10.9749
▁escriba	-10.975
▁tratado	-10.975
▁fuma	-10.9762
▁artista	-10.9763
▁horses	-10.9772
▁quedamos	-10.9775
▁using	-10.9782
▁sur	-10.9812
▁hablamos	-10.9812
▁disfruta	-10.9825
▁montañas	-10.9828
▁members	-10.9833
▁respuestas	-10.9838
▁compar	-10.9844
▁contract	-10.9855
▁imaginar	-10.9856
▁teachers	-10.9857
▁viva	-10.9862
▁pensado	-10.9891
▁riesgo	-10.9892
▁termina	-10.9902
▁conferencia	-10.9906
▁abierto	-10.9909
▁hombro	-10.9911
ic	-10.9912
▁harías	-10.9914
▁escalera	-10.9916
▁invitado	-10.9917
▁resultados	-10.9922
▁ayudarle	-10.9931
ón	-10.9936
▁pelear	-10.9953
▁extranjeros	-10.9955
01	-10.9964
▁sundays	-10.9975
▁herir	-10.9976
▁plant	-10.9977
▁comen	-10.9984
▁quedara	-10.9986
▁draw	-10.9992
▁push	-11.0023
▁mention	-11.0037
▁fortuna	-11.0038
▁ocurrir	-11.0045
vés	-11.0046
▁aceptó	-11.0047
▁brown	-11.0047
▁calcetines	-11.0047
▁conversación	-11.0047
▁energía	-11.0047
▁huyó	-11.0047
▁illegal	-11.0047
▁maravilloso	-11.0047
▁marriage	-11.0047
▁october	-11.0047
▁octubre	-11.0047
▁rechazó	-11.0047
▁conoció	-11.0047
▁esperé	-11.0047
▁garage	-11.0047
▁captain	-11.0047
▁couch	-11.0047
▁washington	-11.0047
▁weird	-11.0047
▁trece	-11.0047
▁traté	-11.0047
▁curso	-11.0047
▁tough	-11.0047
▁lentamente	-11.0047
▁saliera	-11.0047
▁pregúntale	-11.0047
▁credit	-11.0048
▁elección	-11.0048
▁vinieron	-11.0048
▁gracioso	-11.0048
▁poniendo	-11.0048
▁louder	-11.0049
▁saliendo	-11.0049
▁tráeme	-11.0049
▁scolded	-11.0049
▁preocupada	-11.0049
▁supuesto	-11.005
▁regaló	-11.005
▁perfectamente	-11.005
▁pequeños	-11.005
▁betrayed	-11.005
▁shelf	-11.005
▁trabajadores	-11.0051
▁tendría	-11.0052
▁seguido	-11.0054
▁ascensor	-11.0054
▁levantarme	-11.0054
▁original	-11.0055
▁ayudarnos	-11.0056
▁survived	-11.0058
▁perfectly	-11.0059
▁complained	-11.006
▁houses	-11.0061
▁verdadera	-11.0063
podés	-11.0064
▁russian	-11.0068
▁guests	-11.007
▁nuevamente	-11.0071
▁writer	-11.0084
▁workers	-11.0092
▁mess	-11.0092
▁h	-11.0124
▁starting	-11.0125
▁accidents	-11.0146
ero	-11.0147
▁quitar	-11.0149
émonos	-11.0168
▁díga	-11.0171
▁deber	-11.0187
sabe	-11.0199
▁hurts	-11.0202
▁gira	-11.0204
▁piensan	-11.0223
▁músico	-11.0226
▁tend	-11.0232
▁billete	-11.0233
▁disease	-11.0234
▁viniera	-11.0235
▁na	-11.0242
z	-11.0252
▁answers	-11.0274
▁cercano	-11.0276
▁fe	-11.0282
▁hero	-11.0284
▁shoulder	-11.0292
▁sepas	-11.0319
▁changes	-11.0327
▁supone	-11.0345
▁suggest	-11.0347
▁refuse	-11.0355
▁vende	-11.0356
▁repeat	-11.0357
▁adora	-11.0358
he	-11.0362
▁quick	-11.0365
▁licencia	-11.0367
▁brasil	-11.0369
▁advantage	-11.0369
▁agujero	-11.0369
▁anciana	-11.0369
▁capitán	-11.0369
▁evil	-11.0369
▁exchange	-11.0369
▁mundial	-11.0369
▁plata	-11.0369
▁possibility	-11.0369
▁pudimos	-11.0369
▁website	-11.0369
▁suéter	-11.037
▁colina	-11.037
▁enfermera	-11.037
▁conversar	-11.037
▁podido	-11.037
▁regresó	-11.037
▁breve	-11.037
▁podamos	-11.037
▁departamento	-11.037
▁toalla	-11.037
▁author	-11.037
▁bald	-11.037
▁embarrassed	-11.0371
▁claramente	-11.0371
▁gotten	-11.0372
▁pale	-11.0372
▁nearest	-11.0373
▁sort	-11.0373
▁esconder	-11.0374
▁graduated	-11.0376
▁ability	-11.0377
▁board	-11.0377
▁progress	-11.0381
▁iguales	-11.0384
▁pulled	-11.0385
▁encontraste	-11.0385
▁hello	-11.0386
▁director	-11.0392
▁borrowed	-11.0398
▁apologized	-11.04
▁ap	-11.0406
▁skin	-11.0413
nse	-11.0422
▁badly	-11.0428
▁iría	-11.0431
▁ghosts	-11.0437
▁jug	-11.0438
▁norte	-11.0444
▁toques	-11.0457
▁besar	-11.0458
▁plu	-11.0463
▁handle	-11.0463
▁disculpas	-11.049
▁estadounidenses	-11.0512
▁verle	-11.0514
▁holidays	-11.0525
▁promet	-11.0531
▁schedule	-11.0553
▁olvidar	-11.0556
▁intento	-11.0561
▁cuánta	-11.0562
▁boleto	-11.0566
▁vendría	-11.0567
▁deportes	-11.0569
ión	-11.0581
mo	-11.0582
▁cre	-11.0608
▁estarás	-11.0625
il	-11.0634
though	-11.0654
estáis	-11.0665
▁experiment	-11.0674
piensas	-11.0675
▁mentir	-11.068
▁ilegal	-11.0696
▁débil	-11.0696
▁local	-11.0696
▁engine	-11.0696
▁hop	-11.0699
▁atrap	-11.07
▁electric	-11.0702
▁apartamento	-11.0703
▁beauty	-11.0703
▁curiosidad	-11.0703
▁enseguida	-11.0703
▁estupendo	-11.0703
▁lincoln	-11.0703
▁otoño	-11.0703
▁retraso	-11.0703
▁zoológico	-11.0703
▁creyó	-11.0703
▁dislike	-11.0703
▁value	-11.0703
▁millones	-11.0703
▁childhood	-11.0703
▁interés	-11.0703
▁foolish	-11.0703
▁consigo	-11.0703
▁acusado	-11.0704
▁master	-11.0704
▁ocultando	-11.0704
▁puesta	-11.0704
▁bebiendo	-11.0705
▁everywhere	-11.0705
▁celoso	-11.0706
▁detesto	-11.0706
▁salida	-11.0706
▁subir	-11.0707
▁tocando	-11.0707
▁estuvi	-11.0707
▁contrato	-11.0708
▁useless	-11.0708
▁dé	-11.071
▁agotado	-11.071
▁vivimos	-11.0711
▁esperemos	-11.0712
▁repaired	-11.0714
▁warned	-11.0716
▁army	-11.0716
▁apagó	-11.0717
▁dijera	-11.0719
▁dirá	-11.0724
▁esperado	-11.0725
pa	-11.0725
▁falling	-11.0727
▁quedaron	-11.0733
▁amigas	-11.0734
▁nubes	-11.0737
▁grab	-11.0742
▁italian	-11.0742
▁traveling	-11.0747
▁sore	-11.0756
▁irnos	-11.0762
▁fantasmas	-11.0765
▁venía	-11.0767
▁enfadar	-11.0777
▁alimentar	-11.0796
▁cuid	-11.0807
▁quedes	-11.0811
▁paying	-11.0812
▁marcha	-11.085
▁actuar	-11.0861
mp	-11.0867
▁iron	-11.0868
▁salga	-11.087
▁llevan	-11.0887
▁vuelvas	-11.0901
▁despedido	-11.0907
▁accidentes	-11.0908
▁burn	-11.0909
▁primo	-11.0918
▁cambia	-11.0925
▁nuevas	-11.0931
ment	-11.094
▁warn	-11.0941
▁form	-11.0941
▁letra	-11.0949
▁program	-11.0957
▁hecha	-11.0968
▁hacerse	-11.0982
▁enemigos	-11.0992
▁pesca	-11.1006
▁decía	-11.1008
pongo	-11.1009
▁olvide	-11.1018
dor	-11.1022
ni	-11.1024
▁search	-11.1038
▁polite	-11.1046
▁consejos	-11.1046
▁acercó	-11.1048
▁brazil	-11.1048
▁cuestión	-11.1048
▁desperté	-11.1048
▁escenario	-11.1048
▁genius	-11.1048
▁llamo	-11.1048
▁mirror	-11.1048
▁razonable	-11.1048
▁silence	-11.1048
▁toward	-11.1048
▁unhappy	-11.1048
▁grateful	-11.1048
▁soltero	-11.1048
▁towel	-11.1048
▁velocidad	-11.1048
▁available	-11.1048
▁robbed	-11.1048
▁sencillo	-11.1048
▁condiciones	-11.1048
▁amazing	-11.1048
▁armario	-11.1048
▁espejo	-11.1048
▁trapped	-11.1048
▁wild	-11.1048
▁aproximadamente	-11.1049
▁trato	-11.1049
▁supper	-11.1049
▁colectivo	-11.1049
▁ataque	-11.1049
▁hunting	-11.1049
▁friendship	-11.105
▁despierta	-11.105
▁pesado	-11.1051
▁volviendo	-11.1051
▁nuts	-11.1052
▁pagado	-11.1053
▁ciencia	-11.1053
▁tail	-11.1054
costó	-11.1055
▁comúnmente	-11.1055
▁piel	-11.1057
▁apaga	-11.1059
▁vain	-11.1061
▁recoger	-11.1063
▁appeared	-11.1066
▁deserted	-11.1068
▁cantó	-11.1069
▁pasajeros	-11.1069
▁practice	-11.107
▁impuestos	-11.1073
▁larger	-11.1074
▁computers	-11.1074
▁succeeded	-11.1076
▁queréis	-11.1076
▁novels	-11.1076
▁vernos	-11.1081
▁adonde	-11.1083
▁bello	-11.1085
▁abrí	-11.1087
▁clouds	-11.1087
▁breathe	-11.1088
▁comprender	-11.1088
▁gast	-11.109
▁cae	-11.1095
▁escalar	-11.11
▁depressed	-11.1101
▁acabar	-11.1106
ish	-11.1112
un	-11.112
éis	-11.1123
▁usando	-11.1125
▁nadando	-11.1126
▁stamps	-11.113
▁odian	-11.1138
▁detuvo	-11.114
▁names	-11.1148
▁seguros	-11.1149
▁abandonar	-11.1152
▁echa	-11.1161
▁solos	-11.1178
▁presentes	-11.1183
▁nose	-11.1189
pusieron	-11.119
▁mu	-11.1202
▁details	-11.1205
▁interest	-11.1245
▁expert	-11.1256
▁material	-11.126
▁relationship	-11.1261
▁enfadada	-11.1262
▁muchacha	-11.1263
▁tranquilo	-11.1263
▁rosa	-11.1264
▁lindo	-11.1267
tally	-11.127
▁cigarette	-11.1272
ita	-11.1272
▁cookie	-11.1274
▁disfrut	-11.1278
▁gasta	-11.1283
▁promesas	-11.129
tió	-11.1297
▁canadienses	-11.13
▁disculpa	-11.1303
becoming	-11.1319
▁presta	-11.1321
▁autor	-11.1322
▁quedan	-11.1325
¿	-11.1353
what	-11.1357
▁goal	-11.1358
▁com	-11.1363
▁chose	-11.1367
▁citizen	-11.1371
▁marca	-11.1375
▁repair	-11.1383
▁jump	-11.1383
▁señor	-11.1383
▁prepar	-11.1384
▁escondi	-11.1388
▁disturb	-11.1392
▁shock	-11.1392
▁build	-11.1395
▁dificultad	-11.1398
▁sudden	-11.1401
▁11	-11.1404
▁thin	-11.1404
▁alcalde	-11.1405
▁arguing	-11.1405
▁basketball	-11.1405
▁bucket	-11.1405
▁crédito	-11.1405
▁failure	-11.1405
▁fortune	-11.1405
▁impresión	-11.1405
▁mexico	-11.1405
▁ocurrido	-11.1405
▁océano	-11.1405
▁ridículo	-11.1405
▁yokohama	-11.1405
▁pleasant	-11.1405
▁polvo	-11.1405
▁facebook	-11.1405
▁buried	-11.1405
▁esperanto	-11.1405
▁tiró	-11.1405
▁belleza	-11.1405
▁changing	-11.1405
▁collar	-11.1405
▁sugirió	-11.1405
▁suicidó	-11.1405
▁moda	-11.1406
▁guapo	-11.1406
▁aprendiste	-11.1406
▁disappeared	-11.1407
▁despise	-11.1407
▁birth	-11.1408
▁pintó	-11.1408
▁sentarme	-11.141
▁intentarlo	-11.141
▁fallen	-11.141
▁greatest	-11.141
▁cometió	-11.1413
▁invented	-11.1413
ías	-11.1414
▁emocionado	-11.1416
▁ausente	-11.1417
▁divorced	-11.1418
▁echo	-11.1421
▁treated	-11.1425
▁compre	-11.1427
▁lower	-11.1427
▁dis	-11.1428
▁ponerse	-11.1428
▁aprendido	-11.1433
▁sospecha	-11.1448
▁sano	-11.145
▁salvar	-11.1458
▁inter	-11.1462
▁cleaning	-11.1464
▁snowing	-11.1465
▁descubrir	-11.1467
▁cooked	-11.1473
▁verla	-11.1477
▁sand	-11.1489
vo	-11.149
cha	-11.1491
▁visiting	-11.1492
▁starts	-11.1493
▁quedaba	-11.1495
▁buses	-11.1512
▁miel	-11.1521
▁mando	-11.1523
▁quejas	-11.1545
,000	-11.1558
▁viaja	-11.1567
▁photos	-11.1568
▁mismos	-11.1568
▁reparar	-11.157
▁ayudará	-11.1579
▁predict	-11.1603
pe	-11.1604
▁dejo	-11.161
esta	-11.1611
zó	-11.1616
▁termine	-11.1634
▁criminal	-11.1634
ied	-11.1637
▁hábito	-11.1639
▁altura	-11.1641
▁saving	-11.1642
▁soldier	-11.1644
▁soldado	-11.1646
▁herida	-11.165
▁admitir	-11.166
▁ta	-11.1676
▁robo	-11.1687
▁tareas	-11.1691
▁cap	-11.1721
▁metal	-11.173
debería	-11.1731
▁trabajaba	-11.1739
▁civil	-11.1742
▁gives	-11.175
▁guardar	-11.1751
▁dentist	-11.1759
▁greet	-11.1764
▁steal	-11.1766
eme	-11.1767
▁lift	-11.1767
▁social	-11.1767
▁automóvil	-11.1768
▁suspicious	-11.177
▁largas	-11.1771
▁stomach	-11.1775
▁apoyo	-11.1775
▁aprecio	-11.1775
▁cierre	-11.1775
▁delicioso	-11.1775
▁despertó	-11.1775
▁efectivo	-11.1775
▁junio	-11.1775
▁laptop	-11.1775
▁lástima	-11.1775
▁professor	-11.1775
▁provide	-11.1775
▁rush	-11.1775
▁alfombra	-11.1775
▁lecture	-11.1775
▁picasso	-11.1775
▁ruso	-11.1775
▁complicated	-11.1775
▁violín	-11.1775
▁private	-11.1775
▁sensible	-11.1775
▁battle	-11.1775
▁batalla	-11.1775
▁invitation	-11.1775
▁invitación	-11.1775
▁definitivamente	-11.1776
▁peel	-11.1776
▁atrasado	-11.1776
▁entendido	-11.1776
▁exhausted	-11.1776
▁decepcionado	-11.1776
▁molesto	-11.1776
▁gerente	-11.1776
▁recientemente	-11.1776
▁tocó	-11.1776
▁baffled	-11.1777
▁salvó	-11.1777
▁sonreír	-11.1777
▁conseguí	-11.1778
▁adiós	-11.1778
▁science	-11.1778
▁vosotras	-11.1778
▁election	-11.1778
▁vieron	-11.1778
▁impressed	-11.1779
▁capaces	-11.178
▁cercana	-11.178
▁hire	-11.1782
▁vienen	-11.1782
▁ruined	-11.1784
▁intentado	-11.1785
▁viniste	-11.1786
▁hablemos	-11.1786
▁considerado	-11.1786
▁jam	-11.1788
▁acting	-11.179
▁imagen	-11.1792
ur	-11.1804
ábamos	-11.1809
▁drives	-11.1817
▁gritar	-11.1818
imos	-11.1819
▁devolver	-11.1821
▁meter	-11.1828
▁signed	-11.1829
▁text	-11.1833
ried	-11.1851
▁carrie	-11.1865
▁chat	-11.187
▁compañeros	-11.1889
▁maravillosa	-11.189
▁continuar	-11.19
▁ibas	-11.1904
▁pro	-11.1913
▁plantas	-11.192
▁vienes	-11.1932
▁arena	-11.1939
▁casas	-11.1943
▁arms	-11.1948
▁march	-11.1965
▁argument	-11.1967
▁ayudé	-11.1983
▁dulces	-11.1987
▁force	-11.1989
▁rode	-11.2009
▁volví	-11.2014
▁detener	-11.202
▁hopes	-11.2024
▁antiguo	-11.2025
▁pi	-11.2026
▁extranjera	-11.2026
▁effort	-11.2027
▁alguno	-11.2044
▁adapt	-11.2047
▁fines	-11.2049
▁actu	-11.2065
sí	-11.2104
law	-11.2112
ion	-11.2118
▁sabían	-11.2138
▁niñas	-11.2139
▁renunciar	-11.2142
▁improve	-11.2145
▁gain	-11.2148
▁lies	-11.2149
▁baile	-11.2152
▁lean	-11.2155
▁defend	-11.2159
▁votar	-11.216
▁audience	-11.216
▁caluroso	-11.216
▁cinturón	-11.216
▁economy	-11.216
▁economía	-11.216
▁enemies	-11.216
▁genio	-11.216
▁insane	-11.216
▁itself	-11.216
▁mochila	-11.216
▁opina	-11.216
▁razones	-11.216
▁strict	-11.216
▁thirteen	-11.216
▁íbamos	-11.216
▁méxico	-11.216
▁colgó	-11.216
▁ugly	-11.216
▁cima	-11.216
▁coward	-11.216
▁mintió	-11.216
▁excusa	-11.216
▁hawaii	-11.216
▁rieron	-11.216
▁diary	-11.216
▁importancia	-11.2161
▁kilómetros	-11.2161
▁ayúdame	-11.2161
▁entré	-11.2161
▁nation	-11.2162
▁salario	-11.2162
▁kindness	-11.2163
▁anger	-11.2163
▁concentrate	-11.2164
▁shake	-11.2165
▁cual	-11.2165
▁punished	-11.2165
▁deeply	-11.2172
ers	-11.2172
▁capable	-11.2172
▁visitado	-11.2173
▁bebo	-11.2174
▁haremos	-11.2174
▁pushed	-11.2175
▁dentista	-11.2177
teniendo	-11.2177
▁encendió	-11.2178
▁spite	-11.2179
▁trataba	-11.2179
▁diste	-11.2179
▁supo	-11.2179
▁saca	-11.2184
▁ordenó	-11.2187
▁cansados	-11.2188
▁llegaría	-11.219
▁trate	-11.2191
▁expresar	-11.2196
▁esperaré	-11.2204
▁musical	-11.2205
▁dejaría	-11.2208
▁venden	-11.221
▁voted	-11.2214
▁alumnos	-11.222
ical	-11.2226
▁miré	-11.223
▁wondering	-11.2252
▁quedando	-11.2255
▁burl	-11.2257
▁usado	-11.2261
▁estuvieron	-11.2263
▁viaj	-11.2266
▁productos	-11.227
▁comparti	-11.2321
▁daba	-11.2326
▁leader	-11.2332
▁esfuerzos	-11.2336
▁guarda	-11.2344
▁pill	-11.2353
▁vase	-11.2369
▁pe	-11.237
▁mantiene	-11.2373
▁muertos	-11.2385
▁vacío	-11.2417
▁apariencia	-11.242
▁impaciente	-11.2421
▁aspecto	-11.2422
▁field	-11.2423
▁cerdo	-11.2425
▁hambriento	-11.2425
▁talento	-11.2426
▁chiste	-11.2427
▁miembro	-11.2428
▁pidie	-11.2429
▁regla	-11.2429
▁seguí	-11.2436
▁lesson	-11.2441
tienen	-11.2455
▁orders	-11.2455
▁po	-11.2473
▁saltar	-11.2476
ation	-11.2484
▁mistaken	-11.2487
▁nombres	-11.2501
ces	-11.2508
ponía	-11.2509
quieren	-11.2512
▁charla	-11.2514
estoy	-11.2519
▁trabajado	-11.2536
▁talent	-11.2537
▁walks	-11.254
▁advance	-11.2544
▁contest	-11.2548
▁cover	-11.2551
▁receive	-11.2553
▁sándwich	-11.2553
▁lleg	-11.2557
▁nevar	-11.2559
▁scene	-11.256
▁baloncesto	-11.256
▁bienvenida	-11.256
▁compromiso	-11.256
▁current	-11.256
▁desierto	-11.256
▁piscina	-11.256
▁ridiculous	-11.256
▁tránsito	-11.256
▁accompan	-11.256
▁conduciendo	-11.256
▁escucho	-11.256
▁notebook	-11.256
▁pepper	-11.256
▁switch	-11.256
▁turkey	-11.256
▁desapareció	-11.256
▁empecé	-11.256
▁juez	-11.256
▁okay	-11.256
▁acusó	-11.256
▁reuniones	-11.256
▁solicitud	-11.256
▁formulario	-11.256
▁gorda	-11.256
▁vendré	-11.256
▁adoro	-11.256
▁noisy	-11.256
▁candy	-11.2561
▁celular	-11.2561
▁villa	-11.2561
▁rota	-11.2562
▁aumento	-11.2562
▁arrestado	-11.2562
▁seguida	-11.2562
▁annoying	-11.2562
▁fracaso	-11.2562
▁frightened	-11.2563
▁outfit	-11.2563
▁coser	-11.2563
▁obviously	-11.2565
▁cheated	-11.2566
▁confundido	-11.2567
▁levantado	-11.2567
▁sentada	-11.2567
▁north	-11.2568
▁vago	-11.2568
▁usualmente	-11.2569
▁successful	-11.2569
▁convertir	-11.257
▁inclinó	-11.2571
▁escena	-11.2575
▁formas	-11.2576
▁obedecer	-11.2577
▁firme	-11.2578
▁persuaded	-11.2581
▁ringing	-11.2581
▁hall	-11.2594
▁kissing	-11.2599
▁diera	-11.2601
▁aparte	-11.2604
éramos	-11.2606
▁despedir	-11.2609
▁produce	-11.2626
▁sleeps	-11.2642
!"	-11.2649
▁inform	-11.2649
ma	-11.2659
▁trenes	-11.2659
▁acuerdas	-11.2661
▁teme	-11.2683
▁compartir	-11.2693
▁cancel	-11.2697
▁tap	-11.2702
▁bala	-11.2707
▁olvida	-11.2744
▁presentar	-11.2751
▁plants	-11.2752
▁vend	-11.2764
▁fotografías	-11.2766
▁mejorar	-11.2772
▁inteligentes	-11.2783
▁wins	-11.2803
ue	-11.2811
ty	-11.2826
▁acostumbrar	-11.2828
▁document	-11.2832
▁pañuelo	-11.2833
▁cheek	-11.284
▁francesa	-11.2841
▁member	-11.2845
▁trabaj	-11.2875
▁equal	-11.2897
ones	-11.2898
za	-11.2901
▁understands	-11.2909
looking	-11.2928
▁sirve	-11.2942
▁tied	-11.2944
▁costa	-11.2946
▁model	-11.2952
▁señal	-11.2955
▁altos	-11.2959
▁interrupt	-11.2961
▁divorce	-11.2961
▁survive	-11.2962
▁crash	-11.2964
▁prevent	-11.2964
▁carga	-11.2964
▁gather	-11.2967
▁obvious	-11.2973
▁mantén	-11.2976
▁actress	-11.2976
▁anxious	-11.2976
▁basket	-11.2976
▁cuarenta	-11.2976
▁envelope	-11.2976
▁garganta	-11.2976
▁grapes	-11.2976
▁grosero	-11.2976
▁kilometers	-11.2976
▁nature	-11.2976
▁throat	-11.2976
▁bound	-11.2976
▁mercado	-11.2976
▁calvo	-11.2977
▁campana	-11.2977
▁enojada	-11.2977
▁fecha	-11.2977
▁violin	-11.2977
▁naturaleza	-11.2977
▁acostumbrada	-11.2977
▁fought	-11.2977
▁cubierto	-11.2978
▁móvil	-11.2978
▁apply	-11.2978
▁seriamente	-11.2978
▁exciting	-11.2978
▁salieron	-11.2978
▁vengo	-11.2978
▁quejando	-11.2979
▁forgetful	-11.2979
▁volando	-11.2979
▁elected	-11.2979
▁harta	-11.298
▁déjalo	-11.298
▁cuyo	-11.298
▁spilled	-11.2983
▁alice	-11.2987
▁cocinando	-11.2988
ista	-11.2989
▁gained	-11.299
▁regular	-11.2991
▁parecer	-11.2991
ci	-11.2992
▁staring	-11.3001
▁casarte	-11.3002
▁growing	-11.3003
▁closer	-11.3004
▁llamaste	-11.3008
▁contain	-11.3009
▁encontraron	-11.301
▁murdered	-11.3013
▁notas	-11.3013
▁llevaré	-11.3018
▁miraba	-11.3034
▁comprarlo	-11.3034
▁llamaba	-11.3034
▁ayudaría	-11.3035
▁planeta	-11.3043
▁brazos	-11.3045
▁quieto	-11.3047
▁perfecta	-11.3056
▁lava	-11.306
▁sp	-11.3063
▁cleaned	-11.3064
▁dust	-11.3078
si	-11.3084
ante	-11.3084
▁queja	-11.3088
▁cerrados	-11.31
▁seguía	-11.3112
dicó	-11.3113
▁empez	-11.3114
adas	-11.3135
dos	-11.314
▁arregl	-11.3148
▁helps	-11.3148
▁base	-11.3156
▁comas	-11.3165
▁poems	-11.3174
▁tomará	-11.3191
▁remembered	-11.321
ive	-11.3227
ito	-11.3247
▁firm	-11.3249
illa	-11.3252
▁sales	-11.3263
▁leo	-11.3267
▁desnudo	-11.3268
▁negra	-11.3268
▁firmar	-11.327
▁alternativa	-11.327
▁medida	-11.3272
▁opera	-11.3278
▁científico	-11.3278
▁corte	-11.3279
biste	-11.3279
▁compañero	-11.3279
▁hoja	-11.328
▁regard	-11.3282
▁creen	-11.3288
▁action	-11.3312
▁asuntos	-11.3313
▁suceder	-11.3316
▁flu	-11.3326
▁contratar	-11.3333
capaz	-11.3363
▁apunt	-11.3368
▁existe	-11.3372
▁muere	-11.3378
ous	-11.3392
▁pressure	-11.3394
▁crecí	-11.3397
▁bowl	-11.3401
▁asia	-11.3402
▁copa	-11.3403
▁nivel	-11.3403
▁witness	-11.3404
▁física	-11.3408
▁achieve	-11.3411
▁adjust	-11.3411
▁cajón	-11.3411
▁dessert	-11.3411
▁efecto	-11.3411
▁embargo	-11.3411
▁enciende	-11.3411
▁evidence	-11.3411
▁helicopter	-11.3411
▁hierro	-11.3411
▁inocencia	-11.3411
▁percent	-11.3411
▁strength	-11.3411
▁tamaño	-11.3411
▁bullet	-11.3411
▁obtuvo	-11.3411
▁crisis	-11.3411
▁june	-11.3411
▁thick	-11.3411
▁average	-11.3411
▁instituto	-11.3411
▁fijamente	-11.3411
▁screen	-11.3411
▁occurred	-11.3411
▁nevando	-11.3411
▁perdiendo	-11.3411
▁ratón	-11.3411
▁suggestion	-11.3411
▁comimos	-11.3411
▁complicado	-11.3411
▁habitual	-11.3412
ran	-11.3412
▁electrónico	-11.3412
▁conference	-11.3412
▁nap	-11.3412
▁soporto	-11.3412
▁adelantado	-11.3412
▁elecciones	-11.3412
▁brillante	-11.3413
▁recuerdas	-11.3413
▁olor	-11.3413
▁raw	-11.3413
▁deshacer	-11.3413
▁comprendo	-11.3413
▁patio	-11.3413
▁major	-11.3413
▁pesada	-11.3413
▁reply	-11.3413
▁cuente	-11.3415
▁costará	-11.3415
▁peleando	-11.3415
▁amar	-11.3416
▁muchísimo	-11.3416
▁órdenes	-11.3417
▁generalmente	-11.3417
▁escondido	-11.3418
▁torre	-11.3418
▁construyó	-11.3418
▁newspapers	-11.3419
▁removed	-11.3419
▁jeans	-11.342
▁causó	-11.3421
▁sed	-11.3421
▁wounded	-11.3422
▁pica	-11.3422
▁mantente	-11.3423
▁llamando	-11.3424
▁concerned	-11.3424
▁juzgar	-11.3427
llón	-11.3429
▁azules	-11.3432
▁visitors	-11.3439
▁importantes	-11.3442
▁llamarme	-11.3443
▁alma	-11.3444
▁experimento	-11.3446
▁postre	-11.3447
▁bebido	-11.3455
▁utilizar	-11.3459
▁león	-11.346
▁fork	-11.3476
▁legal	-11.3478
▁oírte	-11.348
▁danced	-11.3483
▁touched	-11.3489
▁watches	-11.3516
▁twins	-11.3516
▁salad	-11.3516
▁however	-11.3518
▁insult	-11.352
▁ciudades	-11.3527
▁lately	-11.3534
ja	-11.3549
▁empleado	-11.356
▁indica	-11.3564
▁promises	-11.3573
▁primos	-11.3582
▁iban	-11.3589
▁empeza	-11.3611
▁oblig	-11.3615
▁controlar	-11.3623
▁poemas	-11.3627
▁cousins	-11.363
probó	-11.3632
▁dirigi	-11.3632
▁resolvi	-11.3647
▁strangers	-11.366
▁mías	-11.366
tuve	-11.3669
arme	-11.3692
▁bromas	-11.3709
▁concern	-11.371
▁shoot	-11.371
▁closet	-11.3712
▁service	-11.3722
▁asesinado	-11.3725
▁fila	-11.3726
▁testigo	-11.3726
▁lion	-11.3727
▁pierde	-11.3727
▁antigua	-11.3728
ventó	-11.3729
▁direction	-11.3729
▁juguete	-11.3732
▁ciudadano	-11.3732
▁cerrado	-11.3736
▁shoe	-11.3736
▁experto	-11.3737
▁placer	-11.3741
▁rojas	-11.3745
das	-11.375
▁pasto	-11.3752
▁planet	-11.3754
▁pasan	-11.3756
▁alimenta	-11.3757
▁reasons	-11.3763
▁dudas	-11.3775
▁historias	-11.3784
sumo	-11.3787
▁terror	-11.3805
▁lea	-11.3805
▁incident	-11.3808
▁ricos	-11.3812
▁facts	-11.3825
▁directo	-11.3838
▁desert	-11.3844
necesitas	-11.3845
▁manage	-11.3851
▁disappoint	-11.3853
▁spread	-11.3855
▁limpi	-11.3855
▁speed	-11.3855
▁cell	-11.3856
▁venid	-11.386
▁import	-11.3861
▁oficial	-11.3863
▁attract	-11.3865
▁acceso	-11.3866
▁actriz	-11.3866
▁apellido	-11.3866
▁conocimos	-11.3866
▁contrario	-11.3866
▁diamond	-11.3866
▁ejército	-11.3866
▁emocionante	-11.3866
▁false	-11.3866
▁gloves	-11.3866
▁ladder	-11.3866
▁levanto	-11.3866
▁líder	-11.3866
▁method	-11.3866
▁nonsense	-11.3866
▁politics	-11.3866
▁register	-11.3866
▁reputation	-11.3866
▁shakespeare	-11.3866
▁whale	-11.3866
▁whistle	-11.3866
▁estudió	-11.3866
▁furioso	-11.3866
▁guantes	-11.3866
▁deposit	-11.3866
▁sunny	-11.3866
▁priest	-11.3866
▁refrigerador	-11.3866
▁explosion	-11.3866
▁adecuado	-11.3866
▁stake	-11.3866
▁bribe	-11.3866
▁poker	-11.3866
▁electricity	-11.3866
▁lightning	-11.3866
▁discussion	-11.3866
▁enamorada	-11.3866
▁suave	-11.3866
▁preferida	-11.3866
▁valla	-11.3866
▁export	-11.3867
▁obsequio	-11.3867
▁impression	-11.3867
▁construir	-11.3867
▁punta	-11.3867
▁mandó	-11.3867
▁nara	-11.3867
▁condujo	-11.3867
▁cuidadosamente	-11.3867
▁obviamente	-11.3867
▁puppy	-11.3867
▁tiende	-11.3867
▁siéntate	-11.3868
▁preocuparse	-11.3868
▁prohibited	-11.3868
▁escapó	-11.3868
▁adorable	-11.3868
▁drawer	-11.3868
▁cage	-11.3869
hace	-11.3869
▁posición	-11.387
▁creció	-11.387
▁mostraré	-11.387
▁perdone	-11.3871
▁command	-11.3871
▁barking	-11.3872
▁terminé	-11.3872
▁pants	-11.3873
▁elige	-11.3873
▁self	-11.3873
▁granted	-11.3873
▁asegúr	-11.3874
▁dificultades	-11.3874
▁delayed	-11.3875
▁attractive	-11.3876
▁moral	-11.388
▁talented	-11.388
▁llegues	-11.388
▁deny	-11.388
▁canceled	-11.3881
▁crossing	-11.3882
▁uvas	-11.3883
po	-11.3893
▁modelo	-11.3896
▁fan	-11.3897
▁options	-11.39
▁volvería	-11.3904
▁peanuts	-11.3906
▁pasaron	-11.3908
▁llevará	-11.3909
▁encontrarás	-11.3912
▁orejas	-11.3913
▁charged	-11.3913
▁degrees	-11.3919
▁martes	-11.3925
▁ayudado	-11.393
▁estaremos	-11.3935
▁snowed	-11.3963
▁coins	-11.3975
▁total	-11.3979
▁humanos	-11.3992
▁earns	-11.3994
▁documentos	-11.3996
▁pasara	-11.4017
▁cigarettes	-11.4038
▁perdonar	-11.4039
▁seats	-11.4039
yon	-11.4044
tar	-11.4052
▁creas	-11.4064
▁presents	-11.4088
▁entregar	-11.4092
▁vano	-11.4094
j	-11.4095
▁pr	-11.4097
▁closes	-11.41
▁funcionar	-11.4108
▁w	-11.4112
▁producto	-11.4121
▁participar	-11.4128
▁trabajan	-11.4138
▁upon	-11.4151
tener	-11.4155
habla	-11.4159
▁loan	-11.4164
▁ocupa	-11.4167
▁juga	-11.4168
▁aprende	-11.4173
▁estén	-11.4177
▁file	-11.42
sal	-11.4202
▁cosecha	-11.4203
▁regrese	-11.4203
▁plate	-11.4205
▁debt	-11.4207
▁amarilla	-11.4208
▁documento	-11.4219
ina	-11.4225
▁aquello	-11.4225
▁sentar	-11.423
▁pása	-11.4259
▁atrapar	-11.426
▁earn	-11.4266
ized	-11.4278
▁ahorrar	-11.4283
▁ocurre	-11.4285
▁maneja	-11.4285
▁sings	-11.4286
yes	-11.4287
▁planta	-11.4292
▁jobs	-11.4301
▁jugaba	-11.4303
▁hacerle	-11.4305
▁vea	-11.4305
▁poet	-11.4309
▁ke	-11.431
▁vendi	-11.4311
▁supe	-11.4324
▁double	-11.4324
▁acostar	-11.4326
▁harás	-11.4327
▁admire	-11.4331
▁spell	-11.4332
▁flat	-11.4336
▁disfraz	-11.4341
▁access	-11.4342
▁agradezco	-11.4342
▁aliento	-11.4342
▁ambulance	-11.4342
▁ambulancia	-11.4342
▁ansioso	-11.4342
▁atentamente	-11.4342
▁baggage	-11.4342
▁enfadó	-11.4342
▁ensalada	-11.4342
▁falso	-11.4342
▁families	-11.4342
▁impatient	-11.4342
▁inevitable	-11.4342
▁mordió	-11.4342
▁método	-11.4342
▁opciones	-11.4342
▁petróleo	-11.4342
▁pregnant	-11.4342
▁práctica	-11.4342
▁pídele	-11.4342
▁responsabilidad	-11.4342
▁rifle	-11.4342
▁tuesday	-11.4342
▁typhoon	-11.4342
▁uñas	-11.4342
▁vecindario	-11.4342
▁voluntad	-11.4342
▁vuelvo	-11.4342
▁absence	-11.4342
▁asesino	-11.4342
▁stage	-11.4342
▁task	-11.4342
▁tesoro	-11.4342
▁temper	-11.4342
▁hidden	-11.4342
▁tower	-11.4342
▁ease	-11.4342
▁perdimos	-11.4342
▁muriendo	-11.4342
▁package	-11.4342
▁obtener	-11.4342
▁begun	-11.4342
▁involucrado	-11.4342
▁privado	-11.4342
▁calidad	-11.4342
▁pago	-11.4342
▁lavadora	-11.4342
▁frecuentemente	-11.4342
▁electricidad	-11.4342
▁apparently	-11.4342
▁perdieron	-11.4343
▁almohada	-11.4343
▁burst	-11.4343
▁bigge	-11.4343
▁properly	-11.4343
▁continúa	-11.4343
▁averg	-11.4343
▁muéstrame	-11.4344
▁embarazada	-11.4344
▁muerta	-11.4344
▁estalló	-11.4344
▁bordo	-11.4344
▁botas	-11.4346
▁matado	-11.4346
▁apretó	-11.4347
▁sentarse	-11.4347
▁smarter	-11.4348
▁murderer	-11.4348
▁destroyed	-11.4348
▁comiste	-11.4348
▁sewing	-11.4348
▁personalmente	-11.4349
▁issue	-11.435
▁echado	-11.435
▁reasonable	-11.4351
▁baked	-11.4351
claró	-11.4353
▁served	-11.4354
▁cero	-11.4355
▁honesty	-11.4356
▁coches	-11.4357
▁siesta	-11.4357
▁enseñarme	-11.4358
▁traduj	-11.4359
▁hola	-11.4361
▁classmates	-11.4365
▁adopted	-11.4368
▁planted	-11.4371
▁colores	-11.4386
▁sabés	-11.4389
▁forty	-11.439
▁scare	-11.4396
▁repar	-11.4396
▁grados	-11.4411
▁causes	-11.4422
▁llegara	-11.4422
▁meters	-11.4434
▁dreaming	-11.4439
▁nowhere	-11.444
▁juegos	-11.4445
▁doubts	-11.4454
▁comentarios	-11.4457
▁monedas	-11.4457
▁llevara	-11.4458
▁super	-11.446
▁weapons	-11.4464
▁presentó	-11.4472
▁alérgic	-11.4478
▁aula	-11.4479
▁mires	-11.4486
▁knowing	-11.4499
▁particip	-11.4504
ug	-11.4511
▁deer	-11.4529
▁tantos	-11.4542
▁bat	-11.4557
▁roses	-11.4571
▁suma	-11.4574
▁reporte	-11.4576
▁busqué	-11.4583
▁quede	-11.4584
▁resulta	-11.4586
▁cares	-11.4587
▁metros	-11.4591
▁alcanz	-11.4613
▁pasear	-11.4614
gue	-11.4618
ated	-11.4639
▁amenaza	-11.4645
▁páginas	-11.465
rme	-11.4651
▁k	-11.4656
▁wound	-11.4688
▁presente	-11.4694
▁ríe	-11.4696
▁sorprende	-11.4697
▁adult	-11.4697
▁detective	-11.4698
▁handkerchief	-11.4698
▁actual	-11.47
▁dueño	-11.4701
▁photograph	-11.4701
▁disponible	-11.4704
▁parecido	-11.4704
▁medicamento	-11.4705
▁sordo	-11.4705
▁mejilla	-11.4706
▁deuda	-11.4706
▁dama	-11.4708
▁político	-11.4708
▁employee	-11.4711
▁prisoner	-11.4713
vis	-11.4722
▁callado	-11.4724
▁humano	-11.473
▁depend	-11.4735
▁trains	-11.4736
▁aim	-11.474
▁africa	-11.4747
▁resist	-11.4758
▁canadians	-11.4763
▁vives	-11.4769
▁americano	-11.4784
year	-11.4797
▁miente	-11.4802
▁shame	-11.4802
▁sentados	-11.4818
lu	-11.4821
▁fashion	-11.4826
▁frame	-11.4829
▁flood	-11.4829
ncia	-11.4834
▁nuclear	-11.4834
ísimo	-11.4838
▁fox	-11.4839
▁lujo	-11.4839
▁demanda	-11.484
▁materna	-11.484
▁pour	-11.4841
▁capacidad	-11.4841
▁obvio	-11.4841
▁burglar	-11.4842
▁court	-11.4842
▁brit	-11.4842
▁amabilidad	-11.4842
▁april	-11.4842
▁ceiling	-11.4842
▁concurso	-11.4842
▁césped	-11.4842
▁embajada	-11.4842
▁embassy	-11.4842
▁engaged	-11.4842
▁espectáculo	-11.4842
▁evidencia	-11.4842
▁explosión	-11.4842
▁francisco	-11.4842
▁greek	-11.4842
▁harsh	-11.4842
▁hawái	-11.4842
▁heavily	-11.4842
▁impresionado	-11.4842
▁infancia	-11.4842
▁insurance	-11.4842
▁malentendido	-11.4842
▁ocasión	-11.4842
▁outstanding	-11.4842
▁pimienta	-11.4842
▁pleasure	-11.4842
▁political	-11.4842
▁presión	-11.4842
▁reputación	-11.4842
▁rostro	-11.4842
▁secundaria	-11.4842
▁sensitive	-11.4842
▁sociedad	-11.4842
▁society	-11.4842
▁sugerencia	-11.4842
▁sunglasses	-11.4842
▁terrific	-11.4842
▁además	-11.4842
▁motorcycle	-11.4842
▁jaula	-11.4842
▁fridge	-11.4842
▁jogging	-11.4842
▁abril	-11.4842
▁lucía	-11.4842
▁importance	-11.4842
▁sabia	-11.4842
▁blackboard	-11.4842
▁cities	-11.4842
▁boots	-11.4842
▁mentido	-11.4842
▁muero	-11.4842
▁juan	-11.4842
▁claus	-11.4843
▁carpet	-11.4843
▁estanque	-11.4843
▁bailando	-11.4843
▁exhausto	-11.4843
▁babbling	-11.4843
▁decidieron	-11.4843
▁distinguish	-11.4843
▁objeto	-11.4844
▁frankly	-11.4844
▁picante	-11.4844
▁tinta	-11.4844
▁stock	-11.4844
▁quality	-11.4844
▁elegido	-11.4844
▁interesada	-11.4845
▁entregó	-11.4845
▁professional	-11.4845
▁fluently	-11.4845
▁respirar	-11.4845
▁restless	-11.4845
▁obligado	-11.4845
▁valuable	-11.4846
▁tejado	-11.4846
sh	-11.4846
▁cuéntame	-11.4846
▁humo	-11.4846
▁taxes	-11.4847
▁caminaba	-11.4848
▁ignoró	-11.4849
▁lección	-11.4849
▁collecting	-11.485
▁treasure	-11.485
▁olvidaré	-11.4851
▁sweating	-11.4851
▁sour	-11.4851
▁propios	-11.4852
▁confessed	-11.4852
▁shouted	-11.4853
▁shorter	-11.4854
▁empezamos	-11.4854
▁esquí	-11.4854
▁separated	-11.4855
▁insisted	-11.4856
▁personally	-11.4856
▁preparing	-11.4856
▁quietly	-11.486
▁oldest	-11.4862
▁hired	-11.4863
▁entraron	-11.4864
▁height	-11.4865
▁podré	-11.4866
▁intended	-11.4867
▁casarme	-11.4868
▁korean	-11.487
▁magic	-11.4871
▁pobres	-11.4872
▁solucionar	-11.4874
▁incidente	-11.4874
estabas	-11.4876
▁rented	-11.4876
▁nerviosa	-11.4878
▁volumen	-11.488
▁closely	-11.4883
▁pasaba	-11.4883
▁j	-11.4885
▁contarte	-11.4886
▁mandar	-11.489
▁mancha	-11.4892
▁existen	-11.4892
▁fiar	-11.4894
▁imagined	-11.4895
▁busca	-11.4895
▁solar	-11.4896
▁periódicos	-11.4899
▁places	-11.49
▁grades	-11.4901
▁turistas	-11.4915
▁che	-11.4917
▁bananas	-11.4921
▁cazar	-11.4925
▁reunir	-11.4926
▁tales	-11.4929
▁dejarlo	-11.4932
▁derechos	-11.4933
▁meta	-11.4936
▁alimentos	-11.4937
▁conté	-11.4938
▁encargar	-11.4938
▁comía	-11.4939
▁talla	-11.4943
▁vacas	-11.4944
▁normas	-11.495
pero	-11.4952
▁ink	-11.4962
▁amas	-11.4963
▁ca	-11.4964
▁wishes	-11.4965
▁veas	-11.5005
side	-11.5012
ller	-11.5016
▁efforts	-11.5019
ear	-11.5033
▁rosas	-11.5033
▁extrañar	-11.5059
um	-11.5066
age	-11.5106
▁debate	-11.5118
▁ignorar	-11.5125
one	-11.5128
▁prest	-11.5128
▁claims	-11.5131
darnos	-11.5148
▁luchar	-11.5154
▁sábados	-11.5159
▁cargar	-11.516
▁unusual	-11.5176
▁demand	-11.5179
endo	-11.5186
▁pop	-11.5188
▁knee	-11.5189
▁calles	-11.5189
▁consult	-11.519
▁prefiere	-11.5196
▁tune	-11.5201
▁ruin	-11.5202
▁desayuna	-11.5219
▁hu	-11.5221
▁amarillo	-11.5225
▁zorro	-11.5225
▁appearance	-11.5227
▁flag	-11.5229
▁gallina	-11.5231
▁pida	-11.5232
▁cabra	-11.5232
▁piloto	-11.5233
▁tourist	-11.5235
▁weapon	-11.5235
▁acuerda	-11.5236
▁pide	-11.5237
▁lento	-11.5238
▁vuestros	-11.5244
▁manda	-11.5252
▁squeeze	-11.5253
ig	-11.5256
ud	-11.5258
▁necesite	-11.5262
▁papers	-11.5264
▁players	-11.5268
▁scar	-11.5277
▁éstas	-11.5279
▁protest	-11.5295
▁soñ	-11.53
▁cómodo	-11.5304
▁rate	-11.5306
▁corrí	-11.5312
▁faith	-11.5312
▁oppose	-11.532
recuerdas	-11.5323
▁fuese	-11.5324
eza	-11.5325
▁volume	-11.5328
▁decent	-11.5337
▁cough	-11.5345
▁tipos	-11.5347
▁mostrar	-11.5349
▁approve	-11.5353
▁recogi	-11.5354
▁oso	-11.5355
▁poison	-11.5355
▁sweat	-11.5357
▁pack	-11.5358
▁profesional	-11.536
▁angel	-11.5361
ng	-11.5362
▁unexpected	-11.5363
▁lastimar	-11.5363
▁servir	-11.5364
▁hug	-11.5364
▁pruebas	-11.5365
▁occasion	-11.5368
▁adicto	-11.5368
▁apoyó	-11.5368
▁arriving	-11.5368
▁coincidence	-11.5368
▁committee	-11.5368
▁coraje	-11.5368
▁cuaderno	-11.5368
▁deliciosa	-11.5368
▁dieciocho	-11.5368
▁encender	-11.5368
▁engañó	-11.5368
▁entrance	-11.5368
▁estudié	-11.5368
▁festival	-11.5368
▁hoax	-11.5368
▁instructions	-11.5368
▁izquierdo	-11.5368
▁juicio	-11.5368
▁ketchup	-11.5368
▁knowledge	-11.5368
▁maestra	-11.5368
▁martillo	-11.5368
▁ocurra	-11.5368
▁pizarra	-11.5368
▁retrasó	-11.5368
▁rough	-11.5368
▁sombra	-11.5368
▁target	-11.5368
▁temporada	-11.5368
▁tifón	-11.5368
▁unfair	-11.5368
▁universe	-11.5368
▁universo	-11.5368
▁upstairs	-11.5368
▁vestida	-11.5368
▁drew	-11.5368
▁ausencia	-11.5368
▁conceited	-11.5368
▁paliza	-11.5368
▁pagué	-11.5368
▁policy	-11.5368
▁sheep	-11.5368
▁almorzando	-11.5368
▁descubierto	-11.5368
▁egoísta	-11.5368
▁mystery	-11.5368
▁soft	-11.5368
▁swear	-11.5368
▁selfish	-11.5368
▁competition	-11.5368
▁replace	-11.5368
▁habitaciones	-11.5368
▁investigación	-11.5369
▁scenery	-11.5369
▁silver	-11.5369
▁educado	-11.5369
▁imagination	-11.5369
▁cigarro	-11.5369
▁presence	-11.5369
▁melodía	-11.5369
▁permitido	-11.5369
▁imaginación	-11.5369
chi	-11.5369
▁scratch	-11.5369
▁enséñame	-11.5369
▁advirtió	-11.5369
▁comparto	-11.5369
▁autoridad	-11.537
▁stove	-11.537
▁row	-11.537
▁honestidad	-11.537
▁level	-11.537
▁arrepiento	-11.537
▁hundió	-11.537
▁muro	-11.537
▁caminó	-11.537
▁fortunately	-11.5371
▁bitter	-11.5371
▁actualmente	-11.5371
▁square	-11.5371
▁cheaper	-11.5371
▁object	-11.5372
▁sonriendo	-11.5372
▁soul	-11.5372
▁instrucciones	-11.5372
▁partió	-11.5373
▁progreso	-11.5373
▁metido	-11.5373
▁arrojó	-11.5374
▁barba	-11.5374
▁suitable	-11.5374
▁dating	-11.5375
▁saqué	-11.5375
▁product	-11.5375
▁treaty	-11.5377
▁mostrarte	-11.5378
▁bowed	-11.5378
▁rescued	-11.5379
▁fairly	-11.5379
▁miraron	-11.538
▁addict	-11.5382
▁despertador	-11.5383
▁disparar	-11.5384
▁framed	-11.5384
▁shocked	-11.5387
▁marchó	-11.5388
▁sigo	-11.5396
▁reina	-11.5396
▁disfrutar	-11.5399
▁income	-11.54
▁manners	-11.5401
▁quarter	-11.5403
▁quejó	-11.5404
▁quemó	-11.5406
▁ayudando	-11.5408
▁herramientas	-11.5408
▁pagaré	-11.5409
nzó	-11.5416
▁comp	-11.5428
▁chosen	-11.5428
▁serás	-11.5428
▁sellos	-11.5428
▁pesa	-11.5429
▁applie	-11.5433
how	-11.5438
▁leerlo	-11.545
▁acción	-11.5452
▁gemelos	-11.5452
▁preciosa	-11.5456
▁cows	-11.5459
▁terms	-11.5463
▁saludó	-11.5465
▁lit	-11.5474
▁serpientes	-11.5474
▁snakes	-11.5474
cated	-11.5478
▁alcanza	-11.548
▁seca	-11.5484
▁fate	-11.5493
▁parking	-11.5495
king	-11.5507
▁regalar	-11.5507
▁grown	-11.5509
▁permanecer	-11.5515
▁sonando	-11.5529
▁americanos	-11.553
▁científicos	-11.5533
▁lados	-11.5584
▁lucha	-11.5586
ance	-11.5587
elo	-11.5588
▁canal	-11.5595
▁aside	-11.5597
▁cor	-11.5618
▁gustado	-11.5634
▁considera	-11.5662
▁ga	-11.5662
áramos	-11.57
▁prob	-11.5702
▁fueras	-11.5706
▁mata	-11.5711
esa	-11.5715
▁entradas	-11.5726
v	-11.5731
▁tru	-11.5734
▁piense	-11.5748
▁coin	-11.576
▁behave	-11.5767
▁pilot	-11.5769
▁helicóptero	-11.578
▁religion	-11.578
▁colors	-11.5782
▁cobarde	-11.5783
▁pluma	-11.5783
▁bandera	-11.5783
qui	-11.5784
▁cuento	-11.5786
▁guardia	-11.5786
▁dim	-11.5786
▁viera	-11.5787
▁rodilla	-11.5789
▁encuentre	-11.579
▁cigarrillo	-11.579
▁moneda	-11.5791
▁comentario	-11.5791
▁stamp	-11.5792
▁oscura	-11.5792
iz	-11.5799
▁twin	-11.58
cient	-11.5802
▁design	-11.5805
▁sucio	-11.5807
▁fi	-11.582
arte	-11.5826
▁budge	-11.5833
▁revis	-11.5836
▁edi	-11.5839
▁invent	-11.5861
▁agradeci	-11.5864
▁arruin	-11.5867
ellos	-11.5871
mail	-11.5874
▁extraños	-11.5874
▁botellas	-11.5875
▁llegas	-11.5878
▁estacion	-11.5879
▁cocin	-11.5883
▁odiaba	-11.5883
▁busc	-11.5884
▁resultar	-11.5892
▁apunta	-11.5897
▁pray	-11.5898
▁bottles	-11.5898
▁increase	-11.5908
▁lent	-11.5908
ch	-11.591
ho	-11.5912
▁blow	-11.5914
▁triunfar	-11.5918
▁brand	-11.592
▁gentil	-11.592
▁prince	-11.5922
▁central	-11.5924
▁automobile	-11.5924
▁biblia	-11.5924
▁california	-11.5924
▁comité	-11.5924
▁confesó	-11.5924
▁cottage	-11.5924
▁despedida	-11.5924
▁diecisiete	-11.5924
▁funcionó	-11.5924
▁garbage	-11.5924
▁gasolina	-11.5924
▁inconsciente	-11.5924
▁innocence	-11.5924
▁limít	-11.5924
▁mouse	-11.5924
▁nowadays	-11.5924
▁oigo	-11.5924
▁oxygen	-11.5924
▁oxígeno	-11.5924
▁promotion	-11.5924
▁química	-11.5924
▁regreso	-11.5924
▁resort	-11.5924
▁rusia	-11.5924
▁stubborn	-11.5924
▁tabaco	-11.5924
▁unreliable	-11.5924
▁época	-11.5924
▁seventeen	-11.5924
▁suceda	-11.5924
▁parcial	-11.5924
▁apology	-11.5924
▁flour	-11.5924
▁pillow	-11.5924
▁cálido	-11.5924
▁deprimido	-11.5924
▁merecía	-11.5924
▁mutuamente	-11.5924
▁trunk	-11.5924
▁reducir	-11.5924
▁kobe	-11.5924
▁discutiendo	-11.5924
▁brief	-11.5924
▁periodista	-11.5924
▁hugged	-11.5924
▁rio	-11.5924
▁tinto	-11.5924
▁batería	-11.5924
▁estantería	-11.5924
▁wide	-11.5924
▁robando	-11.5925
▁repentinamente	-11.5925
▁observando	-11.5925
▁juguemos	-11.5925
▁safety	-11.5925
▁spade	-11.5925
▁sugiero	-11.5925
▁drowning	-11.5925
▁contraseña	-11.5925
▁password	-11.5925
▁salgo	-11.5926
▁hammer	-11.5926
▁revés	-11.5926
▁bible	-11.5926
▁partida	-11.5926
▁gane	-11.5926
▁soap	-11.5927
▁caído	-11.5927
▁malos	-11.5927
▁incómodo	-11.5928
▁abandonado	-11.5928
▁saque	-11.5928
▁áfrica	-11.5928
▁released	-11.5929
▁pretendía	-11.5929
▁disguised	-11.593
▁pido	-11.593
▁afortunadamente	-11.5932
▁santa	-11.5935
▁salgamos	-11.5935
▁decile	-11.5935
▁siguieron	-11.5936
▁fuertes	-11.5937
▁everest	-11.5938
▁mat	-11.5939
▁jugadores	-11.5939
▁approved	-11.594
▁burning	-11.594
▁estacionar	-11.5941
▁riendo	-11.5942
▁suffering	-11.5942
dical	-11.5942
leaned	-11.5944
▁naturales	-11.5944
construido	-11.5945
▁computadores	-11.5946
▁logro	-11.5946
▁senté	-11.5957
▁decente	-11.5958
▁kilos	-11.5959
▁moderna	-11.5959
▁cómoda	-11.5961
▁poeta	-11.5962
▁aparcar	-11.5964
▁sabor	-11.5966
▁feo	-11.5966
▁evento	-11.5967
▁informed	-11.597
▁respond	-11.5976
▁labios	-11.5981
▁trabajamos	-11.5981
▁celebrate	-11.5987
▁supplies	-11.5989
▁incorrecta	-11.5993
▁rely	-11.5997
▁posee	-11.5998
▁pasaría	-11.5998
ida	-11.5999
▁decirlo	-11.6004
cer	-11.6009
▁memorize	-11.6011
▁heater	-11.6016
▁pasarme	-11.6019
▁comprarse	-11.6025
▁considerar	-11.6026
▁discuti	-11.6026
▁conejos	-11.6036
tiendo	-11.6037
▁painful	-11.6042
▁clientes	-11.6053
eligió	-11.6053
▁juegan	-11.6056
aciones	-11.6058
▁tourists	-11.6067
▁necesites	-11.6067
▁decepcionar	-11.6075
▁divorci	-11.6077
ín	-11.608
▁chances	-11.6083
▁sabías	-11.6101
pidieron	-11.6105
▁r	-11.6113
tado	-11.6127
▁superar	-11.6131
oso	-11.6171
dando	-11.6177
▁consume	-11.6228
▁abuse	-11.6229
old	-11.6232
▁cultura	-11.624
▁hoped	-11.6263
zo	-11.628
▁muchachos	-11.6286
▁aprobar	-11.6287
▁owner	-11.6299
▁encuentras	-11.6302
▁stepp	-11.6317
where	-11.633
▁recibi	-11.6334
▁lu	-11.6339
▁scream	-11.6341
▁tire	-11.6345
▁damage	-11.6355
▁gu	-11.636
▁misterio	-11.6364
▁culture	-11.6364
▁divertida	-11.6364
▁reservation	-11.6365
vamos	-11.6368
▁belt	-11.6368
▁clara	-11.6369
▁wheel	-11.637
▁sujeto	-11.637
cantaría	-11.637
▁custom	-11.6375
▁curtain	-11.6377
▁cliente	-11.638
▁roll	-11.6384
▁familias	-11.6389
▁dollar	-11.6389
▁italiano	-11.6398
▁fuente	-11.6401
▁mono	-11.6416
▁resign	-11.6419
▁suicidar	-11.6436
sumí	-11.6456
queréis	-11.6463
tenéis	-11.6464
▁entendí	-11.647
ria	-11.6472
▁russia	-11.6473
five	-11.6473
▁gifts	-11.6485
▁state	-11.6492
▁separate	-11.6493
▁delay	-11.6501
▁habilidad	-11.6505
▁thorough	-11.6507
▁wealth	-11.6509
▁shout	-11.6509
▁rápida	-11.6509
▁affect	-11.6512
▁aburrida	-11.6512
▁actitud	-11.6512
▁anteojos	-11.6512
▁attitude	-11.6512
▁autumn	-11.6512
▁auténtico	-11.6512
▁cedió	-11.6512
▁challenge	-11.6512
▁conjunto	-11.6512
▁desastre	-11.6512
▁desierta	-11.6512
▁downstairs	-11.6512
▁estilo	-11.6512
▁financial	-11.6512
▁halloween	-11.6512
▁horario	-11.6512
▁hunch	-11.6512
▁journalist	-11.6512
▁junk	-11.6512
▁lastimó	-11.6512
▁lápices	-11.6512
▁narrow	-11.6512
▁opposite	-11.6512
▁promedio	-11.6512
▁príncipe	-11.6512
▁pálido	-11.6512
▁repugnante	-11.6512
▁simpático	-11.6512
▁statue	-11.6512
▁traicionó	-11.6512
▁trigger	-11.6512
▁desaparecido	-11.6512
▁quíta	-11.6512
▁recién	-11.6512
▁sensación	-11.6512
▁flashlight	-11.6512
▁zona	-11.6512
▁falleció	-11.6512
▁honey	-11.6512
▁slam	-11.6512
▁stomachache	-11.6512
▁atento	-11.6512
▁empiece	-11.6512
▁department	-11.6512
▁reduce	-11.6512
▁dozen	-11.6512
▁pozo	-11.6512
▁purse	-11.6512
▁sirvió	-11.6512
▁lavó	-11.6512
▁pipe	-11.6512
▁palace	-11.6512
▁antig	-11.6512
▁nearby	-11.6512
▁further	-11.6512
▁eyesight	-11.6513
▁tóma	-11.6513
▁soltera	-11.6513
▁remarkable	-11.6513
▁dormida	-11.6513
▁operation	-11.6513
▁harina	-11.6513
▁admiro	-11.6513
▁dibujo	-11.6513
▁acondicionado	-11.6514
▁confidence	-11.6514
▁rejected	-11.6514
▁soñando	-11.6514
▁informado	-11.6514
▁happier	-11.6515
▁construcción	-11.6515
▁bleeding	-11.6515
▁quejarse	-11.6515
▁atravesó	-11.6515
▁appetite	-11.6515
▁pavo	-11.6515
▁threatened	-11.6515
▁planned	-11.6516
▁respira	-11.6516
▁lotería	-11.6517
▁tela	-11.6517
▁optimista	-11.6517
▁continuó	-11.6517
▁ciertamente	-11.6517
▁actúa	-11.6518
▁mostrarme	-11.6519
▁boiling	-11.652
▁condición	-11.652
▁proof	-11.652
▁secó	-11.652
▁explicarlo	-11.652
▁defense	-11.652
▁swam	-11.652
▁invitaron	-11.652
▁muestra	-11.6522
su	-11.6522
▁balde	-11.6522
▁oeste	-11.6523
▁arrogante	-11.6524
▁desgracia	-11.6524
▁painter	-11.6524
▁screamed	-11.6525
▁sandwiches	-11.6525
▁cogido	-11.6526
▁logró	-11.6528
▁mataron	-11.6529
▁enseñaré	-11.6529
▁busco	-11.6531
▁sobrevivir	-11.6531
▁dominar	-11.6531
▁cave	-11.6532
▁pasaste	-11.6533
▁cu	-11.6536
▁cochera	-11.6537
▁responde	-11.6537
▁comparado	-11.6538
zco	-11.6538
▁preguntarte	-11.6538
▁resistir	-11.654
▁conocerte	-11.6542
▁participate	-11.6544
▁gastos	-11.6544
▁tonta	-11.6545
aban	-11.6546
▁lloverá	-11.6546
▁apetece	-11.6546
▁insistió	-11.6548
▁asientos	-11.655
cogí	-11.655
▁utiliza	-11.6555
▁avoided	-11.6555
▁ponerme	-11.6558
▁joy	-11.6561
▁crowded	-11.6562
▁officer	-11.6564
▁yendo	-11.6564
▁trabajas	-11.6565
▁checked	-11.6569
▁tiro	-11.6572
▁rainy	-11.6573
▁imp	-11.6575
▁uniforme	-11.6575
▁comete	-11.6579
▁barber	-11.6581
▁guns	-11.6581
▁worrying	-11.6585
▁hijas	-11.6586
▁breaking	-11.6591
▁nodded	-11.6592
▁completa	-11.6592
▁assure	-11.6601
▁daría	-11.6607
▁foreigners	-11.6624
▁cabe	-11.664
▁tires	-11.6657
▁products	-11.6662
▁encontrarte	-11.6663
▁knees	-11.6665
▁amarillas	-11.6681
▁osos	-11.6684
▁lamp	-11.6686
ados	-11.6689
▁dependen	-11.6701
pueden	-11.6709
▁lovely	-11.6712
▁chistes	-11.6715
tenemos	-11.6718
▁extranjeras	-11.6722
tir	-11.6724
▁salgas	-11.6749
vi	-11.676
▁lead	-11.6762
▁pasas	-11.6775
▁aguantar	-11.6799
▁oye	-11.6802
▁pages	-11.6805
ará	-11.681
▁colecciona	-11.6812
▁meals	-11.6821
▁molestar	-11.6825
▁encantador	-11.6827
▁logr	-11.6828
ismo	-11.6838
▁ocupar	-11.6838
▁understanding	-11.6838
▁alegre	-11.6853
▁bolsillos	-11.6856
▁encantado	-11.6872
▁pockets	-11.6872
▁consigue	-11.6876
▁advis	-11.688
▁revistas	-11.6881
▁magazines	-11.6889
▁maletas	-11.6889
▁cura	-11.6893
▁dare	-11.6904
▁norma	-11.6906
▁pencils	-11.6923
pi	-11.6924
▁mentiras	-11.6926
che	-11.6944
bo	-11.6945
▁cups	-11.6949
podé	-11.6958
▁realizar	-11.6963
ling	-11.6967
▁lamenta	-11.6976
▁asustar	-11.6979
▁confuso	-11.6995
▁pesadilla	-11.6998
▁brain	-11.7
▁cheque	-11.7004
▁ghost	-11.7005
▁detalle	-11.7005
▁adulto	-11.7014
▁permit	-11.7015
▁traiga	-11.7019
▁violent	-11.702
▁mission	-11.7031
▁estudias	-11.7033
▁detenido	-11.7035
▁compara	-11.7039
▁permaneci	-11.7039
▁doctors	-11.7048
cierto	-11.7062
▁bebí	-11.7065
vy	-11.7067
eras	-11.7067
▁comprende	-11.7071
▁ayudes	-11.7071
▁puñ	-11.7086
sabés	-11.7088
tendré	-11.7088
▁owes	-11.7093
▁evit	-11.7102
ustedes	-11.7108
▁collect	-11.7114
▁hesitate	-11.7122
▁origin	-11.7123
▁faint	-11.7125
▁confess	-11.7125
▁borde	-11.7125
▁quarrel	-11.7126
▁superior	-11.7129
▁tenedor	-11.7129
▁comercial	-11.713
▁ángel	-11.713
▁convenient	-11.7132
▁spli	-11.7135
▁profunda	-11.7136
▁veneno	-11.7136
▁spot	-11.7137
▁conscious	-11.7137
tacó	-11.7137
▁acepto	-11.7137
▁album	-11.7137
▁apetito	-11.7137
▁application	-11.7137
▁cafetería	-11.7137
▁cambié	-11.7137
▁ciega	-11.7137
▁circumstances	-11.7137
▁clásica	-11.7137
▁complex	-11.7137
▁conocieron	-11.7137
▁conseguido	-11.7137
▁decírselo	-11.7137
▁desmayó	-11.7137
▁determine	-11.7137
▁disculpó	-11.7137
▁duermo	-11.7137
▁eighteen	-11.7137
▁eléctrica	-11.7137
▁excepcional	-11.7137
▁gatillo	-11.7137
▁grifo	-11.7137
▁hockey	-11.7137
▁húmedo	-11.7137
▁independiente	-11.7137
▁international	-11.7137
▁intérprete	-11.7137
▁january	-11.7137
▁ladrones	-11.7137
▁lectura	-11.7137
▁ligero	-11.7137
▁linterna	-11.7137
▁luggage	-11.7137
▁mínimo	-11.7137
▁pajamas	-11.7137
▁patinar	-11.7137
▁physics	-11.7137
▁pánico	-11.7137
▁religión	-11.7137
▁research	-11.7137
▁responsibility	-11.7137
▁rising	-11.7137
▁rompecabezas	-11.7137
▁scissors	-11.7137
▁siguiendo	-11.7137
▁translation	-11.7137
▁vencido	-11.7137
▁virus	-11.7137
▁vídeo	-11.7137
▁necesaria	-11.7137
▁screw	-11.7137
▁veloz	-11.7137
▁coincidencia	-11.7137
▁infantil	-11.7137
▁romantic	-11.7137
▁amusing	-11.7137
▁disaster	-11.7137
▁typical	-11.7137
▁apague	-11.7137
▁palacio	-11.7137
▁vegetales	-11.7137
▁acciones	-11.7137
▁estatua	-11.7137
▁desperate	-11.7137
▁pink	-11.7137
▁resuelto	-11.7137
▁cocinero	-11.7137
▁pintor	-11.7137
▁almorzamos	-11.7137
▁fog	-11.7137
▁aparentemente	-11.7137
▁datos	-11.7137
▁amazed	-11.7137
▁frog	-11.7137
▁authority	-11.7137
▁tranquila	-11.7138
▁ebrio	-11.7138
▁crema	-11.7138
▁desocupado	-11.7138
▁secretary	-11.7138
▁poquito	-11.7138
▁comenzado	-11.7138
▁sink	-11.7138
▁directamente	-11.7138
▁treatment	-11.7138
▁tratamiento	-11.7138
▁salimos	-11.7138
▁delgado	-11.7139
▁exitoso	-11.7139
▁gripe	-11.7139
▁pasaje	-11.7139
▁lenguaje	-11.7139
▁hatred	-11.7139
▁bush	-11.7139
▁salón	-11.7139
▁impedir	-11.7139
▁cloudy	-11.7139
▁thrilled	-11.7139
▁drowned	-11.714
▁librería	-11.714
▁flow	-11.714
▁revel	-11.714
▁punctual	-11.7141
▁encouraged	-11.7142
▁subiendo	-11.7142
▁sorprendería	-11.7142
▁incorrecto	-11.7142
▁astuto	-11.7142
▁alegría	-11.7142
▁perderás	-11.7142
▁path	-11.7143
▁sentamos	-11.7143
▁cheered	-11.7143
▁enseñando	-11.7143
▁warmer	-11.7144
▁barrio	-11.7145
▁gastado	-11.7145
▁cheating	-11.7145
▁ganando	-11.7145
▁divorcio	-11.7147
▁practical	-11.7148
▁mudó	-11.7148
▁loudly	-11.7148
▁crush	-11.7149
▁deceived	-11.7149
▁retired	-11.7149
▁lottery	-11.7149
▁fainted	-11.715
▁unknown	-11.715
▁recursos	-11.715
han	-11.7151
▁float	-11.7151
▁l	-11.7151
▁comamos	-11.7153
▁reconocí	-11.7153
▁border	-11.7153
▁sincera	-11.7153
▁damaged	-11.7155
▁crashed	-11.7156
▁misión	-11.7156
▁yard	-11.7158
▁climbing	-11.716
▁ours	-11.716
▁improved	-11.7162
▁fea	-11.7164
▁career	-11.7164
todos	-11.7165
▁mezcla	-11.7165
▁preguntando	-11.7165
▁cultiva	-11.7166
▁respetar	-11.7167
▁insectos	-11.7168
▁mire	-11.7169
▁sudando	-11.717
▁enojar	-11.7172
▁latest	-11.7179
▁papeles	-11.7181
▁láv	-11.7189
▁adivina	-11.7195
▁consecuencias	-11.7203
▁aquél	-11.7203
▁trabajador	-11.7205
▁daughters	-11.7209
▁estate	-11.7215
▁ideal	-11.7216
▁creemos	-11.7216
▁compraron	-11.722
eh	-11.722
▁beard	-11.7223
▁mirá	-11.7226
▁comb	-11.7232
▁tigers	-11.7238
voted	-11.7254
▁lobos	-11.7256
▁dejas	-11.7268
▁aman	-11.7271
▁adultos	-11.7275
▁blamed	-11.7278
▁enero	-11.7282
▁cigarrillos	-11.7291
▁pienses	-11.7291
manded	-11.7307
▁políticos	-11.7308
▁juguetes	-11.7326
▁sienten	-11.7332
ico	-11.7335
▁documents	-11.7344
▁lawn	-11.7356
misunderstanding	-11.7369
▁juntar	-11.7376
▁asegur	-11.7379
▁letras	-11.7388
ros	-11.7394
▁showing	-11.7407
▁vasos	-11.7409
▁seria	-11.7414
▁caus	-11.7427
▁prepara	-11.743
ke	-11.7436
▁listens	-11.7442
op	-11.7444
gó	-11.7452
▁pis	-11.7456
ica	-11.7467
▁bi	-11.7468
▁stones	-11.7477
▁baila	-11.7478
x	-11.7494
▁ref	-11.7512
▁llaman	-11.7515
▁locos	-11.7519
▁derram	-11.7534
▁dejá	-11.7538
▁lanza	-11.7557
▁toque	-11.7558
▁pa	-11.7561
▁vayan	-11.7561
▁limpias	-11.7562
▁tapa	-11.757
pr	-11.759
▁cds	-11.759
ily	-11.7598
▁llamadas	-11.7613
▁anterior	-11.7614
▁asusta	-11.7654
▁universitario	-11.7656
▁ventaja	-11.7656
▁fresca	-11.7656
▁fu	-11.7658
▁mosquito	-11.766
▁barata	-11.766
▁falsa	-11.766
▁sonríe	-11.766
▁source	-11.766
▁odd	-11.7661
▁conocimiento	-11.7662
▁ciervo	-11.7663
▁corté	-11.7664
out	-11.7665
▁conozca	-11.7667
▁liber	-11.7667
▁cambie	-11.7668
▁pedazo	-11.7668
▁politician	-11.7669
▁voluntario	-11.7669
▁cortina	-11.7669
▁rabbit	-11.7669
▁conejo	-11.767
▁serpiente	-11.767
▁snake	-11.767
▁interior	-11.7699
▁bears	-11.7702
▁tuyos	-11.7711
▁vaca	-11.7717
▁quita	-11.7722
▁horror	-11.7725
edades	-11.7734
▁firma	-11.7741
▁cen	-11.7746
▁prima	-11.7748
▁temer	-11.7749
shirt	-11.7755
thirty	-11.7755
ahora	-11.7756
▁preocupados	-11.7757
handed	-11.7761
▁disgust	-11.7762
▁serve	-11.7762
vale	-11.7764
▁astronaut	-11.7767
soy	-11.7769
▁reunió	-11.7773
▁ladra	-11.7773
▁vueltas	-11.7774
▁mark	-11.7783
▁despertado	-11.7784
▁falls	-11.7786
▁engañar	-11.779
▁aprecia	-11.7797
▁escolar	-11.7798
▁skate	-11.7799
▁absolute	-11.7799
▁trigo	-11.78
▁demostrar	-11.7801
▁negar	-11.7801
scribió	-11.7803
▁dish	-11.7803
▁aceite	-11.7804
▁aprobado	-11.7804
▁asintió	-11.7804
▁escrita	-11.7804
▁exámenes	-11.7804
▁forehead	-11.7804
▁frigorífico	-11.7804
▁glance	-11.7804
▁haircut	-11.7804
▁handwriting	-11.7804
▁independent	-11.7804
▁mobile	-11.7804
▁médica	-11.7804
▁niebla	-11.7804
▁ochenta	-11.7804
▁ordinary	-11.7804
▁popcorn	-11.7804
▁purchase	-11.7804
▁recomendó	-11.7804
▁reconoció	-11.7804
▁riqueza	-11.7804
▁rotten	-11.7804
▁stool	-11.7804
▁surprising	-11.7804
▁timbre	-11.7804
▁toothpaste	-11.7804
▁universal	-11.7804
▁volleyball	-11.7804
▁withdraw	-11.7804
▁wolves	-11.7804
▁álbum	-11.7804
▁audiencia	-11.7804
▁sesenta	-11.7804
▁silk	-11.7804
▁sírva	-11.7804
▁atractiva	-11.7804
▁corriente	-11.7804
▁culpo	-11.7804
▁fierce	-11.7804
▁assistant	-11.7804
▁heladera	-11.7804
▁sake	-11.7804
▁aguanto	-11.7804
▁bici	-11.7804
▁punishment	-11.7804
▁underestimate	-11.7804
▁magia	-11.7804
▁princesa	-11.7804
▁alquiler	-11.7804
▁breed	-11.7804
▁volvamos	-11.7804
▁renunció	-11.7804
▁wings	-11.7804
▁escaso	-11.7804
▁bookstore	-11.7804
▁communicate	-11.7804
▁otherwise	-11.7804
▁casco	-11.7804
▁tentación	-11.7804
▁silly	-11.7805
▁comieron	-11.7805
▁powerful	-11.7805
▁internacional	-11.7805
▁investigando	-11.7805
▁esperábamos	-11.7805
▁wheat	-11.7805
▁practicing	-11.7805
▁published	-11.7805
▁national	-11.7805
▁nevó	-11.7805
▁prometido	-11.7805
▁harvest	-11.7806
▁princess	-11.7806
▁coal	-11.7806
▁guía	-11.7806
▁strike	-11.7806
▁mencionó	-11.7806
▁charlar	-11.7807
▁oven	-11.7807
▁sucedido	-11.7807
▁preocuparme	-11.7807
▁decidiste	-11.7807
▁visible	-11.7807
▁beans	-11.7808
▁cumplió	-11.7808
▁invité	-11.7808
▁scary	-11.7808
▁difficulties	-11.7808
▁track	-11.7809
▁recuperó	-11.7809
▁active	-11.7809
▁llegada	-11.781
▁bajando	-11.7811
▁golden	-11.7811
▁enamoró	-11.7812
▁bow	-11.7812
▁camping	-11.7812
▁grito	-11.7812
▁buscaba	-11.7812
▁distract	-11.7813
▁cumplido	-11.7813
▁tercera	-11.7813
▁secretos	-11.7814
▁conducta	-11.7815
▁agudo	-11.7816
▁infeliz	-11.7816
tando	-11.7818
▁insects	-11.7818
▁bola	-11.7818
▁qui	-11.7819
▁mas	-11.7819
▁insulted	-11.7826
▁resources	-11.7827
▁admired	-11.7827
▁ahorros	-11.7828
▁llevé	-11.7828
▁dancer	-11.783
▁minor	-11.7831
▁llamaron	-11.7832
▁palo	-11.7835
▁normally	-11.7835
▁cambiará	-11.7835
▁rió	-11.7836
▁alérgica	-11.7837
▁hundreds	-11.7839
▁remains	-11.784
▁astronauta	-11.7841
▁señora	-11.7842
▁entiendes	-11.7844
▁relaxed	-11.7845
▁complaints	-11.7846
▁nerves	-11.7846
▁ayudarla	-11.7846
▁wipe	-11.7848
▁instante	-11.7853
▁intentes	-11.7857
hi	-11.7862
▁avisar	-11.7863
▁balance	-11.7863
up	-11.7864
▁lips	-11.7865
▁deserved	-11.7873
▁leyes	-11.7875
▁entendería	-11.7876
▁cumple	-11.7877
▁cast	-11.7882
▁ancianos	-11.7885
▁viví	-11.7892
ame	-11.7899
▁tigres	-11.7902
▁veras	-11.7906
▁ayudaré	-11.7909
▁vais	-11.7909
▁influencia	-11.7909
▁momentos	-11.7913
▁budget	-11.7915
you	-11.7916
▁veros	-11.7918
▁content	-11.792
▁terminará	-11.7922
▁velas	-11.7923
▁abus	-11.7925
▁humana	-11.7926
▁alquilar	-11.7929
▁sientas	-11.793
▁rojos	-11.7931
▁streets	-11.7936
▁cortinas	-11.794
▁rabbits	-11.794
▁nails	-11.7943
rían	-11.7953
▁seated	-11.7963
▁reads	-11.7967
▁secrets	-11.7971
▁beg	-11.7973
▁esperara	-11.7985
▁prefieres	-11.7991
▁cancelar	-11.8004
▁atropell	-11.8013
▁regards	-11.8016
▁interesantes	-11.8017
led	-11.8019
▁llora	-11.8026
▁gustaban	-11.8046
▁llegaré	-11.8049
▁hermosas	-11.8061
▁adoptar	-11.8063
aría	-11.8065
▁cho	-11.8069
▁números	-11.8072
▁digan	-11.8073
▁escrib	-11.8084
▁acabas	-11.8089
▁usan	-11.81
▁smokes	-11.8103
▁estúpidas	-11.8111
▁vengan	-11.8122
▁abandon	-11.8143
sos	-11.8144
fi	-11.8144
▁fuerzas	-11.8149
▁suitcases	-11.8168
pped	-11.8182
ló	-11.8185
▁sube	-11.8194
▁piedras	-11.8197
tuviste	-11.8199
▁sopl	-11.821
▁trozos	-11.8216
ard	-11.8223
▁west	-11.8223
▁hablarle	-11.8239
▁odiar	-11.8246
▁junt	-11.8254
▁fle	-11.8262
▁cometa	-11.8267
▁perdona	-11.8276
▁seda	-11.8277
▁frutas	-11.8293
ería	-11.8304
▁acostumbr	-11.831
ware	-11.8311
men	-11.8313
▁sew	-11.8315
▁aliment	-11.8344
ished	-11.8354
▁milagro	-11.837
rías	-11.8378
▁segundos	-11.8381
▁papa	-11.8381
▁elefante	-11.8383
▁comment	-11.8383
▁prisionero	-11.8383
▁sienta	-11.8384
▁nail	-11.8384
▁peligrosa	-11.8384
▁farmer	-11.8385
▁candle	-11.8385
▁fantasma	-11.8386
▁droga	-11.8387
▁verdes	-11.8391
▁foreigner	-11.8393
▁rompe	-11.8394
▁alimento	-11.8395
rte	-11.8396
actuando	-11.8396
▁memoriz	-11.8402
▁sometime	-11.8406
▁goat	-11.8408
▁consist	-11.842
▁lobo	-11.8423
▁tumba	-11.8425
ármelo	-11.8425
cho	-11.8434
▁caza	-11.8437
ándome	-11.8438
▁crece	-11.844
▁gang	-11.8447
▁escala	-11.8451
▁individual	-11.8453
▁insist	-11.8454
metió	-11.8455
gracias	-11.8455
imed	-11.8456
▁loose	-11.8462
▁heridos	-11.8466
creés	-11.8467
fuiste	-11.8469
iera	-11.847
will	-11.8471
▁rise	-11.8476
▁juegue	-11.8477
▁pusi	-11.8478
▁korea	-11.8478
▁quema	-11.8478
▁exact	-11.8478
cy	-11.8485
▁aspirin	-11.8488
vienes	-11.8495
vertirse	-11.8498
▁disagree	-11.8499
ob	-11.8499
▁postpone	-11.8503
▁crack	-11.8504
▁pronounce	-11.8506
▁conduct	-11.8508
▁ba	-11.8508
▁tax	-11.8508
▁exterior	-11.8511
▁corea	-11.8511
▁furious	-11.8513
▁fluent	-11.8514
▁robber	-11.8514
▁materia	-11.8516
▁moto	-11.8517
▁east	-11.8517
▁comidas	-11.8517
▁delegat	-11.8518
▁commit	-11.8518
▁orphan	-11.8518
▁environment	-11.8518
▁alphabet	-11.8518
▁arrival	-11.8518
▁arrow	-11.8518
▁campaign	-11.8518
▁circle	-11.8518
▁comencemos	-11.8518
▁conceal	-11.8518
▁círculo	-11.8518
▁description	-11.8518
▁discount	-11.8518
▁essential	-11.8518
▁explique	-11.8518
▁fbi	-11.8518
▁forecast	-11.8518
▁garaje	-11.8518
▁hilton	-11.8518
▁hiroshima	-11.8518
▁honeymoon	-11.8518
▁increasing	-11.8518
▁injusto	-11.8518
▁jabón	-11.8518
▁julio	-11.8518
▁llores	-11.8518
▁luxury	-11.8518
▁millionaire	-11.8518
▁narita	-11.8518
▁portugal	-11.8518
▁pudieron	-11.8518
▁racket	-11.8518
▁roosevelt	-11.8518
▁semejante	-11.8518
▁soborno	-11.8518
▁switzerland	-11.8518
▁technology	-11.8518
▁tecnología	-11.8518
▁telefónica	-11.8518
▁thumb	-11.8518
▁unconscious	-11.8518
▁victim	-11.8518
▁whisky	-11.8518
▁wolf	-11.8518
▁árabe	-11.8518
▁acento	-11.8518
▁inesperado	-11.8518
▁predecir	-11.8518
▁suicidio	-11.8518
▁below	-11.8518
▁briefcase	-11.8518
▁pésimo	-11.8518
▁escoba	-11.8518
▁gym	-11.8518
▁plain	-11.8518
▁charity	-11.8518
▁presencia	-11.8518
▁suiza	-11.8518
▁campaña	-11.8518
▁composition	-11.8518
▁recurrir	-11.8518
▁jury	-11.8518
▁perdiste	-11.8518
▁dizzy	-11.8518
▁volviera	-11.8518
▁stew	-11.8518
▁toyota	-11.8518
▁cuero	-11.8518
▁tidy	-11.8518
▁daños	-11.8518
▁confíe	-11.8518
▁continuación	-11.8518
▁desagradable	-11.8518
▁sorprendente	-11.8518
▁broom	-11.8518
▁fuga	-11.8519
▁mojado	-11.8519
▁pusiste	-11.8519
▁digging	-11.8519
▁operación	-11.8519
▁interpreter	-11.8519
▁rechazado	-11.8519
▁convertido	-11.8519
▁grasa	-11.8519
▁medalla	-11.8519
▁unlocked	-11.8519
▁reino	-11.852
▁empeorando	-11.852
▁automovilístico	-11.852
▁"¡	-11.852
▁empezaste	-11.852
▁condenado	-11.852
▁inquieto	-11.852
▁micro	-11.852
▁unlucky	-11.852
▁july	-11.8521
▁fake	-11.8521
▁spicy	-11.8521
▁chew	-11.8521
▁parties	-11.8521
▁enviado	-11.8522
▁pusiera	-11.8522
▁permitió	-11.8522
▁cambiando	-11.8522
▁desayunado	-11.8523
▁preocuparte	-11.8523
▁sinceramente	-11.8523
▁funcionará	-11.8523
▁caí	-11.8523
▁votaron	-11.8524
▁nieva	-11.8524
▁struck	-11.8524
▁style	-11.8524
▁preparada	-11.8524
▁prime	-11.8524
▁recomendar	-11.8525
dejaste	-11.8525
▁talentoso	-11.8526
▁hunger	-11.8526
▁probarlo	-11.8526
▁convencerlo	-11.8527
▁suelto	-11.8527
▁sentaron	-11.8528
▁arreglarlo	-11.8528
▁coreano	-11.8528
▁banca	-11.8528
▁convencerle	-11.8529
▁disgusting	-11.8529
▁disco	-11.8529
▁oración	-11.8531
▁nado	-11.8531
▁punch	-11.8531
▁llegando	-11.8531
▁online	-11.8531
▁tijeras	-11.8533
▁sobrevivió	-11.8534
▁cortado	-11.8534
▁hilo	-11.8535
▁medal	-11.8536
▁saludos	-11.8537
▁mentí	-11.8537
▁earned	-11.8537
▁eighty	-11.8538
▁higher	-11.8538
▁pure	-11.8539
▁searching	-11.8539
▁contestó	-11.8544
▁tocaba	-11.8545
▁tango	-11.8545
▁averigua	-11.8546
▁caridad	-11.8547
▁aspirina	-11.8548
▁confident	-11.8548
▁salvajes	-11.8553
▁firmó	-11.8554
▁enfermedades	-11.8556
▁durará	-11.8556
▁recordó	-11.8557
▁examine	-11.8558
▁vacant	-11.856
▁ka	-11.8561
▁breathing	-11.8562
▁decisiones	-11.857
ial	-11.8574
▁bomberos	-11.8574
▁appreciated	-11.8576
▁loosen	-11.8577
▁permíta	-11.8577
▁populares	-11.858
▁entering	-11.858
▁visitarme	-11.8583
▁crops	-11.8584
▁eche	-11.8591
▁dr	-11.8598
▁operate	-11.8601
▁pierdas	-11.8604
▁customers	-11.8604
▁ingresos	-11.8604
▁stands	-11.8605
▁negros	-11.8607
▁toys	-11.861
▁comemos	-11.8613
▁adolescentes	-11.8614
▁casaron	-11.8621
▁trescient	-11.8623
▁latin	-11.8624
▁sucede	-11.8631
▁judg	-11.8637
▁aseguro	-11.864
▁encontrarme	-11.8647
▁lid	-11.8652
▁parts	-11.8654
▁canilla	-11.866
▁vivos	-11.8663
▁cuentas	-11.8668
▁despegar	-11.8668
▁anota	-11.8673
▁precioso	-11.8675
▁juntas	-11.8676
▁sucia	-11.8677
▁monos	-11.8703
▁pides	-11.8705
▁dejarte	-11.8708
▁adults	-11.8716
▁prisoners	-11.8716
▁pares	-11.8727
▁sorprender	-11.873
▁tip	-11.8732
▁ciudadanos	-11.8736
▁difíciles	-11.8741
lew	-11.8745
▁shine	-11.8749
▁nación	-11.8767
▁stops	-11.8771
▁sangra	-11.8778
▁ends	-11.8781
▁savings	-11.8787
▁decisions	-11.8797
▁jugará	-11.8798
ula	-11.8802
ez	-11.8804
▁aun	-11.8805
▁revisar	-11.8824
ura	-11.8828
▁durar	-11.8829
▁formal	-11.8835
▁faces	-11.8837
ible	-11.8844
▁suicida	-11.8844
ier	-11.885
▁cakes	-11.8902
▁stare	-11.8913
▁mild	-11.892
▁metas	-11.8922
▁jo	-11.8926
▁pare	-11.8931
▁alerta	-11.8932
▁golpear	-11.8934
▁mari	-11.8963
▁contactar	-11.8969
▁baña	-11.8972
nza	-11.8976
tara	-11.8994
▁grano	-11.8997
▁risks	-11.9004
▁term	-11.9006
▁gustar	-11.9007
▁gastar	-11.9022
ine	-11.9026
▁seek	-11.9031
▁pequeñas	-11.904
▁amanecer	-11.9043
▁trampas	-11.9057
▁flirt	-11.9068
sistieron	-11.9077
▁pet	-11.9082
▁laughs	-11.91
▁sabrá	-11.9102
▁economic	-11.9104
▁viejas	-11.9109
▁encontraré	-11.9117
▁boil	-11.9123
minded	-11.9124
▁foods	-11.9132
ezca	-11.9139
▁miracle	-11.9139
▁sabio	-11.914
▁invention	-11.914
put	-11.9142
▁crudo	-11.9142
▁nightmare	-11.9143
▁constant	-11.9144
▁pig	-11.9146
▁hierba	-11.9146
▁tontería	-11.9146
▁block	-11.9148
▁character	-11.9148
▁límite	-11.9148
▁diamante	-11.9149
▁creep	-11.9149
▁principiante	-11.915
▁sincero	-11.9151
▁elephant	-11.9152
▁rueda	-11.9152
▁rana	-11.9153
▁rayo	-11.9154
▁cow	-11.9154
▁deseos	-11.9155
▁competent	-11.9155
▁sorprendidos	-11.9162
▁exams	-11.9163
ze	-11.9169
▁cable	-11.9171
▁ayudarlo	-11.9201
▁chill	-11.9205
tan	-11.9223
▁ho	-11.9224
▁bonitas	-11.9225
pé	-11.9236
oíste	-11.9237
phone	-11.9238
▁leña	-11.9239
house	-11.9239
▁resume	-11.9241
volvió	-11.9243
tomás	-11.9245
sabías	-11.9247
mira	-11.9249
▁cop	-11.925
▁tomaste	-11.9251
▁famosos	-11.9257
▁viajes	-11.9259
ucho	-11.9261
▁cheat	-11.9265
▁influence	-11.927
▁cloth	-11.9271
▁rescue	-11.9272
▁bake	-11.9272
▁respeta	-11.9273
▁mexican	-11.9273
▁develop	-11.9274
▁pianist	-11.9275
▁cuantos	-11.9276
▁fren	-11.9278
▁graduate	-11.9279
▁divertir	-11.928
▁spill	-11.9281
▁dólar	-11.9281
▁cuchara	-11.9283
ice	-11.9283
▁cálida	-11.9284
▁conociste	-11.9285
▁comfort	-11.9286
▁declara	-11.9287
▁acquaint	-11.9287
▁flash	-11.9287
▁aguja	-11.9287
▁alibi	-11.9287
▁awesome	-11.9287
▁carbón	-11.9287
▁castigo	-11.9287
▁chemistry	-11.9287
▁chimenea	-11.9287
▁chocó	-11.9287
▁combustible	-11.9287
▁conmovió	-11.9287
▁económica	-11.9287
▁egypt	-11.9287
▁enemiga	-11.9287
▁engañe	-11.9287
▁fantastic	-11.9287
▁faucet	-11.9287
▁filipino	-11.9287
▁homicidio	-11.9287
▁inténtalo	-11.9287
▁lyrics	-11.9287
▁lámpara	-11.9287
▁motocicleta	-11.9287
▁necklace	-11.9287
▁overslept	-11.9287
▁portátil	-11.9287
▁poverty	-11.9287
▁préstamo	-11.9287
▁pública	-11.9287
▁reliable	-11.9287
▁romántico	-11.9287
▁shampoo	-11.9287
▁surrounded	-11.9287
▁taburete	-11.9287
▁terribly	-11.9287
▁unhealthy	-11.9287
▁veterinario	-11.9287
▁videojuegos	-11.9287
▁wednesday	-11.9287
▁yourselves	-11.9287
▁coach	-11.9287
▁envíe	-11.9287
▁pedimos	-11.9287
▁excepción	-11.9287
▁hirviendo	-11.9287
▁jurado	-11.9287
▁justicia	-11.9287
▁settle	-11.9287
▁smith	-11.9287
▁estricta	-11.9287
▁fifth	-11.9287
▁delegados	-11.9287
▁optimistic	-11.9287
▁skinny	-11.9287
▁militar	-11.9287
▁literatura	-11.9287
▁divirtiendo	-11.9287
▁region	-11.9287
▁competencia	-11.9287
▁property	-11.9287
▁multa	-11.9287
▁traducción	-11.9287
▁temptation	-11.9287
▁cellphone	-11.9287
▁freedom	-11.9287
▁inundación	-11.9287
▁exigi	-11.9287
▁fascinante	-11.9287
▁asombroso	-11.9287
▁nacimiento	-11.9287
▁slipped	-11.9287
▁possibly	-11.9287
▁collection	-11.9287
▁fumo	-11.9287
▁ignorance	-11.9287
▁investigating	-11.9287
▁fascinating	-11.9288
▁ignorancia	-11.9288
▁producción	-11.9288
▁shallow	-11.9288
▁gimnasio	-11.9288
▁amargo	-11.9288
▁figura	-11.9288
▁scarf	-11.9288
▁mandé	-11.9288
▁defectos	-11.9288
ámonos	-11.9288
▁miserable	-11.9288
▁announced	-11.9288
▁estuviese	-11.9288
▁soleado	-11.9288
▁ninety	-11.9288
▁practicando	-11.9288
▁sunset	-11.9288
▁nublado	-11.9288
▁goose	-11.9288
▁máximo	-11.9288
▁mareado	-11.9288
▁ahorrando	-11.9288
▁tasa	-11.9288
▁humanidad	-11.9289
▁ocasiones	-11.9289
▁maid	-11.9289
▁orgullosos	-11.9289
▁bunch	-11.9289
▁cerebro	-11.9289
▁desorientado	-11.9289
▁presupuesto	-11.9289
▁aumentando	-11.9289
▁típico	-11.9289
▁charming	-11.9289
▁embarrassing	-11.9289
▁roommate	-11.9289
▁cuanta	-11.9289
▁apurado	-11.9289
▁shining	-11.9289
▁mantenga	-11.929
▁prometí	-11.929
▁reality	-11.929
▁pardon	-11.929
▁chores	-11.929
▁sixty	-11.929
▁camp	-11.929
▁rama	-11.929
▁charlando	-11.9291
▁leather	-11.9291
▁sufrió	-11.9291
▁relieved	-11.9292
▁shape	-11.9292
▁molestando	-11.9293
▁approached	-11.9293
▁millonario	-11.9293
▁agradecerle	-11.9294
▁compone	-11.9294
▁quejarte	-11.9294
▁conseguiste	-11.9295
▁absurdo	-11.9295
▁confiaba	-11.9296
▁ángeles	-11.9296
▁security	-11.9296
▁recovered	-11.9296
▁diseño	-11.9297
▁clothing	-11.9297
▁empecemos	-11.9297
▁pudiste	-11.9297
▁traído	-11.9297
▁rodeado	-11.9297
▁mueve	-11.9297
▁saldrá	-11.9297
▁dyed	-11.9299
▁pianista	-11.9299
▁entrenador	-11.93
▁cheerful	-11.9302
▁descripción	-11.9303
▁evidente	-11.9303
▁sentarte	-11.9304
▁ranch	-11.9304
▁mientas	-11.9304
▁pensamientos	-11.9304
▁memorizar	-11.9304
▁quint	-11.9304
▁terminamos	-11.9304
▁shooting	-11.9305
▁reírme	-11.9305
▁postponed	-11.9305
▁sigamos	-11.9306
▁stain	-11.9308
▁enterrado	-11.9309
▁pasta	-11.931
▁drawing	-11.9312
▁escuchaste	-11.9312
▁repeated	-11.9313
▁pinch	-11.9314
▁helpful	-11.9315
▁fatal	-11.9317
▁tira	-11.9318
▁mentioned	-11.9319
▁entenderlo	-11.9319
▁longest	-11.9321
▁gustará	-11.9324
▁packed	-11.9324
▁contarle	-11.9325
▁enseñarte	-11.9325
▁crown	-11.9327
▁soñar	-11.9331
▁ajustar	-11.9334
▁fooled	-11.9337
▁opiniones	-11.9338
▁tasted	-11.9342
▁entendió	-11.9342
▁vela	-11.9347
▁direct	-11.9347
▁slapp	-11.9348
▁rumores	-11.9351
▁accent	-11.9351
▁ab	-11.9353
▁data	-11.9356
▁llevado	-11.9358
▁aprovechar	-11.9359
▁citizens	-11.9362
▁welcomed	-11.9364
▁escuchas	-11.9365
▁escuchaba	-11.9365
▁pagará	-11.9369
▁tells	-11.937
gas	-11.9372
▁encontrarlo	-11.9374
▁charle	-11.9379
▁tools	-11.938
▁libres	-11.9381
▁ocurren	-11.9384
▁sobras	-11.939
▁dial	-11.9391
▁mejorando	-11.9402
▁molestes	-11.9403
▁doscient	-11.9406
▁mass	-11.9421
ka	-11.9421
▁chairs	-11.9428
▁prisioneros	-11.9435
▁candles	-11.9435
▁llenos	-11.9444
▁politicians	-11.9446
hablas	-11.9453
▁cultural	-11.9454
▁manten	-11.9465
▁sillas	-11.9472
ned	-11.9475
▁encuentres	-11.9478
▁rodillas	-11.9479
bré	-11.9484
▁cha	-11.9488
▁ages	-11.9498
gi	-11.9524
▁entienden	-11.9538
tura	-11.9539
▁sabíamos	-11.9556
way	-11.9568
▁answering	-11.9581
sistencia	-11.9588
▁arrives	-11.9593
lic	-11.9605
ué	-11.9617
▁vinieras	-11.9624
▁esperá	-11.9629
▁pospone	-11.9632
ric	-11.9661
▁tirar	-11.9669
▁mental	-11.9679
encia	-11.9685
▁interpret	-11.9686
sistió	-11.9689
▁solicit	-11.9719
▁conditions	-11.9721
▁abogados	-11.9722
▁esperes	-11.9727
▁ocult	-11.9728
the	-11.9733
▁blancos	-11.9743
▁supieras	-11.9747
chó	-11.9754
vete	-11.9755
mu	-11.9776
▁agrees	-11.9778
▁li	-11.9779
▁jugu	-11.9783
▁arrojar	-11.9783
▁sir	-11.9787
▁acabe	-11.9806
ea	-11.981
▁asks	-11.9816
▁llamara	-11.982
▁bur	-11.982
▁fa	-11.9832
come	-11.9835
estaba	-11.9845
▁operar	-11.9851
▁visitas	-11.9851
▁negoci	-11.987
▁puestos	-11.9876
▁weigh	-11.9881
▁ku	-11.9891
▁invit	-11.9893
ang	-11.9902
▁plancha	-11.9906
▁temas	-11.9919
▁regresa	-11.9936
▁idiotas	-11.9946
▁ste	-11.9947
▁quedará	-11.9958
▁extend	-11.9958
▁seize	-11.9965
▁volunteer	-11.9966
▁ovni	-11.9973
▁pijama	-11.9973
▁ufo	-11.9973
▁paintings	-11.9974
▁andá	-11.9979
▁archivo	-11.9982
▁blanket	-11.9982
▁siguen	-11.9984
▁gemelo	-11.9987
▁banana	-11.9987
▁araña	-11.9988
▁relative	-11.9988
▁alumno	-11.9988
▁trick	-11.9989
▁tiger	-11.9989
▁pondrá	-11.9992
med	-11.9994
tera	-11.9995
▁sheet	-12.0004
▁consiga	-12.0015
▁ag	-12.0019
▁cambios	-12.002
▁recuerdos	-12.0032
▁alas	-12.0056
▁sa	-12.006
▁blam	-12.0062
▁oscur	-12.0068
employed	-12.0069
▁becomes	-12.0071
llama	-12.0071
sobre	-12.0073
recibi	-12.0074
aún	-12.008
▁industrial	-12.008
▁exit	-12.008
▁image	-12.0082
▁organ	-12.0087
▁montó	-12.0088
▁mudar	-12.0092
▁palm	-12.0092
▁labor	-12.0093
▁bark	-12.0099
▁absurd	-12.01
cio	-12.0105
oh	-12.0105
▁repetir	-12.0106
▁reward	-12.0107
▁surrender	-12.0107
▁pistol	-12.0107
▁accomplish	-12.0108
▁defeat	-12.0108
▁novelist	-12.0109
aña	-12.0109
▁tercer	-12.0109
▁period	-12.0111
▁acudir	-12.0113
▁potato	-12.0114
▁cuadra	-12.0115
▁incredibl	-12.0116
▁recent	-12.0116
▁happie	-12.0117
▁estupenda	-12.0118
▁susurr	-12.0119
▁probado	-12.0119
▁compro	-12.0119
▁marchar	-12.0119
▁rug	-12.012
▁circula	-12.012
▁disneyland	-12.012
▁dirige	-12.0121
▁flame	-12.0121
▁mahjong	-12.0121
▁apuñaló	-12.0121
▁atmosphere	-12.0121
▁atmósfera	-12.0121
▁bastón	-12.0121
▁cadena	-12.0121
▁coartada	-12.0121
▁cueva	-12.0121
▁curiosity	-12.0121
▁eager	-12.0121
▁egipto	-12.0121
▁engañado	-12.0121
▁estufa	-12.0121
▁febrero	-12.0121
▁february	-12.0121
▁generous	-12.0121
▁hagámoslo	-12.0121
▁huelga	-12.0121
▁indispensable	-12.0121
▁invisible	-12.0121
▁jersey	-12.0121
▁juramento	-12.0121
▁koala	-12.0121
▁maletero	-12.0121
▁muralla	-12.0121
▁obtuve	-12.0121
▁olvidadizo	-12.0121
▁outdoors	-12.0121
▁pacífico	-12.0121
▁perfume	-12.0121
▁plastic	-12.0121
▁pésima	-12.0121
▁resemblance	-12.0121
▁sacerdote	-12.0121
▁scheme	-12.0121
▁semáforo	-12.0121
▁skating	-12.0121
▁solving	-12.0121
▁stiff	-12.0121
▁sucediendo	-12.0121
▁suspicion	-12.0121
▁sweep	-12.0121
▁twitter	-12.0121
▁uncomfortable	-12.0121
▁victoria	-12.0121
▁vodka	-12.0121
▁voleibol	-12.0121
▁colección	-12.0121
▁helmet	-12.0121
▁pledge	-12.0121
▁raqueta	-12.0121
▁construction	-12.0121
▁risa	-12.0121
▁enojó	-12.0121
▁noventa	-12.0121
▁surgery	-12.0121
▁textbook	-12.0121
▁apropiado	-12.0121
▁oath	-12.0121
▁spoon	-12.0121
▁ésos	-12.0121
▁despegó	-12.0121
▁hurried	-12.0121
▁siglo	-12.0121
▁essay	-12.0121
▁forzado	-12.0121
▁pollera	-12.0121
▁registradora	-12.0121
▁región	-12.0121
▁steak	-12.0121
▁asistente	-12.0121
▁assistance	-12.0121
▁perdida	-12.0121
▁teresa	-12.0121
rubbed	-12.0121
▁creciendo	-12.0121
▁viniendo	-12.0121
▁kong	-12.0121
▁tries	-12.0121
▁queráis	-12.0121
▁empeorar	-12.0121
▁detallada	-12.0121
▁condujera	-12.0121
▁production	-12.0121
▁chef	-12.0121
▁prometiste	-12.0121
▁aggressive	-12.0121
▁comenzando	-12.0121
▁presentimiento	-12.0121
▁jarra	-12.0121
▁serbia	-12.0121
▁marzo	-12.0121
▁modales	-12.0121
▁pobreza	-12.0121
▁downtown	-12.0122
▁gané	-12.0122
▁lloraba	-12.0122
▁latín	-12.0122
▁concentrarme	-12.0122
▁talkative	-12.0122
▁hunter	-12.0122
▁relajado	-12.0122
▁kidnapped	-12.0122
▁harp	-12.0122
▁sentimos	-12.0122
▁tolerate	-12.0122
▁severo	-12.0123
▁retrasado	-12.0123
▁tardará	-12.0123
▁contrató	-12.0123
▁secretaria	-12.0123
▁miércoles	-12.0123
▁dawn	-12.0123
▁petición	-12.0123
▁retiró	-12.0123
▁previsto	-12.0123
▁postura	-12.0123
▁ceremonia	-12.0124
▁defender	-12.0124
▁aventura	-12.0124
▁asustada	-12.0124
▁pride	-12.0124
▁plead	-12.0124
▁fried	-12.0125
▁solid	-12.0125
▁cuán	-12.0125
▁fumando	-12.0125
▁guide	-12.0125
▁conciencia	-12.0127
▁sword	-12.0127
▁agradecerte	-12.0127
▁theft	-12.0127
▁horno	-12.0128
▁incredible	-12.0128
▁frontera	-12.013
▁lastimado	-12.013
▁crió	-12.013
▁besando	-12.013
▁rancho	-12.0131
▁función	-12.0132
▁rollo	-12.0132
▁remote	-12.0133
gging	-12.0133
▁congratulated	-12.0133
▁apuntes	-12.0134
▁jar	-12.0135
▁sándwiches	-12.0135
▁defeated	-12.0136
▁correctamente	-12.0136
▁servirá	-12.0136
▁anytime	-12.0137
▁especialmente	-12.0137
▁collected	-12.0138
▁trash	-12.0139
▁install	-12.0139
▁resigned	-12.014
▁prayed	-12.014
donald	-12.014
▁frozen	-12.014
▁compramos	-12.014
▁importaba	-12.0141
▁sufre	-12.0142
▁cogieron	-12.0143
▁repairing	-12.0144
▁retirar	-12.0144
▁lavarse	-12.0145
▁buscas	-12.0145
▁pala	-12.0145
▁practicar	-12.0146
▁interrupted	-12.0146
▁planeado	-12.0147
omic	-12.0148
▁contenta	-12.0149
▁preguntaré	-12.0149
▁intentaré	-12.015
▁levantarte	-12.015
▁expenses	-12.0153
▁advanced	-12.0153
▁alike	-12.0155
▁llegaremos	-12.0157
▁oírlo	-12.0158
▁trabaje	-12.0158
▁pensarlo	-12.016
▁flea	-12.0161
▁remove	-12.0161
▁knocking	-12.0162
▁cure	-12.0162
▁hamburguesas	-12.0162
▁vendedor	-12.0165
▁cruza	-12.0166
▁waiter	-12.0167
▁salía	-12.0168
▁ayudaros	-12.0168
▁compraría	-12.0169
▁landed	-12.017
▁helpless	-12.017
▁matarme	-12.017
▁corona	-12.0175
▁dormía	-12.0177
▁cantaba	-12.0177
▁huérfano	-12.0178
▁ponerlo	-12.0181
▁pronuncia	-12.0182
▁entendía	-12.0184
▁observar	-12.0184
▁arrancar	-12.0184
▁consideran	-12.0185
▁británicos	-12.0186
▁x	-12.0188
▁estaciones	-12.0192
▁sung	-12.0194
▁reconocer	-12.0194
▁litera	-12.0195
▁preguntado	-12.0196
▁robot	-12.0196
▁manej	-12.0197
▁estampillas	-12.0198
▁counting	-12.0198
▁handy	-12.0201
▁verás	-12.0202
▁dresses	-12.0203
dded	-12.0203
▁agradec	-12.0208
▁cal	-12.0209
▁hablara	-12.0209
▁aboard	-12.0211
▁recuperar	-12.0214
▁wan	-12.0216
▁rep	-12.0218
▁bal	-12.0218
▁boxes	-12.0222
▁cometí	-12.0222
▁plátanos	-12.0222
▁escuches	-12.0222
▁mislead	-12.0226
tic	-12.0228
▁mud	-12.0228
▁abandona	-12.0233
▁ballenas	-12.0234
▁crecer	-12.0235
▁consiste	-12.0238
▁probó	-12.0242
▁armed	-12.0244
▁skills	-12.0247
ul	-12.0255
▁cops	-12.0265
per	-12.0266
▁elephants	-12.027
▁ruedas	-12.027
▁mor	-12.0274
▁funcione	-12.0279
▁elefantes	-12.0282
▁comments	-12.0282
▁rested	-12.0284
▁pace	-12.029
▁pedazos	-12.0294
tions	-12.0305
▁cheques	-12.0306
▁relate	-12.0307
▁vivi	-12.0312
rán	-12.0315
▁curtains	-12.0318
▁bitte	-12.0327
▁sucios	-12.033
▁acto	-12.0338
vos	-12.0341
▁forgiven	-12.0344
▁criad	-12.0345
▁enfrentar	-12.0359
▁official	-12.0362
▁confund	-12.0369
▁adaptar	-12.0373
▁antiguas	-12.0378
▁discuta	-12.0389
▁tristes	-12.0393
▁tocado	-12.0395
▁aumenta	-12.0395
▁caras	-12.0398
▁inso	-12.0399
▁hambrientos	-12.0415
▁tiendas	-12.0419
▁tard	-12.0422
▁antiguos	-12.0427
▁persuadir	-12.0431
cking	-12.0438
▁heridas	-12.0439
alo	-12.0447
▁cases	-12.0463
▁numbers	-12.0464
▁burns	-12.0464
signed	-12.0465
ary	-12.0466
▁walls	-12.0475
▁pesos	-12.0477
▁ciertas	-12.0512
▁abuelos	-12.0524
▁lawyers	-12.0524
▁contiene	-12.0528
▁wasted	-12.0538
▁acusar	-12.0546
selo	-12.0547
▁riesgos	-12.0556
▁confirm	-12.0557
▁cajas	-12.0557
▁sides	-12.056
tas	-12.056
▁atrapados	-12.0562
▁informar	-12.0562
ered	-12.0567
▁arrastr	-12.0577
▁pat	-12.0585
▁horne	-12.0591
▁aguanta	-12.0622
▁habits	-12.0623
▁rumors	-12.0633
▁bu	-12.0647
ter	-12.0654
▁faltan	-12.0657
▁leía	-12.0661
▁bonitos	-12.0672
▁mix	-12.0675
0,000	-12.0675
▁desperdicia	-12.0677
▁queríamos	-12.068
▁bags	-12.0703
▁mayo	-12.0703
▁nativos	-12.071
▁convenc	-12.0713
▁exception	-12.0736
▁saluda	-12.0737
▁pega	-12.074
▁andaba	-12.0751
▁desprecia	-12.0759
▁arregla	-12.0762
▁suits	-12.0763
▁vení	-12.0764
for	-12.0768
▁chinos	-12.0773
▁spa	-12.0781
▁pu	-12.0783
▁needle	-12.0788
▁rem	-12.0789
▁mereces	-12.0791
via	-12.08
▁aplica	-12.0802
▁espaldas	-12.0809
▁estudios	-12.0822
▁th	-12.0825
▁explic	-12.084
▁causar	-12.0842
▁juegas	-12.0843
▁admira	-12.0859
▁explica	-12.086
▁clave	-12.0862
▁comprara	-12.0865
▁compensa	-12.0868
ssed	-12.0869
▁retire	-12.0871
▁fac	-12.0873
▁buildings	-12.0874
▁skill	-12.0876
▁económico	-12.0882
▁eléctrico	-12.0882
▁gatito	-12.0882
▁encendida	-12.0882
▁conociera	-12.0886
▁topic	-12.0887
▁bump	-12.0888
▁levante	-12.0889
▁distinta	-12.089
▁kite	-12.089
▁slice	-12.089
▁lemon	-12.0892
▁entienda	-12.0892
▁granjero	-12.0892
▁desconocido	-12.0893
▁truco	-12.0893
▁antique	-12.0894
▁tigre	-12.0895
▁turista	-12.0901
ally	-12.0904
▁grado	-12.091
▁lines	-12.0921
▁divid	-12.0922
▁fina	-12.0924
▁escase	-12.0928
▁bills	-12.0935
▁moleste	-12.0937
▁déje	-12.0941
▁decí	-12.0946
▁vigila	-12.0949
▁secreta	-12.0966
sabéis	-12.0975
ayer	-12.0981
compraste	-12.0981
mañana	-12.0981
aquí	-12.0986
nna	-12.0989
ship	-12.0989
▁ancho	-12.099
▁registr	-12.0992
0,	-12.0994
▁sub	-12.0996
▁podr	-12.0996
▁enamorados	-12.0998
ándole	-12.1004
fully	-12.1009
▁yell	-12.1009
▁ol	-12.1013
▁deliver	-12.1013
▁squeak	-12.1015
▁llovi	-12.1016
▁punish	-12.1017
▁destroy	-12.1017
▁crawl	-12.1019
▁basta	-12.1022
▁bore	-12.1024
▁ligera	-12.1027
▁engaño	-12.1027
▁inmediata	-12.1027
▁reciente	-12.1027
▁aparenta	-12.1029
▁orgullo	-12.1029
▁depart	-12.103
▁thai	-12.103
caño	-12.103
▁acknowledge	-12.103
▁almuerza	-12.103
▁appropriate	-12.103
▁awoke	-12.103
▁bathtub	-12.103
▁blouse	-12.103
▁blusa	-12.103
▁bufanda	-12.103
▁chalk	-12.103
▁cordones	-12.103
▁cómete	-12.103
▁destiny	-12.103
▁diablo	-12.103
▁dieciséis	-12.103
▁divertimos	-12.103
▁dáselo	-12.103
▁estricto	-12.103
▁estropeado	-12.103
▁estupidez	-12.103
▁fellow	-12.103
▁financiera	-12.103
▁fluidamente	-12.103
▁graduó	-12.103
▁greece	-12.103
▁imágenes	-12.103
▁insecure	-12.103
▁intenciones	-12.103
▁link	-12.103
▁literature	-12.103
▁locura	-12.103
▁lío	-12.103
▁lógica	-12.103
▁marrón	-12.103
▁maíz	-12.103
▁movió	-12.103
▁muéstre	-12.103
▁perezoso	-12.103
▁positive	-12.103
▁puerto	-12.103
▁revenge	-12.103
▁revolution	-12.103
▁ritmo	-12.103
▁récord	-12.103
▁sanguíneo	-12.103
▁scotland	-12.103
▁shoelaces	-12.103
▁spaghetti	-12.103
▁starving	-12.103
▁sueltes	-12.103
▁tattoo	-12.103
▁telefónico	-12.103
▁traitor	-12.103
▁trousers	-12.103
▁tunnel	-12.103
▁término	-12.103
▁undressing	-12.103
▁unpleasant	-12.103
▁victory	-12.103
▁worries	-12.103
▁ópera	-12.103
▁berlin	-12.103
▁arabic	-12.103
▁escocia	-12.103
▁jerk	-12.103
▁traidor	-12.103
▁valentin	-12.103
▁atractivo	-12.103
▁morder	-12.103
▁pausa	-12.103
▁propiedad	-12.103
▁prevenir	-12.103
▁battery	-12.103
▁performance	-12.103
▁temple	-12.103
▁zumo	-12.103
▁expresión	-12.103
▁agenda	-12.103
▁zero	-12.103
▁sonrieron	-12.103
▁aliviado	-12.103
▁necessity	-12.103
▁pecho	-12.103
▁túnel	-12.103
▁bañera	-12.103
▁cabaña	-12.103
▁grecia	-12.103
▁comiera	-12.103
▁sorprendida	-12.103
▁construyeron	-12.103
▁supiste	-12.103
▁swimmer	-12.103
▁descubrí	-12.103
▁canasta	-12.103
▁creature	-12.103
▁rompí	-12.103
▁encontraba	-12.103
▁aviso	-12.103
▁reconozco	-12.103
▁fluido	-12.103
▁tropical	-12.103
▁déjanos	-12.103
▁generation	-12.103
▁complicada	-12.103
▁scarce	-12.103
▁whispered	-12.103
▁genuine	-12.103
▁housework	-12.103
▁cavando	-12.103
▁dining	-12.103
▁deportivo	-12.103
▁backyard	-12.103
▁florero	-12.1031
▁pearl	-12.1031
▁numerosa	-12.1031
▁freezing	-12.1031
▁poderoso	-12.1031
▁ministro	-12.1031
▁descuento	-12.1031
▁respiración	-12.1031
▁relajarme	-12.1031
▁pura	-12.1031
▁confiado	-12.1031
▁inherit	-12.1032
▁atropellado	-12.1032
▁soltó	-12.1032
▁ladrando	-12.1032
▁exploded	-12.1032
▁panic	-12.1032
▁aplaudió	-12.1032
▁baking	-12.1032
▁sentarnos	-12.1032
▁impresionante	-12.1032
▁pantalla	-12.1032
▁vidrio	-12.1032
▁texas	-12.1032
▁arriesgado	-12.1032
▁despidieron	-12.1032
▁effective	-12.1032
▁joyas	-12.1032
▁invest	-12.1033
▁disculparme	-12.1033
▁rendirse	-12.1033
▁divirtió	-12.1033
▁proposed	-12.1033
▁arranged	-12.1033
▁impos	-12.1034
▁pronunciar	-12.1034
▁nacier	-12.1034
▁wow	-12.1034
▁háblame	-12.1034
▁bajé	-12.1035
▁parezca	-12.1035
▁conditioner	-12.1035
▁directly	-12.1035
▁aceptable	-12.1035
▁atajo	-12.1035
▁checks	-12.1036
▁personaje	-12.1036
▁declaración	-12.1037
▁careless	-12.1038
▁volviste	-12.1038
▁justice	-12.1038
▁praised	-12.1038
▁severe	-12.1039
▁chased	-12.1039
▁regularly	-12.104
▁trade	-12.104
▁discutimos	-12.1041
▁trace	-12.1041
▁realizó	-12.1042
▁contenido	-12.1042
▁acostarme	-12.1042
▁saldr	-12.1043
▁cancelado	-12.1043
▁aprendemos	-12.1043
▁volunteered	-12.1044
▁waved	-12.1044
▁entrado	-12.1044
▁novelista	-12.1044
▁póngase	-12.1044
▁situa	-12.1045
▁click	-12.1045
▁nave	-12.1046
▁section	-12.1047
▁yelled	-12.1047
▁distracted	-12.1047
▁windy	-12.1048
▁settled	-12.1048
van	-12.1049
▁folded	-12.105
▁circunstancias	-12.105
▁jewels	-12.105
▁kilograms	-12.105
▁suministros	-12.105
▁coughing	-12.105
▁mango	-12.1051
▁traduce	-12.1052
▁matches	-12.1052
▁boiled	-12.1052
▁decorate	-12.1053
▁fortunate	-12.1054
▁brilla	-12.1054
▁quemé	-12.1055
▁ordené	-12.1055
▁relacion	-12.1056
▁polish	-12.1056
▁jumping	-12.1056
▁sinking	-12.1056
▁insultó	-12.106
▁aclarar	-12.106
▁marco	-12.1061
▁borrachos	-12.1062
▁pounds	-12.1063
▁fritas	-12.1063
▁dejando	-12.1064
▁besara	-12.1065
▁fold	-12.1066
▁ruidosa	-12.1068
▁posiblemente	-12.107
▁consequences	-12.1076
▁leftovers	-12.1076
▁resfriar	-12.1077
▁coca	-12.1079
▁ratas	-12.108
▁safely	-12.108
▁puertas	-12.1081
▁escucharlo	-12.1083
▁estante	-12.1087
▁palma	-12.1088
▁pastillas	-12.1089
done	-12.109
pon	-12.109
▁celebra	-12.109
▁aid	-12.1093
fe	-12.1096
▁lightly	-12.11
▁postal	-12.1101
▁oíste	-12.1102
▁sudor	-12.1102
▁shortly	-12.1103
▁vegetarianos	-12.1103
▁planeaba	-12.1106
▁cuidará	-12.1108
▁matarte	-12.111
▁pluck	-12.111
▁brakes	-12.1115
▁subí	-12.1118
▁finales	-12.1121
▁bee	-12.1122
▁stirr	-12.1126
▁falló	-12.1129
▁sab	-12.1132
▁unido	-12.1134
▁shed	-12.1135
▁veremos	-12.1136
▁colgar	-12.1138
▁pron	-12.1141
▁asco	-12.1142
▁protesta	-12.1143
cel	-12.1152
▁mina	-12.1153
▁spiders	-12.1154
▁teenagers	-12.1154
▁vegetarians	-12.1155
▁manténga	-12.1161
▁sentences	-12.1163
▁include	-12.1168
▁confi	-12.1178
▁shows	-12.1178
▁empezará	-12.1179
▁tricks	-12.118
▁notes	-12.1181
ors	-12.1181
▁seco	-12.1182
▁llevarlo	-12.119
▁sincere	-12.1196
▁apesta	-12.1201
▁messages	-12.1202
▁pacientes	-12.1203
▁constante	-12.1203
▁honesta	-12.1205
▁cepillar	-12.1215
▁liberar	-12.1216
telo	-12.122
▁leads	-12.123
▁pot	-12.123
yeron	-12.1235
▁arañas	-12.1236
▁felicit	-12.1242
▁customs	-12.1247
▁rats	-12.1258
▁hazme	-12.126
▁ignora	-12.1268
aga	-12.1274
▁fingí	-12.1275
ju	-12.1276
▁dejase	-12.128
▁provoc	-12.128
▁médicos	-12.1283
▁ge	-12.1283
ador	-12.1287
▁cherr	-12.1288
▁celebrar	-12.1289
▁damas	-12.129
ui	-12.131
▁casamos	-12.1323
▁inusual	-12.1325
▁ponen	-12.1328
ki	-12.1335
▁doctores	-12.1338
spite	-12.1353
▁pills	-12.1353
▁lessons	-12.1353
▁temor	-12.1374
▁hábitos	-12.138
▁mist	-12.1381
arle	-12.1381
▁meetings	-12.1391
▁ladrar	-12.1401
▁volvía	-12.1405
can	-12.1414
▁phoned	-12.1418
ísima	-12.1421
▁canto	-12.1425
sigues	-12.1432
▁diseases	-12.1434
▁deberá	-12.1439
▁criar	-12.1441
ika	-12.1447
▁hombros	-12.1448
▁grita	-12.1451
▁corr	-12.1451
rg	-12.1463
▁complains	-12.1466
▁interfere	-12.1468
▁abras	-12.1473
▁alert	-12.1475
▁comprendi	-12.1484
▁equivoca	-12.149
▁basa	-12.1494
aking	-12.1499
▁terremotos	-12.1515
▁lograr	-12.1536
tivo	-12.1553
▁bas	-12.1553
▁vendrás	-12.1555
▁earthquakes	-12.1556
▁interfer	-12.1561
▁acompañ	-12.1564
zed	-12.1568
▁sl	-12.1569
ak	-12.157
▁corn	-12.1579
▁soltar	-12.1588
▁desat	-12.1604
▁dejará	-12.1604
dad	-12.1621
▁resolv	-12.1634
▁políticas	-12.1638
▁hipo	-12.1669
▁crea	-12.1671
▁pagan	-12.1674
▁groups	-12.1679
cen	-12.1682
▁1,000	-12.1702
▁incluye	-12.1702
berg	-12.1706
▁satisfechos	-12.1706
▁soñado	-12.1717
▁bolígrafos	-12.172
▁verdaderos	-12.172
▁revisa	-12.1722
▁cortas	-12.1723
cimiento	-12.1733
▁entrega	-12.1734
▁bon	-12.1738
rry	-12.1744
debido	-12.1752
quis	-12.1761
▁enfada	-12.1764
▁breaks	-12.1771
▁junta	-12.1798
illas	-12.18
cree	-12.1808
▁quedas	-12.1815
▁grupos	-12.1817
▁esperanzas	-12.183
stó	-12.1836
ense	-12.1839
cas	-12.1843
▁produ	-12.1844
▁pinturas	-12.1844
▁cru	-12.1847
▁fracasar	-12.1855
▁wrap	-12.1864
▁unió	-12.1866
cal	-12.1867
ches	-12.1868
▁bra	-12.1869
iéramos	-12.1872
▁dig	-12.1873
▁flecha	-12.1882
▁vegetarian	-12.1883
▁ensayo	-12.1885
▁navideña	-12.1886
▁score	-12.1886
▁vitamin	-12.1886
day	-12.1886
▁effect	-12.1888
▁oveja	-12.1888
▁camello	-12.1891
▁víctima	-12.1891
▁monkey	-12.1892
▁beginner	-12.1893
▁separado	-12.1893
▁spider	-12.1894
▁teenager	-12.1894
▁ballena	-12.1894
▁engineer	-12.1894
▁adolescente	-12.1895
preferirías	-12.1901
▁limit	-12.1903
▁zapato	-12.1904
▁vitamina	-12.1905
▁sobra	-12.1909
▁captur	-12.191
▁warning	-12.1913
▁sana	-12.1921
▁horn	-12.1929
▁rebel	-12.1929
ster	-12.1934
▁aterriz	-12.1936
▁bloque	-12.1942
▁industria	-12.1946
nged	-12.1947
tled	-12.1947
zing	-12.1948
tendrás	-12.1951
sion	-12.1962
entendiste	-12.1974
encontraste	-12.1981
cerró	-12.1981
nunca	-12.1982
siempre	-12.1982
quisiera	-12.1982
thank	-12.1982
quiero	-12.1982
▁largos	-12.1984
▁empujó	-12.1985
dijo	-12.1989
▁hablarte	-12.1993
▁verlos	-12.1994
ció	-12.1999
pressed	-12.1999
▁driven	-12.2001
land	-12.2004
▁marte	-12.2004
itas	-12.2004
▁mc	-12.2007
▁guarantee	-12.2013
▁identif	-12.2014
▁shave	-12.2014
▁congratulate	-12.2014
▁dye	-12.2014
▁fro	-12.2016
▁chain	-12.2017
▁reserve	-12.2017
▁focus	-12.2017
▁reveal	-12.2017
stico	-12.2017
▁discover	-12.2017
▁jugado	-12.202
▁rechazar	-12.202
▁ascenso	-12.2021
ártelo	-12.2022
▁nacional	-12.2022
▁assemble	-12.2022
▁superfici	-12.2023
▁app	-12.2023
▁unfortunate	-12.2025
▁hábil	-12.2027
▁tímida	-12.2027
▁measure	-12.2028
▁compose	-12.2028
▁spy	-12.2029
▁natal	-12.2029
▁indulge	-12.2029
▁occur	-12.2029
▁minister	-12.203
ustria	-12.203
▁acumul	-12.203
▁aficionado	-12.203
▁agresivo	-12.203
▁alivio	-12.203
▁almacén	-12.203
▁architect	-12.203
▁argentina	-12.203
▁arquitecto	-12.203
▁aviones	-12.203
▁barefoot	-12.203
▁blog	-12.203
▁bloom	-12.203
▁brazilian	-12.203
▁buzón	-12.203
▁cariño	-12.203
▁castaño	-12.203
▁catholic	-12.203
▁century	-12.203
▁ceremony	-12.203
▁champion	-12.203
▁chemical	-12.203
▁chopin	-12.203
▁cicatriz	-12.203
▁closing	-12.203
▁columbus	-12.203
▁commercial	-12.203
▁conocida	-12.203
▁curioso	-12.203
▁darwin	-12.203
▁declared	-12.203
▁desafortunado	-12.203
▁desafío	-12.203
▁dismissed	-12.203
▁disney	-12.203
▁encienda	-12.203
▁engagement	-12.203
▁envidia	-12.203
▁envidio	-12.203
▁estacionamiento	-12.203
▁etiqueta	-12.203
▁female	-12.203
▁filosofía	-12.203
▁fotógrafo	-12.203
▁gambling	-12.203
▁globo	-12.203
▁grandparents	-12.203
▁hangover	-12.203
▁hurricane	-12.203
▁improving	-12.203
▁inteligencia	-12.203
▁interview	-12.203
▁kanji	-12.203
▁laguna	-12.203
▁laundry	-12.203
▁magnífica	-12.203
▁malgaste	-12.203
▁mischievous	-12.203
▁monroe	-12.203
▁niñito	-12.203
▁november	-12.203
▁okinawa	-12.203
▁omelet	-12.203
▁opponent	-12.203
▁overcoat	-12.203
▁oysters	-12.203
▁pacific	-12.203
▁physical	-12.203
▁plástico	-12.203
▁rastro	-12.203
▁refund	-12.203
▁reproductor	-12.203
▁resaca	-12.203
▁response	-12.203
▁sapporo	-12.203
▁shinjuku	-12.203
▁splash	-12.203
▁thunder	-12.203
▁tractor	-12.203
▁translator	-12.203
▁travieso	-12.203
▁unmarried	-12.203
▁whining	-12.203
▁zealand	-12.203
▁zelanda	-12.203
▁alternative	-12.203
▁napole	-12.203
▁niego	-12.203
▁shade	-12.203
▁smooth	-12.203
▁august	-12.203
▁broad	-12.203
▁escríbeme	-12.203
▁paranoico	-12.203
▁promoted	-12.203
▁revolución	-12.203
▁contagious	-12.203
▁hágame	-12.203
▁plazo	-12.203
▁camarero	-12.203
▁entrevista	-12.203
▁fluidez	-12.203
▁identical	-12.203
▁identidad	-12.203
▁patético	-12.203
▁receta	-12.203
▁templo	-12.203
▁abriera	-12.203
▁excursión	-12.203
▁paranoid	-12.203
▁plaza	-12.203
▁admission	-12.203
▁claridad	-12.203
▁trial	-12.203
▁agrado	-12.203
▁biwa	-12.203
▁recipe	-12.203
▁equipment	-12.203
▁slavery	-12.203
babies	-12.203
▁gorra	-12.203
▁grandpa	-12.203
▁colón	-12.203
▁fax	-12.203
▁mailbox	-12.203
▁western	-12.203
▁asocia	-12.203
▁entendieron	-12.203
▁mentirosa	-12.203
▁malgasta	-12.203
▁rabia	-12.203
▁software	-12.203
▁defendant	-12.203
▁espada	-12.203
▁combine	-12.203
▁espía	-12.203
▁pruébate	-12.203
▁relief	-12.203
▁sympathy	-12.203
▁merezco	-12.203
▁nevada	-12.203
▁engordado	-12.203
▁liberty	-12.203
▁sintieron	-12.203
▁sufriendo	-12.203
▁flush	-12.203
▁fascinated	-12.203
▁mask	-12.203
▁tumor	-12.203
▁huir	-12.203
▁majority	-12.203
▁sediento	-12.203
▁billion	-12.203
▁expression	-12.203
▁simply	-12.203
▁surgeon	-12.203
▁cocinera	-12.203
▁factura	-12.203
▁pub	-12.203
▁campus	-12.203
▁diploma	-12.203
▁ladies	-12.203
▁siéntese	-12.203
▁crew	-12.203
▁estudie	-12.203
▁baje	-12.203
▁shovel	-12.203
▁sentencia	-12.203
▁onions	-12.203
▁venture	-12.2031
▁obligación	-12.2031
▁humiliated	-12.2031
▁venganza	-12.2031
▁sostenía	-12.2031
▁reluctantly	-12.2031
▁chatting	-12.2031
▁existencia	-12.2031
▁curry	-12.2031
▁accidentally	-12.2031
▁marina	-12.2031
▁applauded	-12.2032
▁sentémonos	-12.2032
▁eché	-12.2032
▁turquía	-12.2032
▁terrified	-12.2032
▁observó	-12.2032
▁adquir	-12.2032
▁sobrevivieron	-12.2032
▁balloon	-12.2032
▁tirado	-12.2032
▁photographer	-12.2033
▁ilusión	-12.2033
▁apresúrate	-12.2033
▁sixteen	-12.2033
▁grites	-12.2033
▁symbol	-12.2033
▁chest	-12.2033
▁portuguese	-12.2033
▁asustó	-12.2033
▁discovery	-12.2033
▁roy	-12.2033
▁pico	-12.2034
▁ordenada	-12.2034
▁observe	-12.2034
▁hook	-12.2034
▁wandered	-12.2034
▁tomatoes	-12.2034
▁perdonado	-12.2035
▁severely	-12.2035
▁gallo	-12.2035
▁cuidadosa	-12.2035
▁preguntes	-12.2035
▁mudarse	-12.2035
▁pegado	-12.2035
▁approaching	-12.2036
▁nevará	-12.2036
▁apoya	-12.2036
▁connected	-12.2036
▁suavemente	-12.2036
▁entusiasmado	-12.2036
▁olla	-12.2036
▁sintiendo	-12.2037
▁familiarizado	-12.2037
▁ocurrirá	-12.2037
▁giró	-12.2037
▁impacto	-12.2037
▁pintando	-12.2038
▁tortured	-12.2038
▁animó	-12.2038
▁turtles	-12.2038
▁muerde	-12.2038
▁niega	-12.2038
▁tiza	-12.2038
▁occupied	-12.2039
▁invitaste	-12.2039
▁muchísima	-12.2039
▁offended	-12.204
▁recado	-12.204
▁sentate	-12.204
▁gano	-12.2041
▁contributed	-12.2041
▁yelling	-12.2041
▁atravesar	-12.2041
▁quejar	-12.2042
▁carrots	-12.2042
▁struggled	-12.2042
▁revealed	-12.2042
▁traditional	-12.2042
▁habilidades	-12.2043
▁leyera	-12.2043
▁angeles	-12.2043
▁utter	-12.2043
▁chewing	-12.2044
▁fracasó	-12.2044
▁adventure	-12.2045
▁guardado	-12.2045
▁escaparon	-12.2045
▁shaved	-12.2045
▁negotiate	-12.2045
▁created	-12.2046
▁molestarte	-12.2046
▁despedirme	-12.2046
▁slightly	-12.2046
▁hopeless	-12.2047
▁señales	-12.2047
▁worker	-12.2047
▁risky	-12.2048
▁pidiera	-12.2048
▁demora	-12.2048
▁lastimarte	-12.2048
▁tightly	-12.2049
▁rellenar	-12.2049
▁cenó	-12.2051
▁dí	-12.2051
▁tortugas	-12.2052
▁zanahorias	-12.2052
▁jesus	-12.2052
▁acordarme	-12.2053
ham	-12.2054
▁interrupting	-12.2055
▁portón	-12.2055
▁rompa	-12.2055
▁hesitated	-12.2055
▁registro	-12.2055
▁explicaré	-12.2059
▁útiles	-12.2061
▁preguntarme	-12.2063
▁comparte	-12.2065
▁parks	-12.2066
▁acerques	-12.2066
▁necesité	-12.2067
▁desmayar	-12.2067
▁considerada	-12.2067
▁culparte	-12.2068
▁ruinas	-12.2069
▁tank	-12.207
▁acceptable	-12.207
▁theirs	-12.2072
▁ordenadores	-12.2072
▁correctly	-12.2074
▁prender	-12.2077
▁atrev	-12.2077
▁abrazar	-12.2079
▁agente	-12.2079
▁pino	-12.208
▁arrestó	-12.2085
▁dilo	-12.2085
▁georg	-12.2086
▁lleguemos	-12.2086
▁completed	-12.2091
▁cantado	-12.2095
▁frutos	-12.2095
▁capa	-12.2097
▁fuertemente	-12.2098
▁reca	-12.2099
▁corría	-12.2102
▁corredor	-12.2102
▁huesos	-12.211
▁mejorado	-12.2111
▁arruinar	-12.2111
▁frenos	-12.2113
▁respected	-12.2115
rain	-12.2118
▁huellas	-12.2124
▁remarks	-12.2125
▁ignor	-12.2125
▁uniforms	-12.2126
▁mueren	-12.2127
▁nicer	-12.2128
▁encantaba	-12.2133
▁delete	-12.2135
▁discute	-12.2138
▁apuros	-12.2139
▁pizzas	-12.2139
uela	-12.2148
▁hablaste	-12.2149
rk	-12.2152
▁insulto	-12.2152
▁affairs	-12.2154
▁pensás	-12.2155
▁acuest	-12.2157
▁laws	-12.2158
▁doors	-12.2164
▁separados	-12.2168
▁beginners	-12.2168
▁smiles	-12.217
▁contentos	-12.217
▁owed	-12.2174
▁coman	-12.2176
▁nota	-12.2178
▁equivocas	-12.2179
▁manga	-12.2193
ger	-12.2195
▁amamos	-12.2197
▁robots	-12.2198
▁quedarás	-12.2202
▁relatives	-12.2204
▁esperen	-12.2204
▁aguarda	-12.2212
▁rayos	-12.2212
ant	-12.2215
rió	-12.2216
ncé	-12.2218
are	-12.2227
▁telephoned	-12.2234
▁cambies	-12.2241
▁conozcas	-12.2242
▁adopta	-12.2242
▁duermen	-12.225
▁visito	-12.2257
▁drain	-12.226
▁esperad	-12.2264
▁transfer	-12.2265
tica	-12.2272
▁sneeze	-12.2273
▁traslad	-12.2283
▁twist	-12.2284
▁divorciar	-12.2284
▁policías	-12.2284
ie	-12.2286
▁imagina	-12.2297
▁opinions	-12.2297
adora	-12.2304
▁pedía	-12.2308
▁ways	-12.2309
▁deudas	-12.2316
▁mejillas	-12.2316
ments	-12.2331
shed	-12.2334
▁pararon	-12.234
▁directions	-12.2345
▁escalado	-12.2359
wa	-12.2364
ring	-12.237
▁cheeks	-12.2375
▁empeora	-12.2376
▁hablaron	-12.238
▁guarde	-12.2382
▁oculta	-12.2389
▁cerdos	-12.239
▁rec	-12.2394
▁taxis	-12.2406
▁sow	-12.2418
▁funcionan	-12.2423
▁oídos	-12.2427
▁du	-12.2469
▁estúpidos	-12.2469
▁billetes	-12.2479
▁verse	-12.2485
arlo	-12.2492
▁rat	-12.2508
▁servicios	-12.251
▁ventas	-12.251
▁tomate	-12.2514
▁event	-12.2521
▁celebr	-12.2521
▁encogió	-12.2538
▁derrota	-12.2542
▁entren	-12.2545
ándolo	-12.2553
▁objetivos	-12.2555
▁absorb	-12.2556
▁loses	-12.2557
▁reforma	-12.2559
▁curar	-12.2563
ponlo	-12.2576
▁vacías	-12.2585
▁shirts	-12.2586
▁cer	-12.2592
▁oscurecie	-12.2595
▁pel	-12.2615
▁conserva	-12.2619
▁exprimi	-12.2626
▁aprenda	-12.263
▁conduces	-12.263
▁acts	-12.2637
▁sweets	-12.2644
▁dividi	-12.2645
▁stifle	-12.2656
▁estudiara	-12.2656
▁enseñ	-12.2671
▁suyos	-12.2691
▁sigues	-12.2693
nme	-12.2698
▁critic	-12.2714
▁fiestas	-12.2716
eth	-12.2721
▁hab	-12.2734
▁líneas	-12.2737
▁bodas	-12.2737
pó	-12.2747
▁incendios	-12.2752
▁vet	-12.276
hanging	-12.276
▁ricas	-12.2767
▁fr	-12.2772
▁agarra	-12.2777
10,000	-12.2784
▁notable	-12.2788
▁sue	-12.2794
▁modera	-12.2805
▁equivocados	-12.2808
fic	-12.2814
dicated	-12.2817
arios	-12.2841
▁triunf	-12.2854
ating	-12.2858
▁travels	-12.2864
osa	-12.2869
▁orbit	-12.2882
hoy	-12.2889
dores	-12.2892
proxima	-12.2913
▁ci	-12.2932
▁cur	-12.2934
▁aburre	-12.2946
▁escuche	-12.2954
conoce	-12.296
▁respects	-12.2971
tendió	-12.2975
read	-12.2976
▁gum	-12.2977
▁conclusion	-12.2985
▁neumático	-12.2993
▁paisaje	-12.2993
▁nieto	-12.2993
▁cubo	-12.2993
▁candidato	-12.2997
▁mosca	-12.2997
▁ingeniero	-12.2999
▁vehículo	-12.2999
▁abeja	-12.3001
▁casé	-12.3002
▁affair	-12.3004
todo	-12.3005
▁cloud	-12.3005
▁plátano	-12.3005
▁pierda	-12.3007
▁supplie	-12.3007
▁degree	-12.3008
▁ingreso	-12.3008
▁customer	-12.3009
▁vegetable	-12.301
▁postul	-12.3015
▁grade	-12.3018
▁element	-12.3019
ders	-12.302
▁elbow	-12.3022
▁incorrect	-12.3036
▁diente	-12.3036
▁má	-12.3047
▁nervios	-12.3048
▁cepilla	-12.3049
▁estima	-12.3049
▁trueno	-12.3053
▁z	-12.3053
▁relativ	-12.3064
▁australian	-12.3071
resisti	-12.3074
▁crow	-12.3081
▁traig	-12.3087
▁fuel	-12.309
terminaste	-12.309
▁toast	-12.3091
querría	-12.3092
entonces	-12.3093
buen	-12.3093
▁invita	-12.3097
▁hablará	-12.3099
plica	-12.31
entiendes	-12.3101
estudias	-12.3101
▁item	-12.3102
fue	-12.3102
cola	-12.3102
▁camel	-12.3103
may	-12.3104
▁ahorr	-12.3105
▁asegura	-12.311
▁cared	-12.311
seguimos	-12.3113
▁afecta	-12.3119
▁maní	-12.3122
▁recover	-12.3125
▁detén	-12.3125
▁swallow	-12.3127
▁confuse	-12.3127
▁enti	-12.3129
▁impact	-12.3129
▁prohíb	-12.3131
▁valid	-12.3132
▁fabrica	-12.3133
▁branch	-12.3133
▁cazador	-12.3133
▁artificial	-12.3134
▁hog	-12.3134
▁clon	-12.3135
▁immediate	-12.3137
▁mastica	-12.3137
▁moments	-12.3137
árselo	-12.3138
▁threat	-12.3139
▁carbon	-12.3139
▁cigar	-12.314
▁averig	-12.314
▁pulse	-12.314
▁inclina	-12.314
▁process	-12.314
▁slip	-12.3141
▁proverb	-12.3141
▁cuelg	-12.3141
▁appeal	-12.3141
▁statistic	-12.3141
▁afterwards	-12.3141
▁agricultura	-12.3141
▁ahorita	-12.3141
▁amateur	-12.3141
▁amistoso	-12.3141
▁aprobación	-12.3141
▁arbusto	-12.3141
▁asignatura	-12.3141
▁asqueroso	-12.3141
▁attorney	-12.3141
▁atómica	-12.3141
▁autobuses	-12.3141
▁awkward	-12.3141
▁baboon	-12.3141
▁bancarrota	-12.3141
▁berlín	-12.3141
▁cajero	-12.3141
▁campamento	-12.3141
▁cerezo	-12.3141
▁chimney	-12.3141
▁cliff	-12.3141
▁clumsy	-12.3141
▁compliment	-12.3141
▁comunicación	-12.3141
▁concierne	-12.3141
▁demonio	-12.3141
▁desconozco	-12.3141
▁destination	-12.3141
▁dumped	-12.3141
▁elderly	-12.3141
▁equilibrio	-12.3141
▁escándalo	-12.3141
▁espagueti	-12.3141
▁estadística	-12.3141
▁exaggerate	-12.3141
▁expose	-12.3141
▁extent	-12.3141
▁feroz	-12.3141
▁flauta	-12.3141
▁garlic	-12.3141
▁generoso	-12.3141
▁gossip	-12.3141
▁grammatical	-12.3141
▁idéntico	-12.3141
▁incumbe	-12.3141
▁injusta	-12.3141
▁insensitive	-12.3141
▁intelligence	-12.3141
▁journey	-12.3141
▁kyushu	-12.3141
▁maletín	-12.3141
▁malvado	-12.3141
▁maquillaje	-12.3141
▁misunderstood	-12.3141
▁mysterious	-12.3141
▁negative	-12.3141
▁nephew	-12.3141
▁niñez	-12.3141
▁ostras	-12.3141
▁overweight	-12.3141
▁parecida	-12.3141
▁peluquería	-12.3141
▁platform	-12.3141
▁pollution	-12.3141
▁postcard	-12.3141
▁privacy	-12.3141
▁propina	-12.3141
▁pruebe	-12.3141
▁práctico	-12.3141
▁pulso	-12.3141
▁póquer	-12.3141
▁quebró	-12.3141
▁satisfactory	-12.3141
▁seatbelt	-12.3141
▁semestre	-12.3141
▁shadow	-12.3141
▁shortcut	-12.3141
▁sobrino	-12.3141
▁spinach	-12.3141
▁suegra	-12.3141
▁swept	-12.3141
▁símbolo	-12.3141
▁tatuaje	-12.3141
▁thieves	-12.3141
▁tobillo	-12.3141
▁translating	-12.3141
▁tropas	-12.3141
▁universitaria	-12.3141
▁votó	-12.3141
▁válido	-12.3141
▁workaholic	-12.3141
▁cease	-12.3141
▁confesar	-12.3141
▁conservative	-12.3141
▁erigi	-12.3141
▁pareciera	-12.3141
▁pediste	-12.3141
▁prosper	-12.3141
▁shelter	-12.3141
▁sneak	-12.3141
▁ankle	-12.3141
▁biology	-12.3141
▁biología	-12.3141
▁cinta	-12.3141
▁elegí	-12.3141
▁manteca	-12.3141
▁profundidad	-12.3141
▁snack	-12.3141
▁bride	-12.3141
▁cerradura	-12.3141
▁crítica	-12.3141
▁muriera	-12.3141
▁pateó	-12.3141
▁toothache	-12.3141
▁typewriter	-12.3141
▁democratic	-12.3141
▁diversión	-12.3141
▁eternidad	-12.3141
▁kingdom	-12.3141
▁organization	-12.3141
firiendo	-12.3141
▁thread	-12.3141
▁heaven	-12.3141
▁bunk	-12.3141
▁melted	-12.3141
▁profit	-12.3141
▁organización	-12.3141
▁strawberries	-12.3141
▁cayeron	-12.3141
▁yawn	-12.3141
▁mentiste	-12.3141
▁guitarist	-12.3141
▁perrito	-12.3141
▁philosophy	-12.3141
▁snore	-12.3141
▁volcán	-12.3141
▁banjo	-12.3141
▁loyal	-12.3141
▁generación	-12.3141
▁llévate	-12.3141
▁desesperado	-12.3141
▁assist	-12.3141
▁cueste	-12.3141
▁seafood	-12.3141
ogen	-12.3141
▁privada	-12.3141
▁direcciones	-12.3141
▁recibe	-12.3141
▁lloro	-12.3141
▁respondido	-12.3141
▁perdóname	-12.3141
▁corregi	-12.3141
▁shaking	-12.3141
▁abrazó	-12.3141
▁download	-12.3141
▁gentle	-12.3141
▁heavier	-12.3141
▁colgando	-12.3141
▁esquiando	-12.3142
▁hiking	-12.3142
▁roca	-12.3142
▁redacción	-12.3142
▁numero	-12.3142
▁devastated	-12.3142
▁descubrimiento	-12.3142
▁dolía	-12.3142
▁permitted	-12.3142
▁puro	-12.3142
▁tornillo	-12.3142
▁cattle	-12.3142
▁dibujó	-12.3142
▁depriv	-12.3142
▁obligation	-12.3142
▁statement	-12.3142
▁recto	-12.3142
▁mojada	-12.3142
▁esencial	-12.3142
▁conducido	-12.3142
▁azar	-12.3142
▁trasero	-12.3143
▁conclusión	-12.3143
▁interese	-12.3143
▁frequently	-12.3143
▁doloroso	-12.3143
▁meditando	-12.3143
▁reparado	-12.3143
▁personalidad	-12.3143
▁seventy	-12.3143
▁temblaba	-12.3143
▁stingy	-12.3143
▁realista	-12.3143
▁tercio	-12.3143
▁hometown	-12.3143
▁consideration	-12.3143
▁revelar	-12.3143
▁gritando	-12.3144
▁disgustado	-12.3144
▁levántate	-12.3144
▁sacaste	-12.3144
▁rapidly	-12.3144
▁doubtful	-12.3144
▁fiable	-12.3144
▁aferr	-12.3144
▁costoso	-12.3144
▁blank	-12.3144
▁choque	-12.3144
▁cirujano	-12.3144
▁continúe	-12.3144
▁cállate	-12.3144
▁jesús	-12.3144
▁cachorro	-12.3144
▁ahogarse	-12.3144
▁subestimes	-12.3145
▁patada	-12.3145
▁hervir	-12.3145
▁manual	-12.3145
▁calentador	-12.3145
▁descalzo	-12.3145
▁darkness	-12.3145
▁adivinar	-12.3145
▁afilado	-12.3145
▁defensa	-12.3146
▁tumbado	-12.3146
▁slower	-12.3147
▁comprando	-12.3147
▁entendemos	-12.3147
▁wealthy	-12.3148
▁mortal	-12.3148
▁bombarde	-12.3148
▁taxista	-12.3148
▁matando	-12.3148
▁regañó	-12.3148
▁regularmente	-12.3148
▁derrotado	-12.3149
▁divertirse	-12.3149
▁former	-12.3149
▁misled	-12.315
▁deprisa	-12.315
tazo	-12.315
▁fíj	-12.315
▁objection	-12.315
▁carbono	-12.315
▁gradual	-12.3151
▁arreglado	-12.3151
▁amused	-12.3151
▁alejado	-12.3151
▁atasco	-12.3151
▁load	-12.3151
▁culparía	-12.3151
▁stunning	-12.3152
▁regresará	-12.3152
▁spoiled	-12.3152
▁apagado	-12.3152
▁ahogó	-12.3152
▁lavado	-12.3153
▁mow	-12.3154
▁parecé	-12.3154
▁dibujar	-12.3155
▁limited	-12.3156
▁politely	-12.3156
▁apagaron	-12.3156
▁vámonos	-12.3156
▁associate	-12.3156
▁besaron	-12.3157
▁confirmed	-12.3157
▁delivered	-12.3157
▁levantaron	-12.3157
▁desire	-12.3158
▁devolveré	-12.3158
▁sorbo	-12.3158
▁enseñado	-12.3158
▁buscamos	-12.3158
▁alegrará	-12.3158
▁perform	-12.3158
▁brillaba	-12.3159
▁soportarlo	-12.3159
eando	-12.316
▁pese	-12.3161
▁coja	-12.3162
▁blowing	-12.3162
▁qu	-12.3162
▁necesitás	-12.3162
▁colgado	-12.3162
▁celosa	-12.3163
▁criminales	-12.3163
▁disgusted	-12.3163
▁rendir	-12.3164
▁filete	-12.3164
▁empe	-12.3165
▁pole	-12.3165
▁refieres	-12.3166
▁patatas	-12.3166
▁asiáticos	-12.3166
▁considerable	-12.3168
clined	-12.3168
▁qualifie	-12.3168
▁regrets	-12.3168
▁conseguimos	-12.3169
▁vía	-12.3169
▁satisfactoria	-12.3169
▁culpando	-12.317
▁dinos	-12.317
▁referr	-12.3171
▁posibilidades	-12.3171
▁mago	-12.3172
▁behaved	-12.3173
▁principales	-12.3175
▁examined	-12.3175
▁copies	-12.3177
▁criticize	-12.318
▁exacta	-12.318
▁señaló	-12.318
▁aliviar	-12.3181
▁marineros	-12.3182
▁sailors	-12.3182
▁escondidas	-12.3182
▁cerré	-12.3184
▁calmado	-12.3184
▁ruidoso	-12.3185
▁tubo	-12.3185
recieron	-12.3187
▁amaré	-12.3187
▁paré	-12.319
▁errónea	-12.319
▁interna	-12.319
▁gire	-12.3191
▁tame	-12.3192
▁menores	-12.3192
▁pagaron	-12.3193
▁responda	-12.3195
▁prestarme	-12.3195
▁terminaste	-12.3196
▁responded	-12.3197
▁patiently	-12.3198
▁palomas	-12.3198
▁perd	-12.3198
▁interrumpas	-12.3199
▁eve	-12.32
▁atrae	-12.32
▁tooth	-12.3203
▁terminaron	-12.3203
▁cruce	-12.3206
▁jueguen	-12.3207
▁cambiaré	-12.3208
▁differently	-12.3208
▁seguiré	-12.321
▁creerle	-12.3215
▁mantendrá	-12.3217
▁permanece	-12.3218
▁bebas	-12.3219
▁descubre	-12.3219
▁tool	-12.322
▁distraer	-12.3223
▁discussing	-12.3224
▁mag	-12.3226
▁wa	-12.3227
▁congelado	-12.3227
▁aceptaría	-12.3227
▁eligier	-12.323
▁mienten	-12.3236
▁mates	-12.3237
enzo	-12.3239
▁jugaban	-12.3242
▁tenista	-12.3244
▁acababa	-12.3246
▁muevas	-12.3247
▁weeds	-12.325
▁costear	-12.3251
▁landing	-12.3254
▁vision	-12.3256
omo	-12.3262
▁meditar	-12.3267
▁vuelves	-12.3267
▁voices	-12.3268
▁escribirle	-12.3269
▁sip	-12.3278
▁hitch	-12.3287
▁alter	-12.3288
▁torn	-12.329
▁visitarte	-12.3293
▁heating	-12.3296
▁monkeys	-12.3297
▁vitamins	-12.3297
▁vitaminas	-12.3298
▁buscado	-12.33
rro	-12.3302
▁indicar	-12.3305
▁catching	-12.3308
▁decís	-12.3313
▁granjeros	-12.3313
▁trucos	-12.3313
▁provocar	-12.3314
▁antiques	-12.3314
lena	-12.3325
▁ja	-12.3326
fundió	-12.3327
▁sheets	-12.3329
▁usamos	-12.333
▁exceptional	-12.3331
▁weighs	-12.3331
▁pork	-12.3332
▁indian	-12.3332
▁sacrifice	-12.3332
▁logra	-12.3334
▁mall	-12.3339
irió	-12.3345
▁principiantes	-12.3346
▁hablen	-12.3347
▁sentirá	-12.3347
▁dejarme	-12.3352
criado	-12.3361
000	-12.3361
▁farmers	-12.3363
nada	-12.3367
zca	-12.3371
▁abrirá	-12.3372
▁ban	-12.3374
▁voluntarios	-12.338
▁sumo	-12.3382
▁arresto	-12.339
▁acos	-12.3396
▁partidos	-12.3397
▁delito	-12.3402
▁consultar	-12.3403
▁doctora	-12.3423
▁fingir	-12.3427
ates	-12.3433
▁cobra	-12.3436
▁oyes	-12.3437
▁gallinas	-12.3446
▁cabras	-12.3446
▁recog	-12.3449
▁enamor	-12.3454
▁cómodos	-12.3454
▁sordos	-12.3463
▁medicamentos	-12.3463
▁classic	-12.3463
▁youth	-12.3475
▁plates	-12.3478
ong	-12.348
▁files	-12.348
▁demands	-12.348
ple	-12.3481
▁freed	-12.3484
istic	-12.3486
▁recoge	-12.3493
▁apresurar	-12.3495
▁ayudamos	-12.3499
▁imports	-12.3502
▁weekends	-12.3509
▁harán	-12.3517
cked	-12.3518
ison	-12.3526
▁imitate	-12.3531
▁tanque	-12.3535
▁infla	-12.3537
▁alquila	-12.3539
▁peligrosos	-12.3543
ities	-12.3545
▁seconds	-12.3557
▁tomates	-12.3563
▁represent	-12.3566
▁criminals	-12.358
▁masa	-12.3582
▁suficientes	-12.3598
▁garantiza	-12.3607
▁extendi	-12.3622
▁parara	-12.3624
▁arregle	-12.3625
▁owned	-12.3627
▁boletos	-12.3631
▁estabais	-12.3631
▁ubica	-12.3632
▁caros	-12.3633
▁hoyo	-12.3634
▁vendrías	-12.3635
portable	-12.3651
▁despiérta	-12.3659
▁inventar	-12.3666
tus	-12.3668
▁sucedier	-12.3674
cre	-12.3674
▁remembering	-12.3675
parked	-12.3681
▁ésas	-12.3682
▁afortunados	-12.3682
▁intentions	-12.3682
▁sec	-12.3684
▁cercanos	-12.369
▁troubles	-12.3695
▁bienvenidos	-12.3699
▁vari	-12.3704
▁demandar	-12.3706
▁remembers	-12.3711
▁mirad	-12.3714
line	-12.3717
▁absorbe	-12.3729
melo	-12.3741
ko	-12.3741
▁reform	-12.3758
▁costo	-12.3759
ú	-12.3761
▁bro	-12.3766
▁cuidadosos	-12.3769
▁skirts	-12.3773
▁copias	-12.3781
▁dormidos	-12.3787
if	-12.3788
cé	-12.38
▁muñecas	-12.3801
▁gradua	-12.3819
▁acusa	-12.3823
▁camisas	-12.3837
▁bites	-12.3843
▁cas	-12.3844
▁borr	-12.3849
▁arriesg	-12.3857
▁pertene	-12.3872
▁mars	-12.3876
▁castigar	-12.3891
▁expresa	-12.3894
▁idiots	-12.3906
▁pegar	-12.3911
▁pil	-12.3917
▁pela	-12.3919
▁aves	-12.3928
▁proporcionar	-12.3943
▁humans	-12.3946
▁admite	-12.3947
▁recomiend	-12.3956
▁disfrute	-12.3969
▁reconsider	-12.398
▁burlar	-12.3988
▁frases	-12.4009
▁pele	-12.4013
▁limpie	-12.4031
▁levantas	-12.4036
▁vibra	-12.4049
▁comprendí	-12.4059
▁aterriza	-12.4067
▁urge	-12.4072
ix	-12.4073
▁elevado	-12.4073
▁fare	-12.4076
▁puntos	-12.4084
ático	-12.4101
▁reparti	-12.4144
▁atra	-12.4146
talo	-12.4174
deja	-12.4184
primió	-12.4194
vendrá	-12.4204
▁cheer	-12.4209
▁transmit	-12.423
▁investment	-12.4243
▁oiga	-12.4243
▁arruinado	-12.4245
▁castigado	-12.4246
▁inglesa	-12.4247
▁movimiento	-12.4247
▁valioso	-12.4247
▁avance	-12.4247
▁cristiano	-12.4249
▁string	-12.4249
▁blonde	-12.425
▁distinto	-12.425
▁christian	-12.4251
▁mascota	-12.4251
▁disparo	-12.4252
▁apuro	-12.4254
▁oreja	-12.4258
▁wire	-12.4259
▁consecuencia	-12.4259
▁verdura	-12.4259
▁nube	-12.4259
▁sock	-12.426
rected	-12.4264
▁impress	-12.4266
▁codo	-12.4268
▁jog	-12.4276
▁pregunt	-12.4279
▁docena	-12.4281
▁reuni	-12.4285
▁congela	-12.4289
omas	-12.429
▁moderno	-12.4293
rolled	-12.4293
illo	-12.4295
▁aprueb	-12.43
espera	-12.4301
▁invento	-12.4304
▁aprovech	-12.4305
▁adelanta	-12.4318
orge	-12.4329
▁magnet	-12.4335
debo	-12.4339
alguno	-12.4342
ual	-12.4342
déjame	-12.4343
who	-12.4343
▁agent	-12.4343
pasas	-12.4346
▁pague	-12.4347
▁combina	-12.4348
made	-12.4349
hola	-12.4349
10.	-12.435
▁receiv	-12.4354
voy	-12.4354
mbled	-12.4356
▁racist	-12.4362
▁rin	-12.4367
▁horizon	-12.4368
▁aparece	-12.4372
▁agradecer	-12.4372
▁concentr	-12.4375
▁deceive	-12.4376
estamos	-12.4377
▁spoil	-12.4378
▁regar	-12.4378
▁offend	-12.4378
▁betray	-12.4379
rich	-12.4379
▁cabin	-12.4379
▁coast	-12.4382
▁comunicar	-12.4382
▁chaval	-12.4384
▁implica	-12.4384
▁neat	-12.4385
▁accu	-12.4386
▁compani	-12.4386
▁gene	-12.4387
▁apropiada	-12.4387
▁compete	-12.4388
▁numb	-12.4389
▁plena	-12.4389
▁freak	-12.4389
▁salvado	-12.439
▁sharpen	-12.439
▁vietnam	-12.439
▁inferior	-12.439
▁knit	-12.4391
▁dinosaur	-12.4391
▁react	-12.4391
▁tendenc	-12.4391
▁differ	-12.4391
▁blunt	-12.4391
▁cacahu	-12.4391
▁hydr	-12.4391
▁lloré	-12.4391
▁tobacco	-12.4391
▁aburrimiento	-12.4391
▁alemanes	-12.4391
▁almorcé	-12.4391
▁amistosa	-12.4391
▁arrancó	-12.4391
▁atascado	-12.4391
▁automático	-12.4391
▁beethoven	-12.4391
▁bikini	-12.4391
▁cadáver	-12.4391
▁cafeteria	-12.4391
▁calcetín	-12.4391
▁camiseta	-12.4391
▁carácter	-12.4391
▁cementerio	-12.4391
▁champú	-12.4391
▁chatarra	-12.4391
▁cintura	-12.4391
▁comprueb	-12.4391
▁context	-12.4391
▁contigu	-12.4391
▁conversando	-12.4391
▁cotton	-12.4391
▁crítico	-12.4391
▁cycling	-12.4391
▁december	-12.4391
▁departure	-12.4391
▁descartar	-12.4391
▁desnuda	-12.4391
▁despistado	-12.4391
▁destruida	-12.4391
▁diciembre	-12.4391
▁diplomática	-12.4391
▁doorknob	-12.4391
▁dutch	-12.4391
▁ecuador	-12.4391
▁einstein	-12.4391
▁encaja	-12.4391
▁enormous	-12.4391
▁esclavitud	-12.4391
▁escuchá	-12.4391
▁exhilarat	-12.4391
▁flies	-12.4391
▁forbidden	-12.4391
▁fractur	-12.4391
▁francamente	-12.4391
▁gloomy	-12.4391
▁haunted	-12.4391
▁hobbies	-12.4391
▁impresionar	-12.4391
▁incurable	-12.4391
▁industry	-12.4391
▁intervened	-12.4391
▁irresponsable	-12.4391
▁jarrón	-12.4391
▁jueves	-12.4391
▁juventud	-12.4391
▁lipstick	-12.4391
▁madrid	-12.4391
▁mariposa	-12.4391
▁monedero	-12.4391
▁monster	-12.4391
▁monstruo	-12.4391
▁muñeco	-12.4391
▁nagano	-12.4391
▁nagoya	-12.4391
▁narices	-12.4391
▁nasty	-12.4391
▁naughty	-12.4391
▁negativo	-12.4391
▁neglect	-12.4391
▁nixon	-12.4391
▁niñita	-12.4391
▁nocturno	-12.4391
▁noviembre	-12.4391
▁obama	-12.4391
▁origen	-12.4391
▁pathetic	-12.4391
▁peluquero	-12.4391
▁pilchas	-12.4391
▁pochoclo	-12.4391
▁policies	-12.4391
▁proceso	-12.4391
▁préstame	-12.4391
▁renuncié	-12.4391
▁repisa	-12.4391
▁repite	-12.4391
▁respetuoso	-12.4391
▁ribbon	-12.4391
▁ridícula	-12.4391
▁rumbo	-12.4391
▁satellite	-12.4391
▁shark	-12.4391
▁shibuya	-12.4391
▁shinano	-12.4391
▁siblings	-12.4391
▁sidewalk	-12.4391
▁snuggle	-12.4391
▁sobresaliente	-12.4391
▁solitario	-12.4391
▁stroke	-12.4391
▁supply	-12.4391
▁surface	-12.4391
▁temporal	-12.4391
▁testamento	-12.4391
▁thursday	-12.4391
▁titanic	-12.4391
▁tuviese	-12.4391
▁técnica	-12.4391
▁título	-12.4391
▁uneasy	-12.4391
▁unnecessary	-12.4391
▁valiosa	-12.4391
▁vanidoso	-12.4391
▁vaqueros	-12.4391
▁virtud	-12.4391
▁virtue	-12.4391
▁voces	-12.4391
▁wisdom	-12.4391
▁withdrew	-12.4391
▁blink	-12.4391
▁entorno	-12.4391
▁gramatical	-12.4391
▁hierve	-12.4391
▁penicil	-12.4391
▁probabilidad	-12.4391
▁sauce	-12.4391
▁sharing	-12.4391
▁sobrina	-12.4391
▁tequila	-12.4391
▁tromb	-12.4391
▁watermelon	-12.4391
▁culpó	-12.4391
▁cántaros	-12.4391
▁sector	-12.4391
▁setenta	-12.4391
▁waist	-12.4391
▁accurate	-12.4391
▁automatically	-12.4391
▁delicate	-12.4391
▁explotó	-12.4391
▁máscara	-12.4391
▁palillos	-12.4391
▁repetí	-12.4391
▁apagué	-12.4391
▁quote	-12.4391
▁recibo	-12.4391
▁calculadora	-12.4391
▁northern	-12.4391
▁rational	-12.4391
▁rutina	-12.4391
órale	-12.4391
▁nintendo	-12.4391
▁refugiados	-12.4391
▁tejiendo	-12.4391
▁thailand	-12.4391
▁intervino	-12.4391
▁semester	-12.4391
▁algodón	-12.4391
▁connection	-12.4391
▁desconcertado	-12.4391
▁enlace	-12.4391
▁ficción	-12.4391
▁fiction	-12.4391
▁steam	-12.4391
▁youtube	-12.4391
▁juzgue	-12.4391
▁enfrí	-12.4391
▁firewood	-12.4391
▁limón	-12.4391
▁unwilling	-12.4391
▁huracán	-12.4391
▁loving	-12.4391
▁natación	-12.4391
▁griega	-12.4391
▁clapped	-12.4391
▁consciencia	-12.4391
▁creative	-12.4391
▁tailandia	-12.4391
▁memories	-12.4391
▁dinosaurio	-12.4391
▁flojo	-12.4391
▁invención	-12.4391
▁tradición	-12.4391
▁escondas	-12.4391
▁huelo	-12.4391
▁activa	-12.4391
▁versión	-12.4391
▁encontremos	-12.4391
▁unsure	-12.4391
▁almorzado	-12.4391
▁interrumpió	-12.4391
▁partner	-12.4391
▁compass	-12.4391
▁community	-12.4391
▁formula	-12.4391
▁fuéramos	-12.4391
▁guitarrista	-12.4391
▁carelessness	-12.4391
▁agosto	-12.4391
▁ocurriendo	-12.4391
▁calculator	-12.4391
▁nacionalidad	-12.4391
▁crane	-12.4391
▁beef	-12.4391
▁consciousness	-12.4391
▁sunlight	-12.4391
▁agradecimiento	-12.4391
▁parallel	-12.4391
▁knitting	-12.4391
▁exhibition	-12.4391
▁ballet	-12.4391
▁tremble	-12.4391
▁estallar	-12.4391
▁previous	-12.4391
oru	-12.4391
▁automáticamente	-12.4391
▁suertudo	-12.4391
▁bombones	-12.4391
▁curb	-12.4391
▁suene	-12.4391
▁salesman	-12.4391
▁govern	-12.4392
▁ipod	-12.4392
▁escondí	-12.4392
▁deadline	-12.4392
▁reap	-12.4392
▁aplicación	-12.4392
▁atleta	-12.4392
▁preocupo	-12.4392
▁caramelo	-12.4392
▁descuidado	-12.4392
▁instalar	-12.4392
▁existence	-12.4392
▁murmurando	-12.4392
▁costosa	-12.4392
▁liado	-12.4392
▁preocupaciones	-12.4392
▁arco	-12.4392
▁relajarse	-12.4392
▁basic	-12.4392
▁pronunciation	-12.4392
▁pulsar	-12.4393
▁tempt	-12.4393
▁espantoso	-12.4393
▁elija	-12.4393
▁critical	-12.4393
▁prediction	-12.4393
▁disparado	-12.4393
▁fundamental	-12.4393
semeja	-12.4393
▁fracasado	-12.4393
▁váyase	-12.4393
▁feriado	-12.4393
▁cepillo	-12.4393
▁title	-12.4393
▁llamá	-12.4393
▁chairman	-12.4393
▁disfrazado	-12.4393
▁motivado	-12.4393
▁motion	-12.4393
hower	-12.4394
▁amarga	-12.4394
▁rebelde	-12.4394
▁perlas	-12.4394
▁robé	-12.4394
▁carné	-12.4394
▁fuss	-12.4394
▁disculparse	-12.4394
▁capturado	-12.4394
▁policemen	-12.4394
▁trasera	-12.4395
▁alfabeto	-12.4395
▁flock	-12.4395
▁distingue	-12.4395
▁luchando	-12.4395
▁bañando	-12.4395
▁dental	-12.4395
▁indignado	-12.4395
▁dependable	-12.4395
▁daily	-12.4395
▁querrá	-12.4395
▁lamentable	-12.4395
▁cardíaco	-12.4396
▁pues	-12.4396
stén	-12.4396
▁furiosa	-12.4396
inició	-12.4396
dney	-12.4396
▁ruego	-12.4396
▁fry	-12.4397
▁melod	-12.4397
▁established	-12.4397
▁version	-12.4397
▁pescando	-12.4397
▁desprecio	-12.4397
▁fantástico	-12.4398
▁rodeos	-12.4398
hablá	-12.4398
▁artificiales	-12.4399
▁mandado	-12.4399
▁superficial	-12.4399
▁gay	-12.4399
bamos	-12.4399
▁fabricado	-12.44
▁firmemente	-12.44
▁confront	-12.44
▁print	-12.44
▁makeup	-12.44
▁lazie	-12.44
▁viking	-12.44
▁ocup	-12.44
▁signal	-12.4401
▁destinad	-12.4401
▁gata	-12.4401
▁horizonte	-12.4401
▁americana	-12.4401
▁croa	-12.4401
▁toneladas	-12.4401
▁llámalo	-12.4402
▁costaría	-12.4402
▁preso	-12.4402
▁feder	-12.4402
▁voyage	-12.4403
▁duck	-12.4403
▁abandonaron	-12.4404
▁periodo	-12.4404
▁ileso	-12.4404
▁pensamos	-12.4405
▁logic	-12.4405
▁presté	-12.4405
going	-12.4405
▁corporal	-12.4406
▁fastest	-12.4406
▁exacto	-12.4407
▁perdonaré	-12.4407
▁focused	-12.4407
▁tape	-12.4407
▁somehow	-12.4407
▁caída	-12.4407
▁counter	-12.4407
▁molestado	-12.4408
▁cuba	-12.4408
▁enfadarse	-12.4408
▁abrazo	-12.4409
▁absurda	-12.441
▁violento	-12.441
▁accomplished	-12.4411
▁navegar	-12.4411
▁gray	-12.4411
▁delgada	-12.4412
▁ruta	-12.4412
▁visitarnos	-12.4412
▁apostar	-12.4413
▁create	-12.4413
▁criticized	-12.4413
▁youngest	-12.4413
▁presentarme	-12.4414
▁nik	-12.4414
▁moverse	-12.4415
▁funcionando	-12.4415
▁guardaré	-12.4416
▁ju	-12.4417
▁niece	-12.4417
▁acostarte	-12.4417
▁visado	-12.4419
▁evitarlo	-12.4419
▁intentaron	-12.4419
▁racista	-12.4419
bérmelo	-12.4419
▁flute	-12.4419
▁attic	-12.442
▁reserved	-12.442
ona	-12.4421
▁entramos	-12.4421
▁vuelan	-12.4421
▁bay	-12.4422
▁darker	-12.4422
▁pacientemente	-12.4424
▁conflicto	-12.4424
▁sillón	-12.4425
hea	-12.4425
▁poli	-12.4426
▁hail	-12.4426
▁reports	-12.4427
▁conocés	-12.4429
vives	-12.443
▁quedaste	-12.443
▁besarte	-12.443
▁athlete	-12.4433
▁protegerte	-12.4434
▁ironing	-12.4434
▁cogeré	-12.4436
▁maintain	-12.4436
▁lifted	-12.4436
▁nadador	-12.4436
▁mide	-12.4437
▁encontraremos	-12.4437
▁cacahuetes	-12.4438
isen	-12.4438
▁diferenciar	-12.4439
▁organized	-12.444
▁destaca	-12.4441
▁contradict	-12.4441
▁picky	-12.4441
▁pasteles	-12.4442
▁eliminar	-12.4443
▁ganaron	-12.4443
▁apretar	-12.4447
▁farther	-12.4447
▁terriblemente	-12.4448
▁familiares	-12.4448
▁mudo	-12.4451
▁visitamos	-12.4452
▁intercambiar	-12.4454
rado	-12.4454
▁hip	-12.4455
▁relaxing	-12.4455
▁galletitas	-12.4456
▁sábanas	-12.4456
▁colegas	-12.4456
▁obeyed	-12.4457
▁usarlo	-12.4458
▁ganamos	-12.4461
pensás	-12.4462
▁stays	-12.4463
▁payment	-12.4466
▁gotea	-12.4468
▁llamarlo	-12.4468
▁strangely	-12.4469
▁bridges	-12.4469
▁goma	-12.4469
▁admito	-12.4471
▁islam	-12.4471
▁comporta	-12.4472
▁terroristas	-12.4476
▁cuidarte	-12.4478
▁libras	-12.4479
▁arreglo	-12.4479
▁obedece	-12.4484
▁creés	-12.4484
▁esperaron	-12.4486
▁runner	-12.4488
▁armada	-12.4489
▁ganará	-12.4491
▁recupere	-12.4492
▁deba	-12.4494
▁dormi	-12.4499
▁sn	-12.4502
▁confundid	-12.4509
▁parientes	-12.4513
▁bones	-12.4515
▁gaz	-12.4516
▁cri	-12.4517
▁pandas	-12.4525
▁pararme	-12.4526
term	-12.453
cos	-12.453
▁disparos	-12.4531
▁ayudaron	-12.4532
comes	-12.4535
▁vean	-12.4536
▁llamarte	-12.4536
▁ajo	-12.4538
▁mini	-12.4539
▁encontraría	-12.4541
nic	-12.4545
▁leas	-12.4546
queda	-12.4549
▁vini	-12.455
▁enseñe	-12.4562
▁reported	-12.4564
▁pap	-12.4565
▁víctimas	-12.4569
▁limits	-12.4569
▁rights	-12.4571
▁faults	-12.4578
▁chocolates	-12.4578
ache	-12.4579
▁triple	-12.4579
▁bob	-12.4581
▁entiendas	-12.4587
▁realiza	-12.4597
▁male	-12.4599
▁ganaría	-12.4605
▁archivos	-12.4607
▁blankets	-12.4607
▁competente	-12.4616
▁dejarle	-12.4617
▁acompañar	-12.4618
▁diamantes	-12.4625
▁pigs	-12.4625
▁cables	-12.4626
▁sabrás	-12.4626
▁dejamos	-12.4627
▁fáciles	-12.463
▁descansa	-12.4631
▁vuelvan	-12.4632
▁aproxima	-12.4633
▁atrac	-12.4635
▁ending	-12.4637
▁goats	-12.4644
▁consulta	-12.4645
awa	-12.4652
▁marks	-12.4657
▁vencer	-12.466
▁mosquitos	-12.4664
▁arroj	-12.4667
▁helada	-12.4667
▁vidas	-12.4667
▁mensajes	-12.4669
▁gr	-12.4672
▁varía	-12.4675
ríamos	-12.4678
▁brains	-12.4682
▁olvid	-12.4683
▁creci	-12.4694
dico	-12.4694
▁mol	-12.4694
▁tin	-12.4694
▁roman	-12.4701
▁aterroriza	-12.4703
▁ayudase	-12.4704
▁afueras	-12.4706
jones	-12.4713
▁pelos	-12.4714
▁casara	-12.4719
▁cuentos	-12.472
▁hoteles	-12.4731
▁dejad	-12.4737
▁ruins	-12.4741
sería	-12.4749
▁forth	-12.475
▁altas	-12.4758
▁parecidos	-12.4759
▁disponibles	-12.4759
▁negociar	-12.477
▁ayuden	-12.4771
ino	-12.4773
▁lé	-12.4776
▁debts	-12.4776
▁aprendes	-12.4781
devuélveme	-12.4792
▁conseguirá	-12.48
▁apt	-12.4801
▁sostiene	-12.4808
értelo	-12.481
▁copas	-12.4814
▁actions	-12.4817
▁tube	-12.4819
▁calcul	-12.4838
▁pastor	-12.4841
▁serlo	-12.4846
▁produces	-12.4848
▁tocas	-12.4848
▁mejore	-12.4849
▁aspectos	-12.4855
▁aterrizar	-12.4858
aid	-12.4859
▁costar	-12.486
▁condena	-12.4871
▁training	-12.4909
▁castiga	-12.491
▁goals	-12.4912
▁materials	-12.4912
▁interests	-12.4914
▁ordenar	-12.4924
▁procur	-12.4926
▁besado	-12.4927
ping	-12.4934
▁preocupar	-12.4943
▁pes	-12.4968
▁limpiara	-12.4972
▁recort	-12.4976
▁skip	-12.4985
▁abiertos	-12.4991
▁echas	-12.4992
▁fo	-12.4995
icked	-12.5005
▁patients	-12.5022
▁ache	-12.5035
▁coste	-12.5044
▁presum	-12.505
preció	-12.5071
▁cumpl	-12.5075
aza	-12.5077
naciones	-12.5077
▁tr	-12.5085
▁recompensa	-12.5086
▁exige	-12.5093
▁busque	-12.51
▁remo	-12.5103
▁holes	-12.5108
▁despe	-12.5111
▁caballeros	-12.5111
▁kn	-12.5118
▁acaban	-12.5122
▁v	-12.5123
▁fondos	-12.5123
▁casos	-12.5124
vando	-12.5127
▁poné	-12.5131
▁bombs	-12.5137
▁rooms	-12.514
▁entres	-12.5141
▁chup	-12.5144
ah	-12.5144
▁chi	-12.5145
▁salva	-12.5145
pagando	-12.5158
▁contesta	-12.5159
tenía	-12.5177
▁opens	-12.5182
▁exists	-12.5208
▁pint	-12.5214
▁forms	-12.5217
ain	-12.5218
▁levantan	-12.5218
▁favoritos	-12.5219
▁dolls	-12.5223
ight	-12.5224
▁blancas	-12.5227
▁desorden	-12.5235
▁representa	-12.5243
ondas	-12.5245
▁esperan	-12.5245
▁flights	-12.5247
▁restaurants	-12.5258
▁detesta	-12.5258
▁coc	-12.526
▁indicate	-12.5271
ai	-12.5278
bel	-12.5279
▁nadaba	-12.5287
tely	-12.5291
eight	-12.5303
▁mile	-12.5307
▁aspir	-12.5317
▁medias	-12.5326
▁cantantes	-12.5327
▁realiz	-12.5331
▁escapa	-12.5332
gar	-12.5341
▁points	-12.5343
▁singers	-12.535
▁formar	-12.5366
▁tomara	-12.5366
▁esperas	-12.5367
▁intentas	-12.538
▁cerradas	-12.5388
ivo	-12.5397
▁vestidos	-12.5403
▁preparados	-12.5408
▁oje	-12.541
▁raises	-12.5411
lin	-12.542
▁islands	-12.5431
▁barri	-12.5431
▁tí	-12.5456
▁frances	-12.546
▁irás	-12.546
▁principios	-12.5467
escrib	-12.5503
▁console	-12.5518
▁abr	-12.5523
seguro	-12.5523
▁uniform	-12.5524
▁desear	-12.5528
▁humillad	-12.5533
car	-12.5534
bul	-12.5538
▁invadi	-12.5539
ps	-12.5546
▁gua	-12.5548
▁encarg	-12.555
▁includ	-12.5562
itos	-12.5569
▁unir	-12.5582
ensa	-12.5585
▁vendid	-12.5588
▁enterrar	-12.5604
▁remark	-12.5609
▁instant	-12.5613
desea	-12.5617
pensá	-12.5625
▁carreras	-12.563
▁evita	-12.5646
▁atender	-12.5647
▁arriesga	-12.5651
▁pl	-12.5652
▁volverás	-12.5663
▁cojo	-12.5664
▁stir	-12.5668
▁apuesta	-12.5671
▁capítulo	-12.5671
▁kitten	-12.5671
▁minifalda	-12.5671
▁aliado	-12.5672
▁pendiente	-12.5672
▁restos	-12.5673
▁bacteria	-12.5675
▁maravilla	-12.5675
▁recuperará	-12.5676
▁crí	-12.5676
▁anuncio	-12.5676
▁confirmar	-12.5677
▁liberado	-12.5677
▁candidate	-12.5678
▁graciosa	-12.5678
sador	-12.5678
▁lavarropa	-12.568
▁clavo	-12.5681
▁pariente	-12.5682
▁mueva	-12.5683
▁huella	-12.5683
▁brake	-12.5684
▁estampilla	-12.5684
▁crop	-12.5685
▁lip	-12.5686
▁peanut	-12.5686
▁mueble	-12.5688
▁pista	-12.569
▁transporte	-12.5691
▁charges	-12.5694
▁panda	-12.57
▁hacé	-12.5701
vie	-12.5703
▁arranca	-12.5708
▁pal	-12.5712
▁errors	-12.5717
▁milla	-12.5719
▁exhibi	-12.5721
▁marc	-12.5723
▁sigh	-12.5731
▁aprendi	-12.5733
▁encontrará	-12.5739
▁irrelevant	-12.574
▁resfri	-12.5742
ciento	-12.5744
▁ayudan	-12.5745
▁reí	-12.5746
▁sets	-12.5748
▁corro	-12.576
▁escabull	-12.5766
ulated	-12.5766
rang	-12.5767
flexible	-12.5768
bló	-12.5768
confident	-12.577
water	-12.577
successful	-12.577
podrá	-12.5771
minute	-12.5771
ojal	-12.5771
había	-12.5771
saw	-12.5772
▁temía	-12.5775
▁supus	-12.5776
▁admiraba	-12.5777
▁instal	-12.5785
▁rellen	-12.5786
estuviste	-12.5787
sois	-12.5787
hablaste	-12.579
▁annoy	-12.5797
ick	-12.5799
dice	-12.58
▁crear	-12.5801
▁cl	-12.5801
▁abro	-12.5802
juegas	-12.5802
▁involve	-12.5804
▁disguise	-12.5805
▁struggle	-12.5805
▁stress	-12.5806
▁resuelv	-12.5806
▁fund	-12.5807
▁interrumpir	-12.581
▁compulsiv	-12.581
▁fascina	-12.581
▁wink	-12.5811
▁cristal	-12.5811
▁separar	-12.5811
▁traductor	-12.5812
▁mona	-12.5812
▁modest	-12.5812
▁volcano	-12.5813
▁contribute	-12.5813
▁afila	-12.5813
▁indigna	-12.5815
▁observa	-12.5815
hand	-12.5815
▁necessar	-12.5816
▁chase	-12.5816
▁adecuada	-12.5817
▁valle	-12.5817
▁tomato	-12.5817
▁insiste	-12.5818
▁vestir	-12.5818
▁gasoline	-12.5819
cript	-12.5819
▁futbol	-12.5819
▁previo	-12.5819
▁significant	-12.5819
▁casual	-12.5819
▁calendar	-12.5819
▁opone	-12.5819
▁drastic	-12.5819
óxido	-12.5819
▁acertijo	-12.5819
▁agriculture	-12.5819
▁ambiente	-12.5819
▁ambition	-12.5819
▁apuñala	-12.5819
▁archaeologist	-12.5819
▁asesinó	-12.5819
▁astronomía	-12.5819
▁attribute	-12.5819
▁babysitter	-12.5819
▁banquero	-12.5819
▁bargain	-12.5819
▁batteries	-12.5819
▁belief	-12.5819
▁benefit	-12.5819
▁bulb	-12.5819
▁calefacción	-12.5819
▁calurosa	-12.5819
▁carpenter	-12.5819
▁catálogo	-12.5819
▁cenizas	-12.5819
▁cirugía	-12.5819
▁comestibles	-12.5819
▁conducción	-12.5819
▁cradle	-12.5819
▁democracia	-12.5819
▁democracy	-12.5819
▁descifr	-12.5819
▁despierte	-12.5819
▁devorado	-12.5819
▁devuelto	-12.5819
▁dictionaries	-12.5819
▁dishonest	-12.5819
▁divertiste	-12.5819
▁duties	-12.5819
▁efficient	-12.5819
▁elevó	-12.5819
▁embajador	-12.5819
▁encantó	-12.5819
▁encerrado	-12.5819
▁entusiasmo	-12.5819
▁equivoqué	-12.5819
▁errand	-12.5819
▁especie	-12.5819
▁esperándote	-12.5819
▁estrelló	-12.5819
▁estupideces	-12.5819
▁exactitud	-12.5819
▁fabuloso	-12.5819
▁farmacia	-12.5819
▁fountain	-12.5819
▁fregadero	-12.5819
▁guiso	-12.5819
▁harbor	-12.5819
▁hiciéramos	-12.5819
▁hidrógeno	-12.5819
▁hígado	-12.5819
▁infarto	-12.5819
▁injury	-12.5819
▁intenso	-12.5819
▁inversión	-12.5819
▁irresponsible	-12.5819
▁jungle	-12.5819
▁lastimé	-12.5819
▁lechuga	-12.5819
▁llovía	-12.5819
▁magician	-12.5819
▁mammal	-12.5819
▁muelle	-12.5819
▁nacido	-12.5819
▁netherlands	-12.5819
▁nochebuena	-12.5819
▁nocturna	-12.5819
▁ofender	-12.5819
▁padrastro	-12.5819
▁palideció	-12.5819
▁palomitas	-12.5819
▁peculiar	-12.5819
▁perfección	-12.5819
▁pertenencias	-12.5819
▁pickpocket	-12.5819
▁portugués	-12.5819
▁positivo	-12.5819
▁promising	-12.5819
▁psiquiatra	-12.5819
▁pulmón	-12.5819
▁quebrado	-12.5819
▁questionnaire	-12.5819
▁receipt	-12.5819
▁refiero	-12.5819
▁relájate	-12.5819
▁romántica	-12.5819
▁routine	-12.5819
▁rudo	-12.5819
▁sartén	-12.5819
▁satisfacer	-12.5819
▁satélite	-12.5819
▁signature	-12.5819
▁slim	-12.5819
▁slump	-12.5819
▁snoring	-12.5819
▁sorrow	-12.5819
▁souvenir	-12.5819
▁squirrel	-12.5819
▁stadium	-12.5819
▁stranded	-12.5819
▁stream	-12.5819
▁sunbathing	-12.5819
▁survivor	-12.5819
▁sólida	-12.5819
▁sótano	-12.5819
▁tabla	-12.5819
▁telescope	-12.5819
▁telescopio	-12.5819
▁tournament	-12.5819
▁tripulación	-12.5819
▁troops	-12.5819
▁tropez	-12.5819
▁vacuum	-12.5819
▁valentín	-12.5819
▁veinticinco	-12.5819
▁venecia	-12.5819
▁vergonzoso	-12.5819
▁yield	-12.5819
▁accidentalmente	-12.5819
▁chantaje	-12.5819
▁confidencial	-12.5819
▁criticism	-12.5819
▁debiera	-12.5819
▁diligent	-12.5819
▁holanda	-12.5819
▁instinto	-12.5819
▁intimida	-12.5819
▁lettuce	-12.5819
▁masculine	-12.5819
▁picó	-12.5819
▁recoja	-12.5819
▁rural	-12.5819
▁scandal	-12.5819
▁secure	-12.5819
▁simpatía	-12.5819
▁spouse	-12.5819
▁torneo	-12.5819
▁widow	-12.5819
▁blend	-12.5819
▁contagiosa	-12.5819
▁conversamos	-12.5819
▁intersection	-12.5819
▁precisa	-12.5819
▁afición	-12.5819
▁communication	-12.5819
▁representative	-12.5819
▁sequía	-12.5819
▁roast	-12.5819
▁amenazó	-12.5819
▁aéreo	-12.5819
▁jewelry	-12.5819
▁quédense	-12.5819
▁rebaja	-12.5819
▁silenciosamente	-12.5819
▁cuídate	-12.5819
▁quíte	-12.5819
▁separó	-12.5819
▁chofer	-12.5819
▁compasión	-12.5819
▁delfines	-12.5819
▁distraído	-12.5819
▁espinacas	-12.5819
▁folk	-12.5819
▁foul	-12.5819
▁wreck	-12.5819
▁specific	-12.5819
▁cooperation	-12.5819
▁estrés	-12.5819
▁diplomatic	-12.5819
▁doorbell	-12.5819
▁estadio	-12.5819
▁panadería	-12.5819
▁proposición	-12.5819
▁psychiatrist	-12.5819
▁dominio	-12.5819
▁reemplazar	-12.5819
▁britain	-12.5819
▁disputa	-12.5819
▁pecado	-12.5819
▁rompiste	-12.5819
▁clue	-12.5819
▁emoción	-12.5819
▁salmon	-12.582
▁vestía	-12.582
rupción	-12.582
▁reflection	-12.582
▁sacudirse	-12.582
▁calendario	-12.582
▁sorda	-12.582
▁dispers	-12.582
▁cafe	-12.582
▁mommy	-12.582
▁calificaciones	-12.582
▁haciéndolo	-12.582
▁exceso	-12.582
▁grueso	-12.582
▁categoría	-12.582
▁proverbio	-12.582
▁torpe	-12.582
▁edge	-12.582
▁humid	-12.582
▁entendiera	-12.582
▁reflexionar	-12.582
▁dudé	-12.582
▁factories	-12.582
▁fiddle	-12.582
▁objective	-12.582
▁carcajada	-12.582
▁identificar	-12.582
▁pesimista	-12.582
▁cartero	-12.582
▁bakery	-12.582
▁unbearable	-12.582
▁nationality	-12.582
▁temblando	-12.582
▁meditating	-12.582
▁accountant	-12.582
▁díganme	-12.582
▁villagers	-12.582
▁quédese	-12.582
▁skeptic	-12.582
▁cupboard	-12.582
▁disappointment	-12.582
▁enseñanza	-12.582
▁handbag	-12.582
▁pudiéramos	-12.582
▁rainbow	-12.582
▁gravedad	-12.582
▁regañado	-12.582
▁ojeada	-12.582
▁hormigas	-12.582
▁apresurado	-12.582
▁luckily	-12.582
▁temperamento	-12.582
▁defectuoso	-12.582
▁dentífrico	-12.582
▁function	-12.582
▁aparcado	-12.582
▁descuido	-12.582
▁tasty	-12.582
irás	-12.582
▁regalado	-12.582
▁fatter	-12.582
▁podrido	-12.582
▁reflect	-12.582
▁mostrame	-12.582
▁fulfill	-12.582
▁pulsera	-12.582
▁actuación	-12.582
▁perdóneme	-12.582
▁espina	-12.582
▁realistic	-12.582
▁mankind	-12.5821
▁pronunciación	-12.5821
▁inspired	-12.5821
▁alpes	-12.5821
▁opuesto	-12.5821
▁destrozado	-12.5821
▁desempleado	-12.5821
▁complacer	-12.5821
▁tóme	-12.5821
▁existir	-12.5821
▁bailarín	-12.5821
▁humanity	-12.5821
▁entregué	-12.5821
▁avísame	-12.5821
▁agradecería	-12.5821
▁arduamente	-12.5821
▁regardless	-12.5821
▁venice	-12.5821
▁spin	-12.5821
▁alcoholic	-12.5821
▁vanished	-12.5821
▁comic	-12.5821
▁gesto	-12.5821
▁airmail	-12.5821
▁passage	-12.5821
▁contaste	-12.5821
▁caminé	-12.5821
▁jardinero	-12.5821
▁cocido	-12.5822
▁cesta	-12.5822
▁gris	-12.5822
▁dimitir	-12.5822
▁maleducado	-12.5822
▁deshonesto	-12.5822
▁hotter	-12.5822
▁ahogando	-12.5822
▁pospondr	-12.5822
▁cockroaches	-12.5822
▁aventón	-12.5822
▁extraordinario	-12.5822
▁shortage	-12.5822
▁salsa	-12.5822
▁termino	-12.5822
▁basis	-12.5822
▁crecido	-12.5822
▁centr	-12.5822
▁sociable	-12.5822
▁contratado	-12.5822
▁graduarse	-12.5822
▁minerales	-12.5823
▁mataste	-12.5823
bebes	-12.5823
▁desayuné	-12.5823
▁vigilando	-12.5823
▁alcance	-12.5823
▁frustrado	-12.5823
▁desarrollo	-12.5823
▁fist	-12.5823
▁valley	-12.5823
▁especialidad	-12.5823
▁escondiste	-12.5823
▁compleja	-12.5824
▁innecesario	-12.5824
▁global	-12.5824
▁vestirse	-12.5824
▁ligeramente	-12.5824
▁educated	-12.5824
▁instantly	-12.5824
▁tiny	-12.5824
▁recovery	-12.5824
▁temporary	-12.5824
▁speechless	-12.5824
▁resfrío	-12.5824
▁entretenido	-12.5824
▁súbe	-12.5824
▁estupendamente	-12.5824
employment	-12.5825
▁damp	-12.5825
▁chile	-12.5825
▁recordado	-12.5825
▁prepárate	-12.5825
▁snowman	-12.5825
▁obligaron	-12.5825
▁implicado	-12.5825
▁evitando	-12.5825
▁examinar	-12.5825
sterna	-12.5826
▁tender	-12.5826
▁worthless	-12.5826
▁misteriosa	-12.5826
▁childish	-12.5826
▁reímos	-12.5826
▁indefenso	-12.5826
▁traduzca	-12.5827
▁sickness	-12.5827
▁retirarse	-12.5827
▁barra	-12.5827
▁fama	-12.5828
▁perdonará	-12.5828
▁untied	-12.5828
▁barrer	-12.5828
▁sailing	-12.5828
▁sucederá	-12.5828
▁anticipated	-12.5828
▁manejando	-12.5828
▁dispararon	-12.5828
▁wax	-12.5828
▁déjelo	-12.5828
taron	-12.5829
legó	-12.5829
▁interferir	-12.5829
▁repetirlo	-12.5829
▁commander	-12.5829
▁nacionales	-12.583
▁conocerla	-12.583
▁ticking	-12.583
▁entraste	-12.583
▁fade	-12.583
jera	-12.5831
▁decepción	-12.5831
▁intentemos	-12.5831
▁conveniente	-12.5831
▁chopsticks	-12.5832
▁estribos	-12.5832
▁villancicos	-12.5832
▁dímelo	-12.5832
▁necesitáis	-12.5832
▁racional	-12.5832
▁suelta	-12.5832
▁agitó	-12.5832
▁trajiste	-12.5833
▁cantemos	-12.5833
▁secuestrado	-12.5833
▁socio	-12.5834
▁spying	-12.5834
010.	-12.5835
▁prestada	-12.5835
▁subimos	-12.5836
▁orilla	-12.5836
▁despedirse	-12.5836
▁liberal	-12.5836
▁quemando	-12.5837
▁lejano	-12.5837
▁dna	-12.5837
▁arrestada	-12.5837
▁moriría	-12.5837
▁cansando	-12.5838
▁captured	-12.5838
▁apunté	-12.5839
▁ripe	-12.5839
▁triunfará	-12.5839
▁outcome	-12.5839
▁dull	-12.5839
▁phrase	-12.5839
▁bandage	-12.5839
▁atraviesa	-12.584
▁alley	-12.584
prendieron	-12.584
▁capacidades	-12.584
▁esconderse	-12.584
▁competed	-12.5841
▁update	-12.5842
▁barked	-12.5843
▁preparé	-12.5843
▁shaving	-12.5843
▁sentís	-12.5843
▁witnesses	-12.5844
▁reírse	-12.5844
▁gardener	-12.5844
▁reporter	-12.5845
▁alps	-12.5845
▁investiga	-12.5845
gave	-12.5846
cakes	-12.5846
▁leíste	-12.5846
▁sandía	-12.5847
▁envío	-12.5847
▁paseando	-12.5848
▁envíame	-12.5848
▁subieron	-12.5848
▁loaded	-12.5849
▁packing	-12.5849
▁easter	-12.5851
▁costado	-12.5851
▁amará	-12.5851
▁consideraría	-12.5851
▁débiles	-12.5851
▁viajero	-12.5852
▁sello	-12.5852
▁siembras	-12.5852
▁mariscos	-12.5852
▁refugees	-12.5852
▁apoyes	-12.5853
▁fled	-12.5855
ncionado	-12.5856
▁choke	-12.5858
▁flipp	-12.5859
▁mejorará	-12.5859
▁exponer	-12.586
▁sección	-12.586
▁cenando	-12.5861
▁permitiré	-12.5863
▁pony	-12.5863
▁enfrente	-12.5865
▁cured	-12.5865
▁limpiado	-12.5866
cidimos	-12.5868
▁callada	-12.587
▁salty	-12.5871
▁flexible	-12.5871
▁descubrirá	-12.5872
▁intentamos	-12.5872
▁canceló	-12.5873
▁inseguro	-12.5874
wed	-12.5874
▁indios	-12.5874
▁muelas	-12.5874
▁cucarachas	-12.5874
▁hamburgers	-12.5874
▁freezes	-12.5874
▁disturbed	-12.5874
▁visitantes	-12.5875
▁llamarle	-12.5875
▁comparta	-12.5875
▁patas	-12.5877
▁fasten	-12.5877
▁italiana	-12.5878
▁increased	-12.5878
▁bate	-12.5881
▁lamentar	-12.5881
▁ironed	-12.5883
▁escucharon	-12.5886
▁visitarle	-12.5887
▁planeamos	-12.5888
▁conocerlo	-12.5888
▁salada	-12.5889
▁completar	-12.5889
▁terminarlo	-12.589
▁sáca	-12.5892
▁cruzado	-12.5893
cendió	-12.5895
▁boasts	-12.5896
▁stinks	-12.5896
▁owls	-12.5896
▁dolphins	-12.5896
▁asians	-12.5896
▁cultivos	-12.5896
▁detente	-12.5896
▁travelers	-12.5899
▁gal	-12.5899
▁conducía	-12.5899
▁planchar	-12.5899
▁helados	-12.59
▁creerlo	-12.59
▁irrelevante	-12.59
▁pensaría	-12.59
▁echarme	-12.5902
▁toser	-12.5902
▁poorly	-12.5902
▁stores	-12.5903
▁conocerle	-12.5903
▁anchor	-12.5905
▁armado	-12.5905
▁strongly	-12.5908
vivieron	-12.5909
▁cebollas	-12.5917
▁colleagues	-12.5917
▁pigeons	-12.5917
▁terrorists	-12.5918
▁employed	-12.5919
▁flota	-12.592
▁signs	-12.5922
▁decirnos	-12.5922
▁cambiarme	-12.5924
mamente	-12.593
tivos	-12.5931
vendrás	-12.5932
▁examin	-12.5933
▁extraordinaria	-12.5935
▁calculat	-12.5935
▁relaje	-12.5936
fit	-12.5937
▁fumes	-12.5938
▁leaks	-12.5939
▁scraps	-12.5939
▁mueras	-12.5939
▁cría	-12.5941
▁prefieren	-12.5941
▁puño	-12.5941
▁preguntaría	-12.5942
▁hum	-12.5945
▁extinct	-12.5946
▁doblar	-12.5947
▁anti	-12.5947
▁delight	-12.5948
▁bathing	-12.595
▁rías	-12.5951
▁alrededores	-12.5951
▁descubra	-12.5952
cera	-12.5954
▁footing	-12.5957
▁presione	-12.5958
estaría	-12.596
▁lavarropas	-12.5961
▁hacés	-12.5961
▁cantes	-12.5961
▁haríamos	-12.5961
▁dais	-12.5968
▁encontrarla	-12.5975
▁seller	-12.5975
▁formed	-12.5977
▁islas	-12.5977
illos	-12.5979
▁culpado	-12.5981
▁mascotas	-12.5983
▁codos	-12.5983
▁docenas	-12.5983
▁surf	-12.5985
▁christians	-12.5987
▁creerá	-12.5991
▁lidiar	-12.5991
▁reales	-12.5991
▁modernos	-12.5994
ana	-12.5996
▁suspendi	-12.6
▁peaceful	-12.6002
sant	-12.6003
▁abejas	-12.6005
▁spie	-12.6007
▁salgan	-12.6007
▁noel	-12.6009
▁pisos	-12.6009
▁dolores	-12.6011
ack	-12.6017
▁argumento	-12.6022
▁disfrutan	-12.6024
▁abiertas	-12.6025
▁temen	-12.6035
▁comenzará	-12.6037
jaba	-12.6045
▁relojes	-12.6048
▁estimate	-12.6048
▁slices	-12.6049
▁kites	-12.6049
alizado	-12.6053
▁ping	-12.6054
▁union	-12.6056
▁exceptions	-12.606
▁plantar	-12.6062
irse	-12.6064
adores	-12.6064
▁hablaban	-12.6066
▁importado	-12.607
▁ingresar	-12.6071
▁violenta	-12.6082
▁decida	-12.6083
▁mejoró	-12.6084
▁compensar	-12.6087
▁debían	-12.6087
▁smoked	-12.6088
▁cámaras	-12.6092
▁límites	-12.6093
▁characters	-12.6093
ridad	-12.6096
▁economics	-12.6096
▁ordena	-12.6097
▁atacar	-12.6099
▁proven	-12.6101
▁ayudarlos	-12.6104
▁tierras	-12.611
▁secos	-12.6112
▁últimas	-12.6116
▁preguntaste	-12.6119
▁expres	-12.6129
▁aceptara	-12.6133
▁cortés	-12.6134
▁adivine	-12.6142
coming	-12.6146
▁diseñ	-12.615
▁pila	-12.6152
▁cro	-12.6156
▁pesadillas	-12.616
vida	-12.616
▁ch	-12.6163
▁cometas	-12.6165
▁morirá	-12.6166
▁favorable	-12.6168
▁cantan	-12.6168
▁armar	-12.617
▁ants	-12.6171
▁acostumbra	-12.6172
▁compraré	-12.6172
urged	-12.6186
▁za	-12.6194
right	-12.6195
▁eater	-12.6201
▁misa	-12.6202
▁guardias	-12.6205
▁dejaba	-12.6206
▁oscuras	-12.6207
▁enterr	-12.6209
▁quedate	-12.6211
▁envi	-12.6212
▁consumi	-12.6214
▁amables	-12.6215
▁amado	-12.6218
▁imitar	-12.6222
▁hatch	-12.6223
▁pidas	-12.6224
▁machines	-12.6238
▁demandas	-12.6241
▁decepcione	-12.6242
▁photographs	-12.6249
sitting	-12.6249
bieron	-12.6253
▁librar	-12.6254
▁intent	-12.6257
▁percat	-12.6265
af	-12.6269
▁regreses	-12.6269
▁falt	-12.6271
▁cosechas	-12.6271
▁matará	-12.6275
uta	-12.6278
▁extrañas	-12.6284
▁obligar	-12.6286
▁pierdes	-12.6294
▁testigos	-12.6294
▁desp	-12.6294
▁tardar	-12.6295
▁veían	-12.6297
▁expertos	-12.6302
▁estudian	-12.6307
▁pato	-12.6315
▁medidas	-12.6316
▁recibier	-12.6321
▁comerse	-12.6322
▁aguard	-12.6328
▁manifestan	-12.6328
▁ji	-12.6334
▁francesas	-12.6341
yendo	-12.6346
▁flo	-12.6348
▁recorte	-12.6353
▁questioned	-12.6359
▁tests	-12.6361
▁apariencias	-12.6362
▁impacientes	-12.6362
▁mencionar	-12.6371
▁finja	-12.638
▁causas	-12.6392
▁ships	-12.6394
▁confies	-12.64
▁ro	-12.6414
▁experts	-12.6428
▁lindos	-12.6431
▁vivirá	-12.6451
▁permití	-12.6452
▁decor	-12.6454
▁desayunas	-12.6459
▁hicieran	-12.646
hei	-12.6466
imiento	-12.648
▁pisa	-12.648
▁sopla	-12.649
hu	-12.6492
tales	-12.6494
▁sujeta	-12.6495
▁cam	-12.6497
▁ceder	-12.6501
tomas	-12.6502
▁veranos	-12.6502
nzaron	-12.6514
▁cubr	-12.6514
▁tear	-12.6515
avo	-12.6528
▁shoulders	-12.6532
▁quedaras	-12.6539
▁host	-12.655
▁bajos	-12.6559
▁barcos	-12.6564
▁motivos	-12.6567
▁vendrán	-12.6573
▁encantar	-12.6577
table	-12.6588
▁llenar	-12.6606
tained	-12.6608
▁chu	-12.661
▁dormitorios	-12.6613
▁artículos	-12.6613
aped	-12.6614
cubre	-12.6623
gle	-12.6627
▁choices	-12.6629
▁presenta	-12.6641
riendo	-12.6648
▁ganara	-12.665
▁arriesgar	-12.6651
▁computadoras	-12.6653
▁nu	-12.6653
▁costumbres	-12.6659
lder	-12.6667
uf	-12.6674
▁founded	-12.6677
▁pagas	-12.6678
▁comerla	-12.6688
▁mejora	-12.6689
▁miran	-12.6689
irte	-12.6695
▁tag	-12.6695
▁quitas	-12.6699
▁enamorar	-12.6702
▁invade	-12.6706
▁corresponde	-12.671
▁consola	-12.6716
▁peleas	-12.6716
▁corri	-12.6721
▁dies	-12.6726
▁seasons	-12.6729
cito	-12.6731
▁aconseja	-12.6734
▁alza	-12.6742
▁banne	-12.6743
▁fábricas	-12.6752
▁renta	-12.6757
idos	-12.677
▁lana	-12.6771
▁hats	-12.6799
▁preste	-12.6816
▁bord	-12.6816
▁award	-12.6817
▁descanse	-12.6818
▁gustos	-12.6822
cena	-12.6829
▁écha	-12.6831
▁sc	-12.6878
▁cerra	-12.6885
▁limita	-12.6891
aremos	-12.6892
▁modos	-12.6896
▁regal	-12.6904
▁exercises	-12.6912
ori	-12.6913
mina	-12.6917
▁provoca	-12.6932
▁speakers	-12.6936
▁recost	-12.6937
▁cantara	-12.6937
▁entendi	-12.695
▁emp	-12.6959
érgico	-12.6968
▁raras	-12.6988
▁trans	-12.6994
día	-12.6999
▁burla	-12.701
▁escal	-12.7014
ili	-12.7015
▁agit	-12.7016
▁propus	-12.7017
▁bells	-12.703
▁chin	-12.7044
▁enterar	-12.7044
▁reun	-12.7047
▁cuestion	-12.7052
ap	-12.7067
▁golpea	-12.707
ario	-12.7074
▁captura	-12.7094
▁banks	-12.71
▁mondays	-12.7102
▁fij	-12.7106
cción	-12.7113
▁gi	-12.7126
▁leap	-12.7131
▁mantene	-12.7133
▁recuper	-12.7136
▁fra	-12.7149
tiva	-12.7157
volverá	-12.7162
▁moj	-12.7166
▁envejec	-12.7171
▁choca	-12.7172
puso	-12.7176
▁conocías	-12.7184
toca	-12.72
liz	-12.7201
▁lesion	-12.7201
▁pónga	-12.7205
tiles	-12.7212
▁pospus	-12.7217
nero	-12.7219
▁portar	-12.7222
ssured	-12.7229
▁pelotas	-12.7231
fer	-12.7231
acción	-12.7234
▁pose	-12.724
▁retrasa	-12.7241
▁chatte	-12.7245
ddling	-12.7247
leading	-12.7257
jó	-12.7262
▁elegi	-12.7264
▁lees	-12.7269
▁felicitar	-12.7276
▁acud	-12.7278
pón	-12.7287
▁sudar	-12.7292
ence	-12.7293
light	-12.7294
▁odias	-12.7295
▁tratas	-12.73
▁reza	-12.7303
dir	-12.7308
▁pun	-12.7309
▁serie	-12.7322
▁instrument	-12.733
▁telefone	-12.733
▁comience	-12.7338
▁permít	-12.7342
▁ninja	-12.7342
▁esclavo	-12.7343
▁expire	-12.7343
▁channel	-12.7345
▁órgano	-12.7345
▁conduzca	-12.7345
▁voto	-12.7345
▁consulte	-12.7345
▁lung	-12.7345
▁brace	-12.7345
▁muera	-12.7348
▁films	-12.7348
▁fruits	-12.7349
▁interroga	-12.7349
▁pein	-12.7349
▁hueso	-12.7351
▁instrumento	-12.7351
▁wave	-12.7351
▁británico	-12.7352
▁labio	-12.7353
▁herramienta	-12.7353
▁pulga	-12.7353
▁option	-12.7353
▁impuesto	-12.7354
▁galleta	-12.7355
hio	-12.7355
▁guest	-12.7356
▁bone	-12.7359
▁european	-12.7359
▁bombero	-12.7361
▁aparc	-12.7361
sible	-12.7365
▁vegetariano	-12.7366
gué	-12.737
▁medita	-12.7372
▁freno	-12.7374
▁scrap	-12.7375
▁continu	-12.7383
▁bars	-12.7383
▁mezcl	-12.7384
▁fume	-12.7385
▁rescat	-12.7392
▁incompetent	-12.7393
▁conform	-12.7394
▁natives	-12.7399
▁añadi	-12.7403
▁cobrar	-12.7403
▁leak	-12.7407
▁sentimiento	-12.7408
▁despreci	-12.741
iar	-12.7414
irme	-12.7415
▁urban	-12.7419
▁tolerar	-12.7426
fashioned	-12.7428
creéis	-12.7429
▁pensá	-12.743
▁tribu	-12.7432
room	-12.7432
¡	-12.7434
conocés	-12.7435
lloverá	-12.7437
down	-12.7437
ayuda	-12.7437
acepta	-12.7437
capable	-12.7437
viniste	-12.7437
américa	-12.7438
vosotros	-12.7438
box	-12.7438
judge	-12.7438
hiciste	-12.7438
trabaja	-12.7438
great	-12.7438
together	-12.7438
▁monta	-12.7438
sentimiento	-12.7438
▁eleva	-12.7439
▁conflict	-12.744
comer	-12.7441
▁sueña	-12.7442
▁vuela	-12.7445
▁froze	-12.7446
▁persuadi	-12.7446
hold	-12.7448
▁describir	-12.7449
▁arrogant	-12.7451
▁envía	-12.7453
ley	-12.7453
▁comedia	-12.7457
anda	-12.7457
▁consent	-12.7459
struyó	-12.7459
▁elect	-12.746
aleja	-12.7461
torio	-12.7462
▁frighten	-12.7462
▁approach	-12.7463
▁fallo	-12.7465
solo	-12.7465
▁wi	-12.7469
▁cuénta	-12.7471
▁release	-12.7471
away	-12.7471
▁amuse	-12.7472
▁bolsas	-12.7472
▁revise	-12.7473
▁fiel	-12.7473
▁relie	-12.7474
▁scold	-12.7474
▁desconocid	-12.7475
▁guárda	-12.7475
▁sail	-12.7476
▁appeti	-12.7477
▁déja	-12.7477
▁espacial	-12.7477
▁occidental	-12.7478
▁mantel	-12.7479
▁actividad	-12.7479
her	-12.748
▁obsolet	-12.748
▁inund	-12.748
▁ronca	-12.748
▁attentive	-12.7481
▁escoge	-12.7482
▁proper	-12.7482
▁propone	-12.7482
▁rapid	-12.7482
▁guilt	-12.7483
▁murmur	-12.7483
▁imprudente	-12.7483
▁quinient	-12.7484
brieron	-12.7484
▁mug	-12.7484
▁enséñ	-12.7484
▁identi	-12.7485
ollywood	-12.7485
▁scienti	-12.7485
▁aboli	-12.7485
icycle	-12.7486
▁ingenio	-12.7486
debe	-12.7486
▁territor	-12.7486
▁cepíll	-12.7486
▁acepté	-12.7486
▁proceed	-12.7486
oportuno	-12.7486
zhou	-12.7486
ófono	-12.7486
▁acantilado	-12.7486
▁acarici	-12.7486
▁alexand	-12.7486
▁ambición	-12.7486
▁amplia	-12.7486
▁approval	-12.7486
▁aprendizaje	-12.7486
▁astronomy	-12.7486
▁background	-12.7486
▁backward	-12.7486
▁birome	-12.7486
▁blackmailed	-12.7486
▁básica	-12.7486
▁cachorrito	-12.7486
▁caigo	-12.7486
▁callejón	-12.7486
▁campesino	-12.7486
▁campeón	-12.7486
▁carpintero	-12.7486
▁carretilla	-12.7486
▁catástrofe	-12.7486
▁cayera	-12.7486
▁celsius	-12.7486
▁centímetros	-12.7486
▁certeza	-12.7486
▁circo	-12.7486
▁cocodrilo	-12.7486
▁comandante	-12.7486
▁compromise	-12.7486
▁comunican	-12.7486
▁comunidad	-12.7486
▁conclude	-12.7486
▁conexión	-12.7486
▁construí	-12.7486
▁cricket	-12.7486
▁crocodile	-12.7486
▁cuenco	-12.7486
▁cuervo	-12.7486
▁cuñado	-12.7486
▁cólera	-12.7486
▁dañó	-12.7486
▁deceased	-12.7486
▁decírtelo	-12.7486
▁derribó	-12.7486
▁desacuerdo	-12.7486
▁descompuesto	-12.7486
▁desilusionado	-12.7486
▁desperdicie	-12.7486
▁despidió	-12.7486
▁destruido	-12.7486
▁destruir	-12.7486
▁detroit	-12.7486
▁diabetic	-12.7486
▁disorder	-12.7486
▁distraiga	-12.7486
▁divulg	-12.7486
▁dreadful	-12.7486
▁dripping	-12.7486
▁duplicado	-12.7486
▁ebriedad	-12.7486
▁eclipse	-12.7486
▁eficiente	-12.7486
▁eiffel	-12.7486
▁elogió	-12.7486
▁embrujada	-12.7486
▁enthusiasm	-12.7486
▁escúchame	-12.7486
▁estrecho	-12.7486
▁estresante	-12.7486
▁evacuate	-12.7486
▁eventualmente	-12.7486
▁exceed	-12.7486
▁expedition	-12.7486
▁expliqué	-12.7486
▁eyebrows	-12.7486
▁ferrocarril	-12.7486
▁financieros	-12.7486
▁fingerprints	-12.7486
▁giraffe	-12.7486
▁gramática	-12.7486
▁gratuita	-12.7486
▁greedy	-12.7486
▁gunshot	-12.7486
▁hairdresser	-12.7486
▁hakone	-12.7486
▁happily	-12.7486
▁helsinki	-12.7486
▁hesitation	-12.7486
▁hiciese	-12.7486
▁himalaya	-12.7486
▁honshu	-12.7486
▁hyogo	-12.7486
▁immature	-12.7486
▁immigrants	-12.7486
▁impolite	-12.7486
▁improvis	-12.7486
▁incorr	-12.7486
▁ingleses	-12.7486
▁inhabitants	-12.7486
▁inmaduro	-12.7486
▁inmigrantes	-12.7486
▁insensible	-12.7486
▁intrigued	-12.7486
▁invasores	-12.7486
▁janeiro	-12.7486
▁jirafa	-12.7486
▁jodiendo	-12.7486
▁jubiló	-12.7486
▁karaoke	-12.7486
▁kennedy	-12.7486
▁knives	-12.7486
▁lemonade	-12.7486
▁liquid	-12.7486
▁llanto	-12.7486
▁medication	-12.7486
▁mendigo	-12.7486
▁mercurio	-12.7486
▁mercury	-12.7486
▁mermelada	-12.7486
▁microscope	-12.7486
▁montgomery	-12.7486
▁muerda	-12.7486
▁murciélago	-12.7486
▁mysteries	-12.7486
▁neblina	-12.7486
▁neutral	-12.7486
▁nitrógeno	-12.7486
▁niñera	-12.7486
▁ofendido	-12.7486
▁offensive	-12.7486
▁olfato	-12.7486
▁ordeña	-12.7486
▁orientación	-12.7486
▁otorg	-12.7486
▁pascua	-12.7486
▁patinaje	-12.7486
▁peasant	-12.7486
▁permanezca	-12.7486
▁perspectiva	-12.7486
▁picadura	-12.7486
▁pineapple	-12.7486
▁pioneer	-12.7486
▁plague	-12.7486
▁plumber	-12.7486
▁poesía	-12.7486
▁polonia	-12.7486
▁potential	-12.7486
▁privacidad	-12.7486
▁profile	-12.7486
▁protección	-12.7486
▁pupil	-12.7486
▁quisquilloso	-12.7486
[...]
