.	-2.22544
<s>	0
</s>	0
<unk>	0
▁a	-3.845
▁tom	-3.86091
▁i	-3.98283
'	-3.99879
?	-4.09425
▁the	-4.18917
▁to	-4.23879
s	-4.31792
▁you	-4.38036
▁de	-4.39257
▁no	-4.47202
▁que	-4.48672
▁la	-4.63231
t	-4.73462
▁¿	-4.78824
▁el	-4.80361
▁me	-4.84953
▁is	-4.85135
,	-4.88393
▁he	-4.98322
▁en	-4.99319
▁es	-5.04658
▁un	-5.18979
▁it	-5.29151
▁in	-5.34791
▁mary	-5.38031
▁	-5.39875
▁of	-5.42933
▁that	-5.43468
▁se	-5.48557
▁was	-5.52583
n	-5.5391
▁él	-5.59069
▁do	-5.61675
▁lo	-5.6323
▁have	-5.67728
▁una	-5.68089
▁this	-5.6827
▁my	-5.69969
▁por	-5.727
▁for	-5.80102
▁we	-5.82446
▁she	-5.82612
▁what	-5.86091
▁su	-5.88811
▁mi	-5.92818
▁con	-5.94297
▁los	-5.94604
▁don	-5.95059
▁can	-5.95468
▁está	-5.97325
▁are	-5.99347
▁be	-6.00806
▁le	-6.00951
▁ella	-6.02577
▁his	-6.03188
m	-6.05798
▁did	-6.07864
▁your	-6.08092
▁on	-6.11838
▁with	-6.16154
▁want	-6.16249
▁para	-6.16253
▁al	-6.18338
▁has	-6.19028
▁and	-6.23826
▁not	-6.24843
▁y	-6.25499
▁te	-6.26089
▁like	-6.26836
▁know	-6.29962
▁más	-6.30564
▁las	-6.30752
▁at	-6.38056
▁him	-6.38812
▁there	-6.46757
▁go	-6.47442
re	-6.49309
▁they	-6.49517
▁tu	-6.5116
d	-6.51647
▁yo	-6.53814
▁her	-6.53982
ll	-6.54781
▁qué	-6.56684
ó	-6.58829
▁will	-6.63602
▁time	-6.66554
▁estoy	-6.67119
▁how	-6.68765
▁muy	-6.69281
ed	-6.70159
▁esta	-6.71563
a	-6.71782
▁very	-6.71836
▁had	-6.72161
▁eso	-6.73184
▁este	-6.73476
▁tiene	-6.73805
ve	-6.74935
▁all	-6.77218
▁del	-6.78427
▁here	-6.78876
▁estaba	-6.79403
▁up	-6.79794
▁about	-6.79962
▁quiero	-6.82263
▁si	-6.83144
▁think	-6.83206
qué	-6.83323
▁tengo	-6.84524
!	-6.85201
▁fue	-6.85299
▁casa	-6.8656
▁aquí	-6.87133
▁get	-6.89329
▁out	-6.90543
▁when	-6.90731
▁as	-6.91831
▁hacer	-6.92044
ing	-6.93038
▁from	-6.93427
te	-6.93529
▁como	-6.94189
▁if	-6.96062
▁were	-6.98624
▁who	-6.99544
▁one	-6.997
▁son	-7.0002
▁come	-7.01072
▁ha	-7.02497
▁an	-7.04963
▁could	-7.0508
▁todo	-7.05334
▁algo	-7.0588
▁esto	-7.07295
▁doesn	-7.07625
▁going	-7.08032
▁would	-7.0835
▁by	-7.08872
▁tiempo	-7.0899
▁gusta	-7.11783
▁why	-7.12273
▁see	-7.12295
o	-7.13432
▁good	-7.13524
▁favor	-7.14235
▁tan	-7.17272
▁ir	-7.18953
▁please	-7.1903
▁should	-7.19374
▁so	-7.20282
▁nada	-7.20474
▁just	-7.20717
▁todos	-7.21281
▁puedo	-7.21719
▁been	-7.21877
▁need	-7.21944
▁era	-7.22085
▁hay	-7.22313
▁where	-7.22406
▁let	-7.23535
▁cuando	-7.24359
▁boston	-7.24728
▁tell	-7.25131
▁vez	-7.25249
▁bien	-7.27356
▁mucho	-7.27513
▁help	-7.29414
mos	-7.29822
▁more	-7.29825
▁puede	-7.3142
▁but	-7.33157
▁now	-7.33916
▁than	-7.34657
▁never	-7.36261
por	-7.36311
▁ellos	-7.36498
▁ser	-7.36782
▁us	-7.37025
▁car	-7.3713
es	-7.37144
▁sé	-7.38113
▁some	-7.38769
▁solo	-7.38802
me	-7.39601
▁something	-7.39816
▁got	-7.40222
▁too	-7.41246
▁take	-7.41295
▁mañana	-7.42352
▁nunca	-7.42439
▁day	-7.43027
▁am	-7.44179
▁much	-7.44335
▁last	-7.44447
▁trabajo	-7.44674
▁¡	-7.45948
▁creo	-7.47146
▁money	-7.47982
▁home	-7.4958
▁work	-7.50291
▁ahora	-7.50738
▁dijo	-7.50928
▁people	-7.51116
▁dinero	-7.51503
▁sus	-7.51785
▁hablar	-7.52544
▁ya	-7.53732
▁dos	-7.53821
▁había	-7.5466
é	-7.55648
▁pero	-7.56078
▁tomás	-7.56559
▁back	-7.57801
▁día	-7.61266
▁soy	-7.6219
▁our	-7.63099
▁hace	-7.63261
▁house	-7.63308
▁really	-7.63537
▁siempre	-7.63753
▁book	-7.6417
▁nos	-7.64303
▁went	-7.64318
▁ese	-7.64483
▁many	-7.6477
▁están	-7.64831
▁said	-7.65293
▁libro	-7.65343
▁told	-7.65628
▁must	-7.65962
▁o	-7.66481
▁give	-7.67217
▁any	-7.68083
▁poco	-7.68337
▁anything	-7.69031
▁man	-7.69489
▁lot	-7.69888
▁hoy	-7.70032
▁haber	-7.70155
▁today	-7.71042
▁thought	-7.71111
▁eat	-7.71251
▁say	-7.71527
▁does	-7.71744
▁make	-7.7187
▁quiere	-7.71969
▁voy	-7.7208
▁school	-7.72198
▁room	-7.72255
▁new	-7.72302
▁only	-7.72884
▁va	-7.73068
▁mejor	-7.73411
▁french	-7.73515
▁nadie	-7.7388
▁ver	-7.73925
▁two	-7.74486
▁esa	-7.75208
▁made	-7.75606
▁always	-7.75835
ta	-7.76178
▁tú	-7.76387
▁años	-7.76531
ly	-7.76851
▁estar	-7.77456
▁speak	-7.77574
no	-7.77589
▁father	-7.77832
▁right	-7.77946
▁long	-7.77957
▁idea	-7.78188
▁tarde	-7.78212
se	-7.78298
e	-7.784
▁john	-7.78845
▁sabe	-7.79134
▁francés	-7.79483
▁quería	-7.79635
▁demasiado	-7.7974
▁padre	-7.8
▁maría	-7.80257
▁"	-7.81363
▁three	-7.83004
▁every	-7.83156
▁tenía	-7.83361
▁parece	-7.83689
▁may	-7.83719
▁love	-7.8402
▁hizo	-7.84207
▁old	-7.84335
▁antes	-7.8551
▁tienes	-7.86127
▁tres	-7.87187
▁mis	-7.87279
▁estás	-7.87887
▁well	-7.87905
▁night	-7.88041
▁debería	-7.88601
▁still	-7.89162
▁wanted	-7.89271
▁off	-7.89467
▁look	-7.89783
▁tomorrow	-7.9159
▁noche	-7.91956
-	-7.92025
▁talk	-7.92736
▁before	-7.92755
▁won	-7.929
▁asked	-7.93142
▁hora	-7.93679
dónde	-7.93905
▁over	-7.95086
▁put	-7.95447
▁sin	-7.95597
▁left	-7.95725
▁usted	-7.95999
▁way	-7.96448
▁dog	-7.96779
▁eres	-7.97021
r	-7.97217
▁sobre	-7.97396
▁or	-7.98127
▁leave	-7.98285
▁little	-7.9863
▁ti	-7.99534
▁nothing	-8.00038
▁mí	-8.00071
▁verdad	-8.00196
▁job	-8.00213
▁uno	-8.00218
▁saw	-8.00514
▁hombre	-8.00972
▁ayer	-8.00992
▁perro	-8.01134
▁comer	-8.01309
▁again	-8.0145
▁yesterday	-8.01462
y	-8.01504
▁estado	-8.01907
▁after	-8.02102
cómo	-8.02397
▁live	-8.02406
▁into	-8.02682
▁down	-8.04053
▁puedes	-8.04127
▁better	-8.04377
▁years	-8.04472
▁debe	-8.04834
▁vida	-8.05011
▁english	-8.05866
▁everything	-8.06034
▁mother	-8.06202
quién	-8.0657
▁necesito	-8.06877
▁nuevo	-8.06948
▁alguna	-8.07111
▁find	-8.07119
▁inglés	-8.0755
▁buy	-8.07563
▁stay	-8.07835
▁read	-8.09398
▁came	-8.09589
▁días	-8.09615
le	-8.0989
▁happy	-8.10301
do	-8.10734
▁play	-8.10875
▁first	-8.11353
▁coche	-8.12401
ok	-8.1355
▁decir	-8.13798
▁next	-8.1385
▁gente	-8.14032
▁todavía	-8.14077
▁mismo	-8.14409
▁hecho	-8.14414
▁life	-8.15121
▁tenemos	-8.15146
▁nosotros	-8.15306
▁other	-8.15518
▁understand	-8.15603
▁problema	-8.15791
▁believe	-8.15853
▁children	-8.16228
▁así	-8.16562
▁ask	-8.17392
▁madre	-8.18506
▁gustaría	-8.1924
cuál	-8.19327
▁hard	-8.19404
▁alguien	-8.19864
▁pensé	-8.2001
▁them	-8.20181
▁semana	-8.20845
▁these	-8.21146
▁stop	-8.21866
▁call	-8.21953
▁plan	-8.22644
▁keep	-8.22834
mente	-8.22863
▁bought	-8.2332
▁morning	-8.23916
▁friends	-8.23934
on	-8.24233
▁problem	-8.24473
▁wants	-8.24665
▁otra	-8.24851
▁door	-8.24965
▁sabía	-8.25024
▁name	-8.25484
▁habitación	-8.25527
▁used	-8.2593
▁buen	-8.26312
▁puerta	-8.26331
▁pasado	-8.26357
▁quieres	-8.26365
▁feel	-8.26405
▁their	-8.26667
▁estamos	-8.26864
▁doing	-8.27676
▁ever	-8.27746
▁escuela	-8.27786
▁deberías	-8.28238
▁away	-8.28891
gún	-8.2904
lo	-8.29082
▁después	-8.29251
▁friend	-8.29612
▁dónde	-8.29711
cuánto	-8.30262
▁podría	-8.30564
▁gave	-8.30748
▁doctor	-8.31063
▁cosas	-8.31311
▁soon	-8.31452
▁casi	-8.31813
▁quién	-8.31985
▁mundo	-8.32464
▁late	-8.32481
▁1	-8.32819
▁happened	-8.33197
▁amigos	-8.33613
▁sure	-8.34323
▁niños	-8.35658
▁remember	-8.35674
▁feliz	-8.36012
▁bus	-8.36597
▁fuera	-8.36839
▁ayuda	-8.369
▁saber	-8.3695
▁lost	-8.37243
▁show	-8.37503
▁veces	-8.37599
▁allí	-8.37645
▁hacerlo	-8.37706
▁difícil	-8.3776
▁año	-8.3782
▁already	-8.38288
▁tus	-8.3841
▁year	-8.38414
cuándo	-8.3874
▁cómo	-8.38915
▁pronto	-8.39448
▁sea	-8.39831
▁auto	-8.39964
▁otro	-8.40514
▁enough	-8.40621
▁alone	-8.40631
▁niño	-8.40751
▁boy	-8.40757
▁turn	-8.40913
▁water	-8.40998
▁ni	-8.41162
▁teacher	-8.41246
▁week	-8.41481
▁married	-8.41571
▁heard	-8.41736
á	-8.42062
▁without	-8.42777
."	-8.42954
ble	-8.42971
▁even	-8.42986
▁best	-8.43141
▁seguro	-8.43197
▁agua	-8.43487
▁wrong	-8.43496
▁comprar	-8.43516
▁menos	-8.43561
▁buena	-8.43823
▁dio	-8.43962
▁desde	-8.44001
▁bad	-8.44192
▁busy	-8.44264
▁amigo	-8.44411
▁mal	-8.44677
▁muchos	-8.4473
▁beautiful	-8.44965
cause	-8.44975
▁bed	-8.4499
▁realmente	-8.45507
▁hear	-8.45653
▁try	-8.46112
▁cold	-8.46212
▁often	-8.46216
▁found	-8.46326
▁things	-8.46457
que	-8.46631
▁looking	-8.46901
▁visto	-8.46957
▁comida	-8.47461
▁same	-8.48225
▁wait	-8.48254
▁party	-8.48492
▁ahí	-8.48736
▁vi	-8.48752
▁done	-8.49182
▁conmigo	-8.49247
▁nuestro	-8.49248
▁thing	-8.49249
▁ciudad	-8.49266
▁habla	-8.49281
▁podía	-8.50804
0	-8.50988
▁persona	-8.51197
▁food	-8.5138
puedo	-8.51385
▁vino	-8.51385
▁seen	-8.51462
▁brother	-8.51625
de	-8.51725
▁sólo	-8.51857
▁nombre	-8.519
cada	-8.5196
▁looks	-8.52142
▁train	-8.52341
▁ten	-8.52466
▁person	-8.53306
▁big	-8.5345
▁todas	-8.53716
▁gran	-8.53733
▁everyone	-8.53993
▁use	-8.54261
▁knew	-8.54262
▁personas	-8.54528
▁hermano	-8.54604
▁café	-8.54804
▁answer	-8.54941
▁tener	-8.55727
▁fiesta	-8.55738
▁vas	-8.55795
▁hope	-8.55843
▁open	-8.5588
▁tired	-8.55909
▁tren	-8.56109
▁coffee	-8.56174
en	-8.56601
▁hotel	-8.56662
▁dice	-8.57009
▁knows	-8.57311
▁being	-8.57671
▁toda	-8.57756
▁wish	-8.5778
▁true	-8.58146
▁australia	-8.58908
▁while	-8.58972
▁contigo	-8.59256
▁drink	-8.59335
▁lugar	-8.59826
▁someone	-8.5983
▁learn	-8.59898
▁letter	-8.59979
▁carta	-8.60107
▁haciendo	-8.60115
▁watch	-8.60119
▁likes	-8.60535
▁suficiente	-8.60581
▁around	-8.60688
tuvo	-8.60969
▁japan	-8.61556
▁tanto	-8.61765
▁profesor	-8.61927
▁which	-8.62142
▁once	-8.62183
▁japón	-8.62435
▁les	-8.62728
▁girl	-8.62921
▁yet	-8.63325
▁cama	-8.63333
▁clase	-8.63517
▁policía	-8.6412
▁salir	-8.64217
▁acerca	-8.64364
▁pay	-8.64401
▁hospital	-8.6444
▁leer	-8.6452
▁sleep	-8.65828
▁cuenta	-8.65964
▁world	-8.66024
▁mind	-8.66032
▁bueno	-8.66076
is	-8.66775
▁muchas	-8.66786
▁few	-8.66941
▁books	-8.66995
▁nuestra	-8.67194
▁grande	-8.67216
▁libros	-8.67726
▁momento	-8.67902
▁kind	-8.68088
▁died	-8.68332
most	-8.68589
▁own	-8.68715
▁place	-8.68881
▁days	-8.68931
▁study	-8.6902
▁write	-8.69401
▁diez	-8.69746
▁care	-8.70188
▁most	-8.70551
ndo	-8.70646
▁those	-8.70697
▁truth	-8.70697
▁young	-8.70763
▁sister	-8.71013
▁each	-8.71658
▁pasó	-8.717
ther	-8.71786
▁cerca	-8.72246
▁another	-8.72305
▁hermana	-8.72314
▁parents	-8.72327
▁talking	-8.72514
▁rápido	-8.72633
▁walk	-8.72759
▁siento	-8.72959
▁lunch	-8.73279
▁seems	-8.73324
ando	-8.73497
▁teléfono	-8.73939
▁tv	-8.73939
▁espero	-8.73985
estás	-8.73988
▁family	-8.74269
▁lunes	-8.74269
▁getting	-8.74306
▁anyone	-8.74603
▁happen	-8.74759
▁problemas	-8.74956
▁looked	-8.75214
▁padres	-8.75258
▁hijo	-8.75313
▁vive	-8.75419
▁great	-8.75603
▁historia	-8.7566
▁monday	-8.76014
os	-8.76184
▁afraid	-8.76272
▁fui	-8.76536
▁tried	-8.76611
▁dejó	-8.76633
▁familia	-8.76744
▁pudo	-8.76952
▁early	-8.76954
▁ago	-8.77158
▁sido	-8.77161
▁both	-8.77227
▁anoche	-8.7731
▁aún	-8.77357
▁hate	-8.77732
▁vamos	-8.77842
▁mujer	-8.77908
until	-8.78071
▁mine	-8.78184
▁rain	-8.78522
▁duran	-8.78579
tienes	-8.78772
▁tienen	-8.78939
▁también	-8.79011
▁trabajar	-8.79187
▁vivir	-8.79198
▁puso	-8.79364
▁joven	-8.79549
▁difficult	-8.79667
▁jugar	-8.79693
▁acuerdo	-8.79707
▁horas	-8.7995
▁together	-8.80062
▁cosa	-8.80168
▁gustan	-8.80388
▁venir	-8.80767
▁nueva	-8.80854
▁mayor	-8.81045
▁child	-8.8111
▁dinner	-8.81463
▁cat	-8.81558
▁else	-8.81629
▁estaban	-8.81913
▁wife	-8.82181
▁country	-8.82894
▁murió	-8.82895
l	-8.83135
▁coming	-8.83276
▁since	-8.84316
▁angry	-8.84346
▁aprender	-8.84506
▁entre	-8.84691
▁cinco	-8.84713
▁donde	-8.84723
quieres	-8.84781
▁dije	-8.85064
▁favorite	-8.85081
▁nadar	-8.85742
▁tomar	-8.85861
▁hurt	-8.8604
▁dejar	-8.86084
▁parte	-8.86095
▁himself	-8.86192
▁yourself	-8.86192
▁hice	-8.86192
▁han	-8.86251
▁pregunta	-8.864
▁encontrar	-8.86664
puedes	-8.86961
▁hours	-8.8702
▁mano	-8.87052
▁haven	-8.87309
▁question	-8.87412
▁mesa	-8.8742
▁playing	-8.87518
▁accidente	-8.8758
▁nobody	-8.87693
▁five	-8.87729
▁wouldn	-8.87755
▁meeting	-8.88015
▁ocupado	-8.88692
▁might	-8.88833
▁table	-8.88855
▁phone	-8.89085
▁bastante	-8.89602
▁temprano	-8.89602
▁hand	-8.89767
▁menudo	-8.89992
▁viene	-8.90247
▁gato	-8.90249
▁matter	-8.90252
▁meet	-8.90303
?"	-8.90356
▁piano	-8.90375
▁televisión	-8.90375
▁ayudar	-8.90424
▁pasar	-8.90489
▁everybody	-8.90765
▁llegar	-8.90768
▁mucha	-8.90797
▁reading	-8.90977
▁police	-8.91544
▁easy	-8.91547
▁sorry	-8.91549
▁such	-8.91567
▁gracias	-8.91585
▁accident	-8.9172
has	-8.91834
▁month	-8.92233
▁estudiar	-8.92296
▁volver	-8.92507
▁fácil	-8.92636
▁necesita	-8.92717
▁dormir	-8.92741
▁sí	-8.92783
▁eating	-8.9345
▁pidió	-8.93531
▁camino	-8.93532
▁under	-8.93532
▁lleva	-8.93843
er	-8.9393
▁swim	-8.93934
▁japanese	-8.93936
▁start	-8.93944
▁aren	-8.94207
▁says	-8.94273
▁visit	-8.94273
▁d	-8.94392
▁lives	-8.94732
▁fire	-8.95008
▁última	-8.95051
▁nice	-8.9507
▁far	-8.95211
as	-8.9525
▁waiting	-8.95298
▁solía	-8.95566
▁algunos	-8.96102
▁trying	-8.9612
▁mientra	-8.96377
▁trouble	-8.96588
▁ve	-8.96873
▁park	-8.96875
▁drive	-8.97138
▁estación	-8.97275
▁minutos	-8.97348
▁cansado	-8.97661
▁finished	-8.97728
▁wonder	-8.97923
▁office	-8.98006
▁called	-8.98413
▁decided	-8.98532
▁minutes	-8.98636
▁dicho	-8.98883
▁started	-8.99009
▁dar	-8.9908
▁estos	-8.99526
▁será	-8.99539
▁razón	-8.99731
▁fuerte	-9.00132
▁students	-9.00217
▁podemos	-9.00255
▁thank	-9.00366
▁lado	-9.00381
la	-9.00557
▁small	-9.00574
▁story	-9.00588
▁miedo	-9.0059
▁station	-9.01022
▁sola	-9.01291
▁país	-9.01386
verdad	-9.01416
having	-9.01446
▁myself	-9.01452
▁tonight	-9.01473
▁important	-9.01786
ía	-9.01815
▁preguntó	-9.01894
▁alto	-9.02017
i	-9.02152
▁window	-9.02346
▁tipo	-9.02352
▁ready	-9.02407
▁colegio	-9.02762
▁woman	-9.02763
▁ran	-9.02849
▁shoes	-9.02885
▁met	-9.03035
▁conozco	-9.03202
▁felt	-9.03211
▁error	-9.03615
▁radio	-9.03645
▁arrived	-9.03713
▁importa	-9.03968
▁frío	-9.0409
▁hablando	-9.04126
emos	-9.04174
▁importante	-9.04183
▁sick	-9.04539
▁ventana	-9.04588
▁vio	-9.04764
▁music	-9.04923
▁zapatos	-9.0504
0.	-9.05146
▁red	-9.05171
▁usually	-9.05448
▁city	-9.05888
▁da	-9.06696
▁change	-9.0673
▁working	-9.06797
▁haya	-9.07045
ar	-9.07081
▁hijos	-9.07192
▁música	-9.07257
▁oficina	-9.07257
▁pretty	-9.07258
▁estuvo	-9.07369
▁ate	-9.08125
▁goes	-9.08134
▁pienso	-9.08181
▁hot	-9.08223
▁película	-9.08283
▁word	-9.08337
▁fun	-9.0847
▁fast	-9.08614
▁anymore	-9.08646
▁hubiera	-9.08646
▁fin	-9.09078
▁compró	-9.09113
▁cabeza	-9.09113
▁llegó	-9.09129
▁gone	-9.09192
▁ustedes	-9.09347
▁china	-9.09586
▁homework	-9.10054
▁town	-9.10063
▁rich	-9.10071
▁quisiera	-9.10075
▁punto	-9.10176
▁tal	-9.10228
▁enjoy	-9.10536
▁large	-9.10602
▁broke	-9.10614
▁deja	-9.107
sabes	-9.10727
▁estudiantes	-9.10914
▁needs	-9.11339
▁tennis	-9.11483
▁cualquier	-9.11836
▁bicicleta	-9.11963
▁christmas	-9.11963
▁único	-9.11963
▁reunión	-9.11991
▁esperar	-9.12021
▁fueron	-9.12023
▁spend	-9.12119
▁picture	-9.12121
▁primera	-9.12546
▁mistake	-9.12705
▁contra	-9.12786
▁reloj	-9.12862
▁eyes	-9.12937
▁seis	-9.1312
▁juntos	-9.13345
▁esperando	-9.13432
▁movie	-9.13616
▁ojos	-9.13801
nos	-9.13871
▁six	-9.13917
▁plane	-9.14067
▁run	-9.14088
▁game	-9.14101
▁di	-9.14239
▁near	-9.14398
▁baby	-9.14403
▁fumar	-9.14429
▁media	-9.14592
▁afternoon	-9.14898
▁misma	-9.14904
▁dream	-9.15001
▁language	-9.15098
00	-9.15123
▁times	-9.15154
▁nin	-9.1518
▁high	-9.15382
▁breakfast	-9.15395
▁quite	-9.15513
▁ido	-9.15567
▁edad	-9.15831
▁tenis	-9.15889
▁esposa	-9.15901
▁forget	-9.15992
▁stupid	-9.16396
▁finish	-9.16784
▁creer	-9.16861
ba	-9.17605
▁sueño	-9.17654
▁song	-9.17706
▁quien	-9.17928
hay	-9.1798
▁class	-9.18242
▁río	-9.18433
▁unidos	-9.18521
▁viejo	-9.18686
▁somos	-9.18911
▁hair	-9.18973
▁queda	-9.19143
▁debo	-9.19577
▁canción	-9.19621
▁buscando	-9.19991
▁conducir	-9.19992
▁against	-9.20025
▁pasa	-9.20256
▁caja	-9.20256
▁advice	-9.20511
▁river	-9.20511
▁bring	-9.20512
▁interesting	-9.20525
▁estados	-9.20542
▁listen	-9.20582
▁chico	-9.20799
▁war	-9.20897
▁comes	-9.20927
▁present	-9.21078
▁cake	-9.21332
▁haga	-9.21427
▁compré	-9.21567
▁ganas	-9.21612
▁ra	-9.21877
▁verte	-9.21964
▁escribir	-9.22015
▁bajo	-9.22046
▁caught	-9.22099
▁fish	-9.22546
▁lived	-9.2259
▁guerra	-9.22633
▁summer	-9.22639
▁fell	-9.22657
▁pueda	-9.22955
▁palabra	-9.22956
▁milk	-9.2318
▁smoking	-9.23183
ever	-9.23227
▁studying	-9.23334
▁through	-9.23712
▁salió	-9.23714
▁face	-9.23878
▁number	-9.24041
▁perder	-9.2411
▁began	-9.24256
▁parecía	-9.24259
▁along	-9.24267
▁número	-9.24594
▁kill	-9.24649
▁close	-9.25074
▁longer	-9.25409
▁veo	-9.25465
▁verano	-9.25693
▁oído	-9.25724
▁avión	-9.25904
▁weather	-9.25904
▁sol	-9.25945
▁re	-9.26069
▁tienda	-9.26266
▁respuesta	-9.26276
▁llave	-9.2628
▁free	-9.26314
▁calle	-9.26753
▁b	-9.26762
not	-9.26992
▁pueden	-9.26998
▁lejos	-9.27019
▁cree	-9.2725
▁taxi	-9.27398
▁cuarto	-9.27579
▁dólares	-9.27584
▁leche	-9.27597
▁sabes	-9.27609
▁pensar	-9.27867
▁interesante	-9.27977
▁autobús	-9.28144
▁sería	-9.28164
í	-9.28185
▁iba	-9.28355
▁manera	-9.28548
▁chica	-9.28555
▁perdido	-9.28713
▁later	-9.28886
▁full	-9.2909
▁bebé	-9.2911
▁chance	-9.29128
▁dolor	-9.29142
▁older	-9.29342
▁short	-9.29794
▁sit	-9.29935
▁terminar	-9.29936
da	-9.30236
▁médico	-9.30287
▁kept	-9.30437
▁navidad	-9.30437
▁death	-9.30442
▁cierto	-9.30479
▁mean	-9.30669
▁usar	-9.30767
▁hour	-9.30897
▁secret	-9.31006
▁america	-9.31155
▁watching	-9.31212
▁snow	-9.31825
▁bit	-9.32031
▁makes	-9.32104
▁age	-9.32282
▁mío	-9.32387
▁box	-9.32586
▁pelo	-9.32619
▁juego	-9.32673
▁dark	-9.32771
▁living	-9.32783
▁ropa	-9.32783
▁quedó	-9.32808
ado	-9.33183
▁street	-9.33267
▁vivo	-9.33269
▁thinking	-9.33333
▁capaz	-9.33442
▁sat	-9.33466
▁killed	-9.33509
▁light	-9.33733
▁llevar	-9.33756
▁tree	-9.33885
▁cut	-9.33959
▁parque	-9.33998
▁esté	-9.34194
▁clean	-9.34347
▁student	-9.34496
▁vos	-9.34614
be	-9.34656
▁oír	-9.34953
▁loves	-9.34983
▁enfermo	-9.35186
▁ven	-9.35195
▁sometimes	-9.35285
▁encanta	-9.35694
▁ningun	-9.35697
▁spoke	-9.35795
▁became	-9.35802
▁encontré	-9.35831
▁pie	-9.36142
▁cámara	-9.36321
▁libre	-9.36332
▁regalo	-9.36347
▁vaya	-9.36542
▁par	-9.36553
▁end	-9.36606
está	-9.36731
▁perdió	-9.37026
▁surprised	-9.37102
▁seem	-9.37193
▁hands	-9.3724
▁die	-9.373
▁stand	-9.37484
▁camera	-9.37591
▁computer	-9.37595
▁bicycle	-9.37647
▁white	-9.37658
▁part	-9.3769
▁trust	-9.3816
▁hija	-9.38208
▁daughter	-9.38223
▁hurry	-9.38272
▁forgot	-9.38272
▁muerte	-9.38273
▁born	-9.3828
▁dollars	-9.38408
▁preguntas	-9.38449
▁tokyo	-9.38901
▁hungry	-9.38902
▁pude	-9.38903
▁york	-9.3891
▁luz	-9.38922
▁estas	-9.39045
▁questions	-9.39166
▁entender	-9.39484
▁cuidado	-9.3954
▁stopped	-9.39541
c	-9.39585
▁cara	-9.39629
▁sos	-9.39788
▁manos	-9.39916
▁listo	-9.39981
▁real	-9.40131
▁quit	-9.40261
▁wine	-9.4027
▁miss	-9.40375
▁forma	-9.4072
▁store	-9.40776
▁company	-9.40812
▁vacaciones	-9.40812
▁realidad	-9.40815
taking	-9.41301
▁glad	-9.41413
▁terrible	-9.41429
▁consejo	-9.41454
▁duro	-9.41565
▁primero	-9.41622
▁tocar	-9.41951
▁mak	-9.4203
▁pequeño	-9.42117
▁beber	-9.42234
al	-9.42317
▁posible	-9.42732
▁hambre	-9.4276
▁birthday	-9.4276
▁acá	-9.42761
▁cuanto	-9.42763
▁calor	-9.42764
▁secreto	-9.42858
▁moment	-9.4324
▁news	-9.43241
▁careful	-9.43381
ra	-9.43414
▁pregunto	-9.43422
▁hold	-9.43435
▁dead	-9.43447
▁queremos	-9.43707
▁drunk	-9.44079
▁spent	-9.4408
▁ojal	-9.44101
▁niña	-9.4411
▁espera	-9.44189
▁culpa	-9.4439
▁necesitas	-9.44425
▁lie	-9.44598
▁falta	-9.44601
▁tokio	-9.44747
▁vuelta	-9.44782
▁10	-9.45104
▁e	-9.45273
▁banco	-9.45418
▁odio	-9.45419
tom	-9.45432
▁volvió	-9.4546
▁largo	-9.45463
▁hit	-9.45598
▁haci	-9.45802
able	-9.4598
▁rest	-9.46102
▁tea	-9.46121
▁déjame	-9.46121
▁siquiera	-9.46124
▁extraño	-9.46147
▁whe	-9.46223
clock	-9.46298
▁cena	-9.46395
▁trabaja	-9.46582
▁saying	-9.46635
▁cumpleaños	-9.46776
▁clothes	-9.4678
▁viaje	-9.46847
▁entiendo	-9.46855
▁malo	-9.47076
▁hagas	-9.4708
▁cocina	-9.47089
▁beer	-9.47333
▁follow	-9.47338
▁behind	-9.47459
▁equipo	-9.47464
▁terminado	-9.47475
▁flores	-9.47481
▁empezó	-9.47483
▁hombres	-9.47512
▁rico	-9.47533
▁llama	-9.47754
▁cost	-9.47831
▁hiciste	-9.48147
▁cerveza	-9.48149
▁suerte	-9.48149
▁sing	-9.48209
▁become	-9.48242
▁entrar	-9.48519
▁crees	-9.48693
▁ruido	-9.48791
▁business	-9.4884
▁té	-9.4891
▁recuerdo	-9.48926
▁van	-9.48945
▁flowers	-9.49316
▁oportunidad	-9.49471
▁tío	-9.49547
▁novia	-9.4962
▁pagar	-9.50107
▁cantar	-9.50132
▁cuatro	-9.50247
▁japonés	-9.50248
▁perros	-9.50292
▁canadian	-9.50358
▁touch	-9.50759
▁dur	-9.50924
▁wrote	-9.50964
▁head	-9.50973
▁haré	-9.50997
▁justo	-9.51075
▁eaten	-9.51086
▁building	-9.51087
▁foto	-9.51089
▁estudiante	-9.51096
▁dogs	-9.5126
▁piensa	-9.5143
▁árbol	-9.51605
▁próximo	-9.5167
ween	-9.5167
▁possible	-9.5167
▁expensive	-9.51672
▁jamás	-9.51679
▁os	-9.5175
▁works	-9.51819
▁send	-9.51882
▁changed	-9.51903
▁prefer	-9.51922
an	-9.5198
▁helped	-9.52059
▁speaking	-9.52214
▁compañía	-9.52389
▁paper	-9.52537
▁advise	-9.52553
▁allá	-9.52743
▁dress	-9.52925
▁final	-9.52992
▁black	-9.53114
▁girlfriend	-9.5312
▁nieve	-9.5312
▁catch	-9.53124
▁pensando	-9.53128
▁wearing	-9.53194
▁lengua	-9.53273
▁esperaba	-9.53456
▁stayed	-9.53628
▁trip	-9.53749
▁others	-9.53838
▁uncle	-9.53844
▁vista	-9.53845
▁four	-9.53989
▁asunto	-9.5401
▁aconsej	-9.54137
ste	-9.54297
▁cook	-9.54369
▁speaks	-9.5471
▁reason	-9.54747
▁tarea	-9.54758
▁sunday	-9.5476
▁key	-9.54769
▁team	-9.5484
▁bet	-9.54937
▁blame	-9.55206
▁outside	-9.55334
▁travel	-9.55389
▁quieras	-9.55402
▁gets	-9.55478
▁palabras	-9.55618
▁conoce	-9.55956
▁color	-9.56006
▁golf	-9.56055
▁anybody	-9.56066
▁decidió	-9.56068
▁break	-9.56154
▁bank	-9.56232
podrías	-9.56245
aron	-9.56602
▁única	-9.56818
▁dame	-9.5692
▁estaré	-9.56979
▁cuánto	-9.56989
▁visitar	-9.56996
▁estará	-9.57112
▁pain	-9.57269
▁strange	-9.57496
▁cuándo	-9.57611
▁order	-9.57676
amos	-9.57758
▁cup	-9.57795
▁canadiense	-9.578
▁extranjero	-9.57801
▁tall	-9.57864
▁otros	-9.57921
▁acaba	-9.58246
▁running	-9.5834
▁famous	-9.58341
▁lista	-9.5843
▁pan	-9.58463
▁mujeres	-9.58487
▁ice	-9.58525
▁puesto	-9.58564
▁oí	-9.58872
▁heart	-9.58948
▁asleep	-9.59108
▁edificio	-9.59108
▁women	-9.59108
▁examen	-9.59119
▁necesitamos	-9.59251
▁worked	-9.59303
▁vestido	-9.59325
▁point	-9.59369
▁needed	-9.59621
▁thinks	-9.59629
▁dentro	-9.59884
▁último	-9.59884
▁perdí	-9.59889
▁fuego	-9.59935
▁salud	-9.59936
▁equivocado	-9.60123
▁pequeña	-9.60135
▁whole	-9.60288
▁lose	-9.6065
▁biblioteca	-9.60665
▁taza	-9.60666
▁glasses	-9.60723
▁noise	-9.60891
▁sound	-9.60948
▁eran	-9.60954
▁carne	-9.60966
▁debemos	-9.60976
▁apena	-9.6135
▁strong	-9.61407
▁herself	-9.61452
▁proud	-9.61452
▁floor	-9.61452
▁amor	-9.61551
▁diccionario	-9.61691
▁escuchar	-9.61719
▁different	-9.62204
▁llover	-9.62223
▁decisión	-9.62246
▁dangerous	-9.62247
▁exactly	-9.62251
▁quickly	-9.62256
▁paid	-9.62263
ron	-9.62544
▁aquel	-9.63002
▁baseball	-9.63046
▁dictionary	-9.63046
▁éxito	-9.63046
▁sombrero	-9.63047
▁library	-9.63048
▁tenido	-9.63071
▁trabajando	-9.63073
▁caminar	-9.63101
▁offer	-9.63122
▁raining	-9.63266
▁air	-9.63612
▁explain	-9.63731
▁crazy	-9.63852
▁jardín	-9.63852
▁lluvia	-9.63852
▁poder	-9.63855
▁montón	-9.63889
▁quieren	-9.64157
▁bag	-9.6417
▁conseguir	-9.64375
▁sale	-9.64499
▁worry	-9.64569
▁fútbol	-9.64665
▁interested	-9.64695
▁primer	-9.65112
▁win	-9.65194
▁popular	-9.65212
▁telephone	-9.6533
▁cayó	-9.65487
▁club	-9.65487
▁encontró	-9.65492
▁exactamente	-9.65497
▁least	-9.6555
▁loved	-9.65582
▁move	-9.65582
▁empezar	-9.65683
▁restaurant	-9.65684
▁gatos	-9.65752
▁restaurante	-9.65828
▁muerto	-9.65835
▁cats	-9.65994
▁return	-9.66191
▁alrededor	-9.66242
▁safe	-9.66268
▁treinta	-9.66311
▁frente	-9.66321
▁hide	-9.66336
▁agree	-9.66506
▁mala	-9.66621
▁haría	-9.66688
▁waited	-9.66714
▁cenar	-9.66775
▁pass	-9.66966
▁poner	-9.671
▁front	-9.67146
▁sitio	-9.67148
▁thirty	-9.67203
▁errores	-9.67268
▁decirle	-9.67348
▁problems	-9.67471
▁favorito	-9.67497
▁words	-9.67798
▁health	-9.67951
▁concert	-9.67985
▁siete	-9.67986
▁"¿	-9.67994
▁pensaba	-9.67995
▁leyendo	-9.68
▁llorar	-9.68002
▁sentido	-9.68003
▁entonces	-9.68019
▁weight	-9.68089
▁camisa	-9.68349
▁blanco	-9.68362
▁tenga	-9.68394
▁takes	-9.68435
▁loco	-9.68591
g	-9.68723
▁swimming	-9.68833
▁probabl	-9.68834
▁men	-9.68836
▁baño	-9.68837
▁lucky	-9.6885
▁concierto	-9.68868
"	-9.68935
▁severa	-9.68935
▁abogado	-9.69226
▁inteligente	-9.69237
eres	-9.69345
▁mistakes	-9.69393
▁played	-9.69416
▁mad	-9.69476
▁garden	-9.69566
▁cry	-9.69595
▁certain	-9.69687
▁half	-9.69689
▁guitarra	-9.69694
▁dijiste	-9.69698
▁seven	-9.69715
▁atención	-9.69716
▁mira	-9.69933
▁sal	-9.70243
▁sigue	-9.70268
▁poor	-9.7049
▁peligro	-9.70537
▁guitar	-9.70542
▁béisbol	-9.70549
▁television	-9.70549
ción	-9.70553
▁jugando	-9.70557
▁wear	-9.70581
▁seemed	-9.70731
▁result	-9.70828
▁deal	-9.70877
▁evening	-9.70888
cuánta	-9.70942
▁dormido	-9.70959
ited	-9.7096
▁ganar	-9.71074
▁broken	-9.71263
el	-9.71279
▁glass	-9.71354
▁prefiero	-9.71419
▁estudiando	-9.71431
▁pasando	-9.71468
▁finally	-9.71471
▁venga	-9.71472
▁walked	-9.71741
▁opened	-9.71807
▁caso	-9.7184
▁shirt	-9.71903
u	-9.72052
▁almuerzo	-9.72296
▁road	-9.72296
▁somebody	-9.72296
▁umbrella	-9.72296
▁side	-9.7232
▁pasada	-9.72323
▁vendrá	-9.72351
cabo	-9.72369
▁estuve	-9.7253
▁clases	-9.72593
▁pens	-9.72789
▁aire	-9.72847
▁guess	-9.7311
▁dirección	-9.73181
▁miró	-9.73183
▁animales	-9.73231
▁missed	-9.73387
▁llamar	-9.73403
▁choice	-9.73623
▁movies	-9.73748
▁expect	-9.73858
▁nuestros	-9.74072
▁paraguas	-9.74074
rought	-9.74075
▁comió	-9.74075
▁husband	-9.7408
▁entró	-9.74081
▁cuesta	-9.74081
▁dime	-9.74186
▁haz	-9.74197
▁sad	-9.74238
ada	-9.74389
▁talked	-9.74812
▁accept	-9.7484
ate	-9.74917
▁quizá	-9.74975
▁feeling	-9.74997
▁shut	-9.75072
▁mía	-9.75312
▁lawyer	-9.75472
▁abuelo	-9.75479
▁minute	-9.75534
▁seguir	-9.75583
▁pedí	-9.75633
▁realize	-9.758
▁peor	-9.75813
▁clear	-9.75841
▁llamó	-9.75884
▁universidad	-9.75884
▁figure	-9.75885
▁lying	-9.75887
▁deberes	-9.75914
▁sell	-9.76052
▁estaría	-9.76103
▁learned	-9.76268
▁patient	-9.76337
▁barco	-9.76384
▁apple	-9.76459
▁rules	-9.76607
▁sent	-9.76704
▁either	-9.76801
▁situación	-9.76802
▁siendo	-9.76823
▁driver	-9.76878
▁states	-9.77
▁smoke	-9.77143
▁estúpido	-9.77326
vas	-9.77595
▁rompió	-9.77727
▁feed	-9.77768
▁forward	-9.77822
▁animals	-9.77828
▁meat	-9.77882
▁hat	-9.78088
▁fine	-9.78106
▁dance	-9.78483
▁thanks	-9.78661
▁attention	-9.78662
▁completamente	-9.78666
▁mamá	-9.78669
▁crying	-9.78765
▁viven	-9.78838
▁arm	-9.78916
▁control	-9.79158
▁estabas	-9.79228
▁peso	-9.79237
▁wall	-9.79241
▁ok	-9.79258
▁pick	-9.79497
▁piensas	-9.79554
▁danger	-9.79604
▁driving	-9.79605
▁leaving	-9.79605
▁opinión	-9.79605
▁situation	-9.79606
▁habría	-9.79608
▁paris	-9.79632
▁rato	-9.79641
▁fishing	-9.79773
▁digas	-9.79837
▁visited	-9.79888
▁drinking	-9.7992
▁seeing	-9.80028
▁promise	-9.80055
▁wash	-9.80081
▁case	-9.80329
▁twice	-9.80558
▁probablemente	-9.80572
▁finalmente	-9.80593
▁solve	-9.80612
▁boys	-9.80975
▁lago	-9.80991
▁arrive	-9.81011
▁mar	-9.8115
▁minuto	-9.81191
▁responder	-9.81264
▁normal	-9.81458
▁pudiera	-9.81519
▁parís	-9.81519
▁vacation	-9.8152
▁winter	-9.8152
▁share	-9.8152
▁desk	-9.81527
▁alive	-9.81567
▁invited	-9.81614
▁sala	-9.81626
▁pen	-9.81633
▁sentó	-9.81663
turned	-9.81713
▁irme	-9.81802
▁vale	-9.81825
▁llev	-9.82001
▁decision	-9.82077
▁hermosa	-9.82149
aba	-9.82199
▁p	-9.82268
▁test	-9.82464
▁playa	-9.82469
▁invierno	-9.82492
▁imposible	-9.82493
▁ocupada	-9.82494
▁ocurrió	-9.82499
▁completely	-9.82504
▁llevaba	-9.82623
▁trata	-9.82681
▁closed	-9.82757
▁ello	-9.82959
▁kids	-9.83022
▁medio	-9.83088
▁seat	-9.83162
▁cambiar	-9.83216
▁causa	-9.83262
puede	-9.83287
▁cuchillo	-9.8347
▁excuse	-9.8347
▁suppose	-9.8347
▁traffic	-9.8347
▁divertido	-9.83471
▁airport	-9.83471
▁terminó	-9.83477
▁address	-9.83478
▁papá	-9.83484
▁grandfather	-9.83491
to	-9.83529
▁lake	-9.83622
▁ayudarte	-9.83704
▁known	-9.8385
▁pedir	-9.83889
▁second	-9.84123
▁mountain	-9.84153
▁resolver	-9.84176
▁papel	-9.84394
▁boca	-9.84431
▁blue	-9.84461
▁próxima	-9.84461
▁worried	-9.84462
▁pieza	-9.84463
▁vaso	-9.84465
▁beach	-9.8448
▁duele	-9.84483
rank	-9.84727
▁sleeping	-9.8477
▁peligroso	-9.85131
▁ticket	-9.85162
▁ship	-9.85173
▁pase	-9.85351
▁aeropuerto	-9.85461
▁shopping	-9.85461
▁knife	-9.85463
▁carro	-9.85549
▁meses	-9.85665
▁per	-9.85709
▁eggs	-9.85917
crees	-9.86132
▁weekend	-9.86142
▁triste	-9.86158
▁montaña	-9.86181
▁kiss	-9.8624
▁abroad	-9.86471
▁londres	-9.86471
▁atrás	-9.86472
▁london	-9.86475
▁hubo	-9.86475
▁younger	-9.86513
▁learning	-9.86807
▁pena	-9.86838
▁kitchen	-9.87491
▁writing	-9.87491
▁llegué	-9.87491
▁cine	-9.87492
▁comido	-9.87492
▁intentando	-9.87502
▁desearía	-9.87502
▁estábamos	-9.87511
▁lamento	-9.87543
▁singing	-9.87631
▁casado	-9.87834
▁capital	-9.88073
▁esos	-9.88103
tú	-9.88114
▁guy	-9.88266
▁fight	-9.88365
▁simple	-9.8846
▁voz	-9.88522
▁abrió	-9.88522
▁ambos	-9.88525
▁venido	-9.88544
▁vayas	-9.88621
▁promised	-9.88684
▁viajar	-9.88725
▁mantener	-9.88764
▁diga	-9.88968
▁worth	-9.8899
▁huevos	-9.89006
▁hiciera	-9.89146
▁less	-9.892
▁dejes	-9.89417
▁except	-9.89562
▁abrigo	-9.89565
▁hiding	-9.89611
▁sense	-9.8971
▁recordar	-9.89821
▁though	-9.89879
▁tie	-9.89964
ya	-9.90066
▁opinion	-9.90272
▁partido	-9.9034
▁abrir	-9.90389
ro	-9.90519
▁serious	-9.90578
▁medicine	-9.90616
▁empieza	-9.90616
▁coat	-9.90617
▁siguió	-9.9062
▁intentó	-9.90629
▁suele	-9.9064
▁mayoría	-9.90652
▁traje	-9.90688
▁passed	-9.90771
▁tenés	-9.90782
▁grandes	-9.90811
▁cocinar	-9.91274
▁morir	-9.9128
▁begin	-9.9146
▁success	-9.91677
▁impossible	-9.9168
▁wake	-9.9168
▁escritorio	-9.91681
▁carry	-9.91702
▁worse	-9.91715
▁sitting	-9.91721
▁suelo	-9.91734
▁also	-9.91807
▁manzanas	-9.91893
▁doubt	-9.91973
querés	-9.92282
▁esas	-9.92371
tion	-9.92436
tiene	-9.92478
▁machine	-9.92484
▁silla	-9.9252
▁manzana	-9.9254
▁amable	-9.92674
▁soccer	-9.92755
▁written	-9.92755
▁corriendo	-9.92756
▁estuviera	-9.92759
▁hacía	-9.92763
▁sun	-9.92768
▁bailar	-9.92774
▁consider	-9.93029
▁llaves	-9.93104
▁apples	-9.93198
▁pareces	-9.93341
▁contar	-9.93551
▁alta	-9.93599
▁bird	-9.93644
▁tendrá	-9.93801
▁hablo	-9.93845
▁desayuno	-9.93847
▁aquella	-9.93874
▁saben	-9.93916
▁serio	-9.93921
▁listening	-9.94039
▁chicos	-9.94338
▁fotos	-9.94735
▁piece	-9.94753
▁lleno	-9.94753
▁clima	-9.94849
▁bebe	-9.94921
▁foreign	-9.94926
▁propia	-9.94941
▁siguiente	-9.94941
▁caliente	-9.94941
▁cielo	-9.94941
▁quedarme	-9.94998
▁respecto	-9.94999
▁ideas	-9.9503
▁dile	-9.95042
unque	-9.95093
para	-9.95274
▁liked	-9.95289
▁taken	-9.95417
▁gas	-9.95475
▁mensaje	-9.95825
▁rojo	-9.9585
▁derecho	-9.95857
▁teach	-9.95878
▁afuera	-9.95912
▁count	-9.95938
ha	-9.95979
▁corazón	-9.96052
▁jefe	-9.96056
▁felices	-9.96056
▁funciona	-9.96144
▁expected	-9.96203
▁ninguno	-9.96232
▁matar	-9.96703
▁paciente	-9.96947
▁chocolate	-9.96961
▁message	-9.96976
▁chair	-9.96982
▁precio	-9.97002
▁save	-9.97084
▁smart	-9.97175
▁church	-9.97176
▁sky	-9.97176
▁detrás	-9.97176
▁trató	-9.97177
▁ocho	-9.97183
▁mirando	-9.97199
▁comprado	-9.97363
▁months	-9.97469
▁cause	-9.97478
▁american	-9.97516
▁dicen	-9.97628
▁irse	-9.97631
alguna	-9.97842
▁perfect	-9.97915
▁waste	-9.97923
▁past	-9.97939
▁tierra	-9.98102
▁brazo	-9.98149
▁happens	-9.98171
▁iré	-9.98234
▁iglesia	-9.98312
▁francia	-9.98312
▁éste	-9.98313
▁viendo	-9.98317
▁escribió	-9.98321
▁olvidó	-9.98325
▁favorita	-9.9837
▁supongo	-9.98403
▁confiar	-9.98411
▁walking	-9.98645
▁salt	-9.98709
▁girls	-9.98726
con	-9.98764
▁amo	-9.98826
▁mil	-9.98939
podría	-9.98971
▁languages	-9.98996
▁public	-9.99117
▁torta	-9.99181
▁caro	-9.99257
▁horse	-9.99308
▁foot	-9.9936
▁pescado	-9.99488
▁correcto	-9.99671
▁france	-9.99722
▁correr	-9.99843
▁quiera	-10.003
▁hermanos	-10.0032
▁keys	-10.0034
▁animal	-10.0043
▁gun	-10.0056
▁empleo	-10.0062
▁across	-10.0062
▁osaka	-10.0062
▁thousand	-10.0062
▁shot	-10.0062
▁diciendo	-10.0063
▁bread	-10.0063
▁comiendo	-10.0063
▁shop	-10.0064
or	-10.0065
▁segura	-10.0065
▁tras	-10.0066
▁refused	-10.0068
▁noticias	-10.0069
▁ball	-10.007
▁pared	-10.0088
▁ves	-10.0092
▁happening	-10.0096
▁pretend	-10.011
▁querés	-10.0115
▁pictures	-10.0142
▁smile	-10.015
▁quedé	-10.0154
▁fault	-10.0164
▁sentence	-10.0166
▁negro	-10.0166
▁anciano	-10.0166
▁periódico	-10.0167
▁join	-10.0179
▁necesario	-10.018
▁novio	-10.0181
▁poca	-10.0181
▁leído	-10.0182
▁comenzó	-10.0182
▁normalmente	-10.0184
▁carefully	-10.0188
▁domingos	-10.019
▁lend	-10.0215
▁reglas	-10.0218
▁warm	-10.0235
▁cuál	-10.024
▁sounds	-10.0257
us	-10.0272
▁law	-10.0277
▁abierta	-10.0284
▁llega	-10.0285
▁contento	-10.0287
▁domingo	-10.0289
▁boss	-10.0299
▁choose	-10.0299
▁easily	-10.0299
▁sacó	-10.03
▁habló	-10.03
▁pueblo	-10.03
▁boyfriend	-10.03
▁novela	-10.0302
▁quedarse	-10.0304
▁necesitaba	-10.0308
▁dejado	-10.0314
▁nació	-10.0379
▁surprise	-10.0389
▁novel	-10.0396
est	-10.0405
▁voice	-10.0406
▁vuelve	-10.0407
▁piso	-10.0407
▁pizza	-10.0407
▁amiga	-10.0409
▁bath	-10.0413
▁almorzar	-10.042
▁suena	-10.042
▁inside	-10.0431
▁estés	-10.0437
▁remind	-10.0445
▁cream	-10.0466
▁quiet	-10.0478
▁noticia	-10.0535
▁parar	-10.0537
▁pon	-10.0538
▁yours	-10.054
▁enemy	-10.0542
▁future	-10.0542
▁hicieron	-10.0542
▁prisa	-10.0542
▁simplemente	-10.0545
▁ride	-10.0588
▁remain	-10.0646
▁hundred	-10.0657
▁significa	-10.066
▁asiento	-10.0665
▁tarta	-10.0665
▁chinese	-10.0665
▁claro	-10.0665
▁ayudó	-10.0666
▁evitar	-10.0667
▁llegado	-10.0669
▁contó	-10.0672
vimos	-10.0687
iendo	-10.0714
less	-10.0719
▁cartas	-10.0728
▁honest	-10.0738
▁escrito	-10.0747
▁difference	-10.0778
▁quedar	-10.0782
▁bridge	-10.0783
▁pobre	-10.0784
▁president	-10.0785
▁college	-10.079
▁heavy	-10.079
▁encontrado	-10.079
▁suddenly	-10.0791
▁slowly	-10.0792
▁fear	-10.0792
▁campo	-10.0793
▁vosotros	-10.0793
▁demás	-10.0796
th	-10.0803
▁verme	-10.0854
▁pas	-10.0856
▁date	-10.0859
acaso	-10.0869
in	-10.088
ncluso	-10.0884
▁sign	-10.0887
▁gustaba	-10.0896
▁fat	-10.0898
▁echar	-10.09
▁llegue	-10.0906
▁puente	-10.0907
▁caballo	-10.0914
▁couple	-10.0917
▁marry	-10.0917
▁translate	-10.0917
▁policeman	-10.0917
▁actually	-10.0918
▁somewhere	-10.0918
▁presidente	-10.0921
▁laughed	-10.0925
cia	-10.0929
▁cooking	-10.0933
▁beat	-10.0934
▁gana	-10.0935
▁sentía	-10.0938
▁fuimos	-10.0941
▁varia	-10.0943
▁c	-10.095
▁buenos	-10.0957
▁decirme	-10.096
▁usa	-10.0982
ás	-10.0988
▁wor	-10.1001
▁entiende	-10.1001
▁escape	-10.1031
▁helado	-10.1039
▁borracho	-10.1041
▁propio	-10.1043
▁newspaper	-10.1043
▁lloviendo	-10.1045
▁empty	-10.1045
▁eye	-10.1046
▁cita	-10.1046
▁américa	-10.1048
▁escribe	-10.1053
▁failed	-10.1053
▁entered	-10.1055
▁none	-10.1057
▁pescar	-10.1057
▁standing	-10.1064
▁stolen	-10.1072
▁escucha	-10.1088
▁ama	-10.1161
▁fix	-10.1163
▁rock	-10.1171
▁querría	-10.1173
▁twenty	-10.1175
▁azúcar	-10.1175
▁futuro	-10.1175
▁earth	-10.1175
▁necessary	-10.1175
▁price	-10.1175
▁acostumbrado	-10.1175
▁eight	-10.1175
▁marido	-10.1175
▁idioma	-10.1176
▁blood	-10.1176
▁casó	-10.1176
▁mouth	-10.1177
▁habrá	-10.1178
▁pesar	-10.1178
▁humor	-10.118
bajo	-10.1183
▁estudia	-10.1188
▁limpiar	-10.1191
▁ayudarme	-10.1196
▁aware	-10.1213
▁report	-10.1214
▁green	-10.1232
▁correct	-10.1236
▁t	-10.125
▁owe	-10.1268
▁brothers	-10.129
▁prison	-10.1305
▁regret	-10.1305
▁experiencia	-10.1306
▁nervous	-10.1306
▁orgulloso	-10.1306
▁funny	-10.1306
▁daño	-10.1306
▁verdaderamente	-10.1307
▁prueba	-10.1307
▁check	-10.1308
▁sugar	-10.1309
▁larga	-10.1317
▁llevo	-10.1318
▁shower	-10.1325
▁moved	-10.133
co	-10.134
▁toca	-10.1358
▁semanas	-10.1387
▁siente	-10.1404
▁compras	-10.1412
▁experience	-10.1424
▁fly	-10.1433
▁dejé	-10.1439
▁durmiendo	-10.144
▁público	-10.144
▁button	-10.1442
▁smell	-10.1444
▁correo	-10.145
▁dientes	-10.1455
▁leaves	-10.1474
▁volveré	-10.1488
▁plans	-10.1509
▁eats	-10.1542
▁hará	-10.1545
▁sentí	-10.1556
▁fall	-10.1562
▁enfermedad	-10.1568
▁german	-10.1569
ought	-10.157
▁luna	-10.1571
▁storm	-10.1575
▁kyoto	-10.1575
▁tormenta	-10.1575
▁enamorado	-10.1578
▁pájaro	-10.1581
▁ponga	-10.1585
▁paseo	-10.1591
▁viste	-10.1603
▁guys	-10.1609
▁ley	-10.1615
▁sino	-10.1633
▁haces	-10.1669
▁india	-10.1671
▁veía	-10.1674
▁seas	-10.1684
▁luego	-10.1712
▁proyecto	-10.1712
▁wallet	-10.1712
▁bolsa	-10.1713
▁famoso	-10.1717
▁bottle	-10.1718
▁sentado	-10.172
▁gift	-10.1723
▁perfecto	-10.1728
▁kissed	-10.1728
ting	-10.1735
▁buenas	-10.1761
▁dad	-10.179
▁vario	-10.182
▁deep	-10.1846
▁llegará	-10.185
▁enferma	-10.1851
▁stood	-10.1851
▁veinte	-10.1851
▁negó	-10.1851
▁zoo	-10.1851
▁dijeron	-10.1853
▁enfadado	-10.1854
▁matemáticas	-10.1855
▁wonderful	-10.1859
▁contacto	-10.1859
▁recuerda	-10.186
▁joke	-10.1861
▁list	-10.1871
▁means	-10.1883
▁dado	-10.1884
▁verlo	-10.1886
▁staying	-10.1929
▁vimos	-10.1939
▁prestar	-10.1941
▁especial	-10.1981
▁decide	-10.199
▁grew	-10.1991
▁blind	-10.1994
▁received	-10.1998
▁native	-10.1998
▁vivía	-10.2003
▁diferente	-10.2003
▁preocupado	-10.2003
▁fact	-10.2014
▁bother	-10.2017
▁decirte	-10.2063
▁ech	-10.208
▁mejores	-10.2081
▁clock	-10.2091
▁murder	-10.212
▁borrow	-10.2122
▁discuss	-10.2124
▁arma	-10.2125
▁valor	-10.2128
▁azul	-10.2128
▁corbata	-10.2134
▁jackson	-10.2134
▁abuela	-10.2135
▁sintió	-10.2135
▁agradable	-10.214
▁grave	-10.2141
▁botella	-10.2149
▁paso	-10.2155
▁king	-10.2156
▁herido	-10.2156
▁bar	-10.216
▁igual	-10.2186
▁europe	-10.2267
▁attend	-10.2267
▁speech	-10.2271
▁planes	-10.2274
▁charge	-10.2274
▁discurso	-10.2279
▁taught	-10.2279
▁beginning	-10.2279
▁oferta	-10.2279
▁prometió	-10.2279
▁diferencia	-10.2282
▁creía	-10.2282
▁sight	-10.2288
▁calm	-10.2288
▁bonita	-10.2293
▁birds	-10.2307
▁depende	-10.2312
▁hang	-10.2328
▁llena	-10.2332
▁pone	-10.2334
▁watched	-10.2341
▁temo	-10.2382
▁ayude	-10.2394
▁cuidar	-10.2396
ieron	-10.24
▁conocí	-10.241
▁común	-10.2424
▁levantó	-10.2426
▁nueve	-10.2426
▁picnic	-10.2426
▁tuviera	-10.2426
▁spring	-10.2426
▁information	-10.2426
▁información	-10.2426
▁planning	-10.2427
▁common	-10.2427
▁inmediatamente	-10.2427
▁totalmente	-10.2427
▁quise	-10.2427
▁worst	-10.2428
▁fruit	-10.2438
▁film	-10.2438
▁bill	-10.2445
▁smiled	-10.2445
▁line	-10.2447
▁alegr	-10.2451
ce	-10.247
p	-10.2488
▁parado	-10.2511
▁yen	-10.2527
urante	-10.2531
▁top	-10.2533
▁village	-10.2576
▁encima	-10.2576
▁europa	-10.2576
▁llueve	-10.2576
▁máquina	-10.2576
▁decidido	-10.2576
▁built	-10.2576
▁neither	-10.2577
▁soup	-10.2577
▁tratando	-10.2578
▁aceptar	-10.2582
▁podrá	-10.2583
▁cambio	-10.2593
▁trees	-10.2599
▁dios	-10.2611
▁fit	-10.2614
▁deje	-10.2657
▁succeed	-10.2715
▁crowd	-10.2717
▁exam	-10.2722
▁tampoco	-10.2727
▁cheese	-10.2727
▁roto	-10.2727
▁enojado	-10.2727
▁anywhere	-10.2728
▁sopa	-10.273
▁hago	-10.2733
▁darle	-10.2746
▁junto	-10.2753
▁volverá	-10.2767
▁haberlo	-10.2775
▁feelings	-10.2794
▁grow	-10.2831
alguien	-10.2834
▁comí	-10.2852
▁sepa	-10.2868
▁soportar	-10.2881
▁primavera	-10.2881
▁silencio	-10.2881
▁studied	-10.2881
▁shall	-10.2881
▁assume	-10.2881
▁mintiendo	-10.2881
▁sorprendió	-10.2881
▁guapa	-10.2881
▁moon	-10.2882
▁enseñó	-10.2883
▁cierra	-10.2884
▁single	-10.2888
▁carrera	-10.2901
▁rang	-10.2903
▁rey	-10.2906
▁enemigo	-10.2906
▁odia	-10.291
▁olvidé	-10.2914
▁tuyo	-10.2914
▁plays	-10.2919
▁resto	-10.2921
▁lavar	-10.2922
▁weeks	-10.2941
▁hacen	-10.2952
eso	-10.2985
▁dan	-10.2998
▁deserve	-10.3022
▁usual	-10.3031
▁menor	-10.3032
▁alemán	-10.3037
▁conocido	-10.3037
▁fuji	-10.3037
▁project	-10.3037
▁repente	-10.3037
▁slept	-10.3037
▁sorpresa	-10.3037
▁botón	-10.3037
▁paz	-10.3037
▁apartment	-10.3037
▁guilty	-10.3037
▁grandmother	-10.3038
▁ganó	-10.3038
▁respect	-10.3039
▁teeth	-10.304
▁type	-10.3047
▁sentimientos	-10.3049
▁quedarte	-10.3049
▁locked	-10.3052
▁despierto	-10.3056
▁sorprendido	-10.3063
▁web	-10.3063
▁ésta	-10.3066
▁god	-10.3091
▁puedas	-10.3101
▁andar	-10.3104
▁fill	-10.3111
▁bear	-10.3136
▁abajo	-10.3138
▁baja	-10.3154
▁forgive	-10.3155
▁apologize	-10.3181
▁welcome	-10.3181
▁bosque	-10.3196
▁history	-10.3196
▁yellow	-10.3196
▁adelante	-10.3197
▁tonto	-10.3197
▁lentes	-10.3198
▁nine	-10.3211
▁saturday	-10.3218
▁deseo	-10.3225
▁painting	-10.3233
▁cualquiera	-10.3239
án	-10.327
▁likely	-10.3278
▁tengas	-10.3281
▁cards	-10.3299
▁convince	-10.3342
▁coger	-10.3344
▁estáis	-10.3356
▁funeral	-10.3357
▁bike	-10.3357
▁fence	-10.3357
▁resfriado	-10.3357
▁earlier	-10.3357
▁mitad	-10.3358
▁immediately	-10.3358
▁prestado	-10.3359
▁rule	-10.3369
▁mom	-10.3381
ver	-10.3386
▁agreed	-10.3386
▁pintura	-10.3386
▁segundo	-10.3388
▁quitó	-10.3392
▁alegra	-10.3393
▁pelota	-10.3394
▁sonó	-10.3415
▁verde	-10.3415
cogió	-10.3419
▁player	-10.3433
▁drinks	-10.3441
▁leg	-10.3449
▁crime	-10.3483
▁pájaros	-10.3513
▁jóvenes	-10.3521
▁medicina	-10.3521
▁vuelto	-10.3521
▁vuestra	-10.3521
▁seguridad	-10.3522
hrew	-10.3522
▁premio	-10.3522
▁intención	-10.3522
▁tomado	-10.3523
▁cars	-10.353
▁tele	-10.3536
▁esperanza	-10.3553
▁tratar	-10.3556
▁finger	-10.3557
▁star	-10.3561
▁ojo	-10.3561
▁idiota	-10.3564
▁duda	-10.3577
▁olvides	-10.3581
▁sabemos	-10.3606
b	-10.3623
ré	-10.3647
▁películas	-10.3651
▁breath	-10.366
▁pertenece	-10.3661
▁despacio	-10.3688
▁prisión	-10.3688
▁ahead	-10.3688
▁classroom	-10.3688
▁rápidamente	-10.3689
▁boat	-10.3689
▁olvidado	-10.3689
▁wedding	-10.3689
▁held	-10.3689
▁escuchando	-10.369
▁ladrón	-10.369
▁throw	-10.3691
▁taller	-10.3691
▁position	-10.3691
▁culpable	-10.3692
▁pocos	-10.3693
idad	-10.3705
▁grupo	-10.3723
▁estudio	-10.3723
▁otras	-10.3746
▁asking	-10.378
▁alarm	-10.3791
▁negocios	-10.38
▁hacerte	-10.3806
▁queso	-10.3828
▁computador	-10.3836
▁ordenador	-10.3851
▁alemania	-10.3857
▁canadá	-10.3857
▁multitud	-10.3857
▁woke	-10.3857
▁oyó	-10.3857
▁cruel	-10.3857
▁satisfied	-10.3858
▁diario	-10.3858
▁hermoso	-10.3858
▁extra	-10.3859
▁conocía	-10.3859
▁digo	-10.386
▁paint	-10.3861
▁germany	-10.3861
▁cerrar	-10.3865
▁intentar	-10.3866
béis	-10.3868
▁harder	-10.3869
▁allowed	-10.3871
▁tears	-10.3872
▁árboles	-10.3873
▁picked	-10.3879
▁returned	-10.3885
▁vieja	-10.3896
▁listened	-10.3898
▁vuestro	-10.3899
▁fired	-10.3921
▁alcohol	-10.3955
▁oro	-10.3958
▁rid	-10.3961
▁interesa	-10.3981
▁special	-10.4005
▁personal	-10.4024
▁veré	-10.4028
▁support	-10.403
▁ashamed	-10.403
▁escuchó	-10.403
▁furniture	-10.403
▁izquierda	-10.403
▁paciencia	-10.403
▁gustó	-10.403
▁video	-10.403
▁government	-10.403
▁memoria	-10.403
▁cansada	-10.4031
▁juega	-10.4032
▁faster	-10.4035
▁probable	-10.4037
▁covered	-10.4039
▁painted	-10.4043
▁noticed	-10.4045
▁laugh	-10.405
▁dressed	-10.4062
▁preferiría	-10.4062
son	-10.4066
▁tema	-10.408
▁miles	-10.4086
▁admit	-10.4104
▁hablan	-10.4106
era	-10.4137
▁enter	-10.4149
▁ellas	-10.4171
1	-10.4199
▁sientes	-10.4203
▁gafas	-10.4205
▁tráfico	-10.4205
▁bajó	-10.4205
▁quiso	-10.4205
▁headache	-10.4205
▁kioto	-10.4206
▁cambiado	-10.4207
▁raro	-10.4207
▁oscuro	-10.4208
▁interesado	-10.4209
▁bedroom	-10.4209
▁avoid	-10.421
▁tía	-10.4211
▁casarse	-10.4216
▁washing	-10.4223
▁decid	-10.4223
▁aunt	-10.4227
▁allow	-10.4237
▁correcta	-10.424
▁amaba	-10.4241
▁museo	-10.4244
▁museum	-10.4244
▁nervioso	-10.4245
▁principio	-10.4247
▁lied	-10.4248
▁espalda	-10.4251
▁roja	-10.4252
▁canada	-10.4257
▁forever	-10.4306
▁traer	-10.4315
les	-10.4323
▁merece	-10.4331
▁podés	-10.4334
▁rains	-10.4336
▁peace	-10.4361
▁fond	-10.4373
▁absent	-10.4384
▁arroz	-10.4384
▁courage	-10.4384
▁sofá	-10.4384
▁university	-10.4384
▁vuelo	-10.4384
▁fresh	-10.4384
▁spanish	-10.4384
▁rice	-10.4384
▁aprendí	-10.4384
▁robado	-10.4384
▁subject	-10.4385
▁caminando	-10.4385
▁prize	-10.4385
▁solución	-10.4386
▁golpeó	-10.4393
▁scared	-10.4393
▁buscar	-10.4395
▁theater	-10.4402
▁vayamos	-10.4403
▁vegetables	-10.4404
▁honesto	-10.441
▁missing	-10.4413
▁pair	-10.4427
▁wood	-10.4435
▁levanta	-10.4451
▁platos	-10.4468
▁wears	-10.4475
▁nuevos	-10.4485
f	-10.4496
▁corta	-10.4524
bido	-10.4534
▁sang	-10.4537
▁judge	-10.4541
▁enviar	-10.4543
▁notice	-10.4555
▁windows	-10.4556
▁pastel	-10.456
▁body	-10.4566
▁cáncer	-10.4566
▁delicious	-10.4566
▁ejercicio	-10.4566
▁friday	-10.4566
▁introduce	-10.4566
▁japoneses	-10.4566
▁sucedió	-10.4566
▁viento	-10.4566
▁viernes	-10.4566
▁boring	-10.4566
▁gobierno	-10.4566
▁brush	-10.4566
▁horrible	-10.4566
▁unfortunately	-10.4566
▁mostró	-10.4567
▁sonrió	-10.4567
▁hielo	-10.4567
▁disappointed	-10.457
▁complaining	-10.4571
▁cancer	-10.4573
▁explained	-10.4593
rá	-10.4593
▁abre	-10.4594
▁island	-10.46
▁map	-10.4605
▁paró	-10.4606
▁entera	-10.461
▁preparado	-10.4615
▁chicas	-10.4616
▁ring	-10.4618
▁chino	-10.4618
▁trampa	-10.4618
▁llamada	-10.462
▁soldiers	-10.463
▁soldados	-10.463
▁liar	-10.4636
mong	-10.4637
ia	-10.4652
▁sacar	-10.466
▁profesora	-10.466
▁100	-10.4698
todavía	-10.4704
▁stole	-10.4712
▁natural	-10.4741
▁luck	-10.4747
▁course	-10.4751
▁encuentro	-10.4751
▁hicimos	-10.4751
▁hobby	-10.4751
▁innocent	-10.4751
▁permiso	-10.4751
▁sonrisa	-10.4751
▁straight	-10.4751
▁dropped	-10.4751
▁consiguió	-10.4751
▁jacket	-10.4751
▁llorando	-10.4751
▁chicago	-10.4752
▁corrió	-10.4752
▁bare	-10.4752
▁middle	-10.4753
▁centro	-10.4753
▁invite	-10.4755
▁cargo	-10.4756
▁arrested	-10.4759
▁preguntaba	-10.4761
▁ex	-10.4767
▁raise	-10.4787
▁ended	-10.4797
▁suit	-10.4797
▁corto	-10.48
▁bolígrafo	-10.4805
▁rent	-10.4819
▁tra	-10.4826
▁escaleras	-10.4829
▁answered	-10.4834
▁sports	-10.4836
▁arreglar	-10.4853
ciones	-10.4859
▁español	-10.4877
▁familiar	-10.4897
▁corre	-10.4904
▁partir	-10.4909
▁af	-10.4913
▁parecen	-10.4922
▁post	-10.4926
▁aburrido	-10.4939
▁purpose	-10.4939
▁understood	-10.4939
▁stick	-10.4939
▁guste	-10.494
▁profundamente	-10.494
▁heat	-10.4941
▁bored	-10.4942
▁desayunar	-10.4943
▁actor	-10.4943
▁race	-10.4943
▁yenes	-10.4948
▁reached	-10.4948
▁madera	-10.4951
▁limpia	-10.4964
▁bella	-10.4965
▁wind	-10.4971
▁lee	-10.4992
▁rara	-10.4993
▁discutir	-10.4994
▁cerrada	-10.4996
▁frase	-10.4996
▁fruta	-10.4999
▁promesa	-10.5
▁flower	-10.5002
▁casada	-10.5006
▁cd	-10.5024
▁belongs	-10.5031
▁conocen	-10.5039
▁permitir	-10.5062
▁conocer	-10.5068
▁duerme	-10.5091
▁legs	-10.5096
▁appreciate	-10.5116
▁drop	-10.5122
▁explanation	-10.5132
▁frecuencia	-10.5132
▁inocente	-10.5132
▁instead	-10.5132
▁lápiz	-10.5132
▁opción	-10.5132
▁stuck	-10.5132
▁truck	-10.5132
▁license	-10.5132
▁duty	-10.5132
▁llame	-10.5132
▁recognize	-10.5132
▁sweater	-10.5132
▁power	-10.5133
▁linda	-10.5133
▁isla	-10.5134
▁manejar	-10.5138
▁seriously	-10.5139
k	-10.5146
▁low	-10.5148
▁convinced	-10.515
▁extreme	-10.5152
▁saved	-10.5158
▁darme	-10.5161
▁ordered	-10.5163
▁explicar	-10.5186
▁verdadero	-10.5195
▁singer	-10.5195
▁pierna	-10.5197
▁negocio	-10.5199
▁lock	-10.5204
▁contact	-10.5215
▁dedo	-10.5241
▁ducha	-10.5246
▁san	-10.5276
ford	-10.5277
▁precios	-10.5283
▁attack	-10.5316
▁fail	-10.5316
▁general	-10.5322
▁cool	-10.5326
▁account	-10.5328
▁awake	-10.5328
▁chaqueta	-10.5328
▁consciente	-10.5328
▁cuerpo	-10.5328
▁injured	-10.5328
▁intelligent	-10.5328
▁japonesa	-10.5328
▁midnight	-10.5328
▁segunda	-10.5328
▁tarjeta	-10.5328
▁behavior	-10.5328
▁viviendo	-10.5328
▁cortó	-10.5328
▁space	-10.5328
▁respondió	-10.5328
▁conductor	-10.5328
▁accused	-10.5329
▁dishes	-10.533
▁mapa	-10.534
▁elegir	-10.5342
▁sangre	-10.5344
▁tenéis	-10.5345
▁pies	-10.5353
▁tuya	-10.5356
▁países	-10.5358
▁enseñar	-10.5358
▁crimen	-10.5375
▁f	-10.5376
▁exercise	-10.539
▁cantante	-10.5392
▁rica	-10.5392
▁incendio	-10.5393
▁satisfecho	-10.5393
▁nativo	-10.5393
▁orden	-10.5395
▁pencil	-10.5395
▁encuentra	-10.5395
▁mentira	-10.5403
▁romper	-10.5407
▁speaker	-10.5411
▁intenta	-10.545
ful	-10.5455
ca	-10.5469
▁mirar	-10.5473
▁agrada	-10.548
esto	-10.5484
▁fool	-10.5515
▁hung	-10.5525
▁england	-10.5528
▁escuché	-10.5528
▁harvard	-10.5528
▁cash	-10.5528
▁medianoche	-10.5528
▁escribiendo	-10.5528
▁dirty	-10.5528
▁explicación	-10.5528
▁recently	-10.5529
▁absolutely	-10.5529
▁bigger	-10.553
▁shy	-10.553
▁sooner	-10.554
▁averiguar	-10.5542
▁fighting	-10.5548
él	-10.556
▁nuestras	-10.5563
▁sold	-10.5582
▁cuerda	-10.5592
▁comenzar	-10.5595
▁group	-10.5597
▁broma	-10.56
▁entrada	-10.56
▁flor	-10.5604
▁keeps	-10.562
ted	-10.562
robó	-10.566
▁agarr	-10.5663
▁irte	-10.5663
▁necesitan	-10.5671
▁believed	-10.5693
▁cruz	-10.5718
▁decidir	-10.5722
▁gold	-10.573
▁idiomas	-10.573
▁prices	-10.5731
▁accord	-10.5732
▁espacio	-10.5732
▁fiebre	-10.5732
▁toilet	-10.5732
▁murieron	-10.5732
▁nací	-10.5732
▁pasaporte	-10.5732
▁passport	-10.5732
▁copy	-10.5733
▁descanso	-10.5733
▁huele	-10.5733
▁salvo	-10.5734
▁entire	-10.5738
▁healthy	-10.574
▁querías	-10.5743
▁human	-10.5754
▁daré	-10.576
▁darte	-10.5777
▁convencer	-10.578
▁employees	-10.5785
▁risk	-10.5804
▁línea	-10.5805
▁modo	-10.581
▁hey	-10.5828
▁compare	-10.5846
▁hables	-10.5849
▁dreams	-10.5856
▁dices	-10.5862
▁art	-10.5886
▁protect	-10.5892
podemos	-10.5893
▁apareció	-10.5908
▁relax	-10.5918
▁knock	-10.5932
▁hid	-10.5938
▁escapar	-10.5939
▁view	-10.594
▁dancing	-10.594
▁inglaterra	-10.594
▁billetera	-10.5941
id	-10.5941
▁dispuesto	-10.5942
▁sisters	-10.5944
▁aprendiendo	-10.5945
▁hazlo	-10.5946
▁pedirle	-10.5947
▁ocultar	-10.5949
▁laughing	-10.5952
▁bote	-10.5952
▁card	-10.5953
▁fuiste	-10.5957
▁harm	-10.5967
▁accepted	-10.5968
▁anda	-10.5975
▁feels	-10.599
▁empleados	-10.6001
▁pintar	-10.6003
▁cookies	-10.6017
▁handed	-10.602
▁sábado	-10.602
▁página	-10.6021
▁resultado	-10.6025
▁deporte	-10.6026
▁yes	-10.6046
▁irá	-10.6053
ió	-10.6072
▁encantan	-10.6077
▁talks	-10.6081
adamente	-10.6088
▁vivid	-10.6092
▁trae	-10.6102
.000	-10.6102
▁italia	-10.6109
▁ventanas	-10.6131
▁tanta	-10.6133
▁hermanas	-10.6147
▁cien	-10.6152
giving	-10.6152
▁absoluta	-10.6153
▁lonely	-10.6153
▁themselves	-10.6153
▁mood	-10.6153
▁cambió	-10.6153
▁casualidad	-10.6153
▁bromeando	-10.6153
▁fresco	-10.6153
▁monte	-10.6154
▁fever	-10.6154
▁involved	-10.6155
▁italy	-10.6155
▁size	-10.6156
▁explicó	-10.6156
▁acabó	-10.6157
▁solas	-10.6158
▁motor	-10.6158
▁mató	-10.6158
▁recibió	-10.6158
▁pregunté	-10.616
na	-10.6165
▁preocupes	-10.6166
ría	-10.6169
▁expecting	-10.6176
▁canciones	-10.6183
▁idiot	-10.6219
▁gusto	-10.6233
▁boda	-10.6235
▁política	-10.6235
▁bonito	-10.6236
▁magazine	-10.6237
▁muchacho	-10.6238
▁maleta	-10.6238
jo	-10.6246
".	-10.6264
ella	-10.6277
▁piernas	-10.6297
▁bell	-10.6317
aste	-10.6325
ación	-10.6338
▁prove	-10.6359
▁sentir	-10.6364
▁fair	-10.6366
▁cheap	-10.6369
▁cárcel	-10.637
▁genial	-10.637
▁seldom	-10.637
▁comportamiento	-10.637
▁asesinato	-10.637
▁oscuridad	-10.637
▁derecha	-10.637
▁propuesta	-10.6371
▁perdón	-10.6371
▁suicide	-10.6371
▁vine	-10.6371
▁math	-10.6371
▁fría	-10.6373
▁oil	-10.6373
▁cumplir	-10.6374
▁considered	-10.6396
▁arte	-10.6398
▁pasamos	-10.6399
▁followed	-10.6409
▁pasará	-10.6415
▁recibir	-10.6419
▁vuelva	-10.6419
▁volar	-10.643
▁casar	-10.6434
▁leí	-10.6447
▁rained	-10.6452
▁flight	-10.6455
▁revista	-10.6461
▁luces	-10.6471
▁importar	-10.6475
▁calling	-10.6477
▁suyo	-10.6483
▁hablas	-10.6509
▁hablado	-10.6517
go	-10.653
los	-10.6574
▁honor	-10.6577
▁treat	-10.6578
▁das	-10.6581
▁ante	-10.6586
▁comienza	-10.6593
▁jealous	-10.6593
▁pérdida	-10.6593
▁sencilla	-10.6593
▁thief	-10.6593
▁roof	-10.6593
▁dudo	-10.6593
▁cometido	-10.6593
▁destino	-10.6593
▁continue	-10.6593
▁cried	-10.6595
▁importaría	-10.6595
▁techo	-10.6599
▁podé	-10.66
▁managed	-10.66
▁cerró	-10.6604
▁land	-10.6604
▁llamaré	-10.6607
▁fácilmente	-10.6608
▁besó	-10.6611
▁raised	-10.6611
▁muebles	-10.6612
▁fed	-10.6615
▁eras	-10.6616
áis	-10.6637
▁begins	-10.6641
▁lay	-10.6647
amente	-10.6662
▁vote	-10.6664
▁preguntar	-10.6677
▁blanca	-10.6683
▁trozo	-10.6686
▁admitt	-10.6708
▁sueños	-10.6713
▁cortar	-10.6715
▁lack	-10.6734
conoces	-10.6736
▁uso	-10.6783
▁mente	-10.6801
▁jokes	-10.6803
▁conoces	-10.6807
▁útil	-10.6813
▁countries	-10.682
▁eventually	-10.682
▁football	-10.682
▁hokkaido	-10.682
▁inmediato	-10.682
▁internet	-10.682
▁ourselves	-10.682
▁propósito	-10.682
▁quince	-10.682
▁solution	-10.682
▁famosa	-10.682
▁suspect	-10.682
▁forgotten	-10.682
▁unlikely	-10.682
▁salido	-10.6821
▁lady	-10.6822
▁robaron	-10.6822
▁butter	-10.6823
▁quédate	-10.6824
▁trabajó	-10.6828
▁rope	-10.6828
▁llamado	-10.683
▁climbed	-10.683
▁lágrimas	-10.6834
▁subió	-10.6842
▁dedos	-10.6844
▁extrem	-10.687
tu	-10.6877
▁exist	-10.6898
▁ocupados	-10.6907
▁chicken	-10.6912
▁supiera	-10.6918
▁piedra	-10.6919
▁pocket	-10.6919
▁neighbor	-10.6921
▁rumor	-10.6938
▁hable	-10.6939
usted	-10.6944
▁meant	-10.6962
▁ma	-10.697
▁preparar	-10.7002
▁diet	-10.7023
▁appear	-10.704
▁canta	-10.7042
▁televisor	-10.7045
▁similar	-10.7046
▁step	-10.7051
▁rude	-10.7052
▁barato	-10.7052
▁demasiada	-10.7052
▁stairs	-10.7052
▁camión	-10.7052
▁teatro	-10.7052
▁facilidad	-10.7052
▁feet	-10.7052
▁escondiendo	-10.7052
▁mediodía	-10.7052
▁peces	-10.7053
▁memory	-10.7053
▁corner	-10.7053
▁recibí	-10.7053
▁excelente	-10.7053
▁denied	-10.7053
▁pegó	-10.7053
▁éstos	-10.7054
▁useful	-10.7055
▁menu	-10.7056
▁delante	-10.7058
▁forced	-10.7062
▁acabado	-10.7062
▁entero	-10.7069
▁galletas	-10.707
▁continued	-10.707
▁dieta	-10.708
▁compraste	-10.7081
▁doble	-10.7081
▁hagamos	-10.7082
▁washed	-10.7082
▁contestar	-10.7084
▁cometer	-10.7089
▁helping	-10.7104
ban	-10.7113
▁sois	-10.7119
▁míos	-10.7126
▁quedaré	-10.7131
▁willing	-10.7137
▁taste	-10.7146
▁habit	-10.7154
▁dulce	-10.7159
▁claim	-10.7159
▁kid	-10.7161
▁stranger	-10.7169
▁songs	-10.7179
▁parada	-10.7179
▁games	-10.7202
it	-10.7219
▁losing	-10.7231
▁lenguas	-10.7239
ies	-10.7249
▁dejara	-10.726
quiera	-10.7263
▁iremos	-10.7268
▁principal	-10.7284
▁correos	-10.7285
▁tight	-10.7286
▁visa	-10.7288
▁accustom	-10.729
▁ciego	-10.729
▁discusión	-10.729
▁disparó	-10.729
▁fifteen	-10.729
▁jazz	-10.729
▁obra	-10.729
▁particular	-10.729
▁recommend	-10.729
▁temperatura	-10.729
▁juice	-10.7291
▁million	-10.7291
▁joking	-10.7291
▁above	-10.7291
▁sabido	-10.7291
▁pez	-10.7291
▁goodbye	-10.7291
▁comfortable	-10.7291
▁south	-10.7291
▁educación	-10.7291
▁sushi	-10.7292
▁felicidad	-10.7293
▁happiness	-10.7293
▁enseña	-10.7294
▁confused	-10.7295
▁trap	-10.7296
▁gate	-10.7296
▁describe	-10.7297
w	-10.7299
▁últimamente	-10.7306
▁tendré	-10.7309
▁dumb	-10.731
▁prepared	-10.7311
▁fixed	-10.7313
▁escaped	-10.732
▁beso	-10.7326
▁querían	-10.7334
▁doce	-10.7347
▁extraña	-10.7363
▁add	-10.7366
▁gra	-10.7391
▁invitados	-10.7391
▁fábrica	-10.7396
▁conduce	-10.7399
▁sweet	-10.7399
▁bolsillo	-10.7401
▁season	-10.7405
▁letters	-10.7409
cted	-10.7433
vivió	-10.7437
va	-10.7445
▁ayudara	-10.7448
▁debía	-10.7462
▁pelea	-10.7492
▁llamas	-10.7495
▁stuff	-10.752
bbed	-10.753
▁cruzar	-10.7534
▁adentro	-10.7534
▁appointment	-10.7534
▁comienzo	-10.7534
▁hablé	-10.7534
▁llueva	-10.7534
▁supermarket	-10.7534
▁supermercado	-10.7534
▁levanté	-10.7534
▁argue	-10.7534
▁distancia	-10.7534
▁tongue	-10.7535
▁factory	-10.7535
▁blew	-10.7535
▁encontramos	-10.7535
▁pity	-10.7535
▁arriba	-10.7535
▁excited	-10.7536
▁anyway	-10.7536
ese	-10.7536
▁drugs	-10.7538
▁invitó	-10.7539
▁burned	-10.7543
▁brave	-10.7544
▁distance	-10.7547
▁asistir	-10.7547
eron	-10.755
▁armas	-10.7558
quiere	-10.7567
hap	-10.757
▁americans	-10.7573
▁aquellos	-10.7602
▁espere	-10.7603
▁mountains	-10.7611
▁preocupa	-10.7632
▁oranges	-10.7641
▁harto	-10.7644
▁traj	-10.7645
▁muñeca	-10.7648
▁earthquake	-10.7649
▁stone	-10.7651
▁vecino	-10.7653
▁calls	-10.766
gged	-10.7661
ido	-10.7666
▁lleve	-10.7673
▁hacemos	-10.7684
▁pr	-10.7686
▁condition	-10.7689
▁programa	-10.7702
tuvieron	-10.7714
▁regresar	-10.7723
yo	-10.7736
ness	-10.7738
▁descubri	-10.7742
▁fingi	-10.7742
▁planea	-10.7752
▁tenían	-10.7766
▁paga	-10.777
▁distinguir	-10.7772
▁intend	-10.7772
▁allergi	-10.7781
▁enorme	-10.7782
▁jugador	-10.7782
▁maestro	-10.7784
▁request	-10.7784
▁temperature	-10.7784
▁esquina	-10.7784
▁gratis	-10.7784
▁gordo	-10.7784
▁illness	-10.7785
▁llámame	-10.7785
▁intenté	-10.7785
▁diré	-10.7786
▁levantarse	-10.7788
▁increíble	-10.7789
▁jumped	-10.7793
▁hablante	-10.7801
▁u	-10.781
▁g	-10.7813
▁vender	-10.7814
▁act	-10.7822
ped	-10.7822
ga	-10.7829
▁cola	-10.7839
pareció	-10.7845
▁hojas	-10.786
▁culpar	-10.7863
las	-10.7878
▁acaso	-10.788
rse	-10.7897
▁caballero	-10.7903
▁suitcase	-10.7907
▁teníamos	-10.791
▁tastes	-10.7925
▁cuida	-10.793
▁pretende	-10.7937
▁meaning	-10.794
▁copia	-10.7956
▁hi	-10.7982
▁fingers	-10.7987
▁pinta	-10.8003
man	-10.8018
seando	-10.8023
ándose	-10.8024
▁obey	-10.8028
▁escribí	-10.8029
▁mañanas	-10.8039
▁ajedrez	-10.8041
▁attempt	-10.8041
▁avergonzado	-10.8041
▁bebida	-10.8041
▁cuello	-10.8041
▁llamé	-10.8041
▁nosotras	-10.8041
▁studies	-10.8041
▁naked	-10.8041
▁lazy	-10.8041
▁gentleman	-10.8041
▁teoría	-10.8041
▁bathroom	-10.8041
▁naive	-10.8041
▁email	-10.8041
▁ése	-10.8041
▁basura	-10.8042
▁chess	-10.8042
▁someday	-10.8042
▁recibido	-10.8043
▁preparando	-10.8043
▁discovered	-10.8044
▁esposo	-10.8044
▁preguntarle	-10.8046
▁llegaste	-10.8049
▁apuesto	-10.805
h	-10.8052
▁llegamos	-10.8056
▁mail	-10.8062
▁climate	-10.8063
▁limpio	-10.8063
▁bomb	-10.8066
▁pond	-10.8066
▁apagar	-10.8068
▁saberlo	-10.807
▁urgente	-10.8081
▁lights	-10.8083
▁vemos	-10.8084
▁contado	-10.8085
▁pieces	-10.8088
▁detalles	-10.8094
▁vete	-10.8116
▁hearing	-10.8141
▁pistola	-10.8165
▁mirada	-10.8167
▁cuidadoso	-10.8169
▁vacía	-10.817
▁fuerza	-10.817
▁hole	-10.8171
▁fotografía	-10.8172
▁metro	-10.8176
▁fondo	-10.8179
▁area	-10.8182
▁mo	-10.8189
▁partes	-10.8189
arse	-10.8193
▁runs	-10.8205
▁farm	-10.8206
▁andando	-10.8212
▁molesta	-10.8212
▁ganado	-10.8219
time	-10.8229
▁meal	-10.8244
▁imagin	-10.826
prendió	-10.8262
▁reserva	-10.8266
▁cross	-10.8275
▁climb	-10.8282
▁reach	-10.8292
▁hogar	-10.8296
▁pull	-10.8297
▁posibilidad	-10.8297
▁valiente	-10.8301
▁absoluto	-10.8304
▁excellent	-10.8304
▁moving	-10.8304
▁patience	-10.8304
▁proposal	-10.8304
▁resemble	-10.8304
▁examination	-10.8304
▁permission	-10.8304
▁bolso	-10.8304
▁clever	-10.8304
▁bajar	-10.8304
▁menú	-10.8304
▁theory	-10.8304
▁mt	-10.8304
▁cubierta	-10.8305
▁anillo	-10.8306
enza	-10.8306
▁cute	-10.8309
▁dieron	-10.8312
▁prevented	-10.8312
▁skiing	-10.8313
▁suggested	-10.8314
▁clearly	-10.8316
▁loud	-10.8322
▁llegaron	-10.8325
▁teaching	-10.8327
▁socks	-10.833
▁verduras	-10.833
▁sleepy	-10.8334
▁pleased	-10.8341
▁montar	-10.8341
▁dejaré	-10.8343
▁solved	-10.8346
▁drogas	-10.8352
▁mayores	-10.8354
▁alcanzar	-10.8354
▁descansar	-10.8356
miento	-10.836
viste	-10.8362
▁record	-10.8363
▁profesores	-10.8364
▁casados	-10.8385
▁matters	-10.8391
▁ski	-10.8396
▁naranjas	-10.8426
están	-10.8428
▁mentiroso	-10.8434
▁costumbre	-10.8436
▁terremoto	-10.8439
▁atrapado	-10.8441
▁diría	-10.8441
▁cousin	-10.8442
▁skirt	-10.8442
▁holiday	-10.8443
▁belong	-10.8443
▁vecinos	-10.8444
iste	-10.8448
▁computadora	-10.8456
▁desea	-10.846
▁golpe	-10.847
▁sh	-10.8471
▁dura	-10.8471
▁oh	-10.8471
▁arrest	-10.8485
▁necesitar	-10.8509
ín	-10.8519
▁sonar	-10.852
▁urgent	-10.8532
▁silent	-10.8572
nte	-10.8573
▁carretera	-10.8574
▁durmió	-10.8574
▁empresa	-10.8574
▁nariz	-10.8574
▁población	-10.8574
▁responsible	-10.8574
▁twelve	-10.8574
▁refrigerator	-10.8574
▁handsome	-10.8574
▁jail	-10.8574
▁impidió	-10.8574
▁pareja	-10.8574
▁sueldo	-10.8574
▁orgullosa	-10.8574
▁bottom	-10.8574
▁sospechoso	-10.8574
▁respeto	-10.8574
▁profundo	-10.8575
▁pedido	-10.8575
▁salary	-10.8575
▁equivocada	-10.8575
▁cartera	-10.8576
▁grass	-10.8576
▁neck	-10.8576
▁upset	-10.8576
▁envió	-10.8577
▁abandoned	-10.858
▁stealing	-10.8581
▁rome	-10.8584
▁pre	-10.8597
▁attended	-10.8597
▁informe	-10.8607
▁estuviste	-10.861
▁band	-10.8614
▁papas	-10.8621
▁trusted	-10.8627
▁duró	-10.8629
▁friendly	-10.8629
▁coge	-10.8631
▁adopt	-10.8651
▁verg	-10.8663
ity	-10.8683
▁vol	-10.8684
▁estrellas	-10.87
▁ear	-10.8704
▁banda	-10.8704
▁ears	-10.8705
▁cuadro	-10.8712
▁artículo	-10.8713
▁dormitorio	-10.8713
▁objetivo	-10.8716
▁page	-10.872
▁plato	-10.8721
▁huevo	-10.8722
▁guard	-10.8728
▁cabo	-10.8729
filled	-10.8733
▁apart	-10.8745
▁spends	-10.8762
▁debí	-10.8766
▁despertar	-10.8782
▁costs	-10.879
▁creí	-10.8813
remos	-10.8816
▁dormí	-10.8817
,"	-10.8823
▁dry	-10.8842
▁reír	-10.8844
▁match	-10.8846
▁slight	-10.8848
▁bright	-10.8849
▁amount	-10.8852
▁disculpe	-10.8852
▁emergency	-10.8852
▁estómago	-10.8852
▁responsable	-10.8852
▁sistema	-10.8852
▁stories	-10.8852
▁tímido	-10.8852
▁opportunity	-10.8852
▁remedio	-10.8852
▁hubiese	-10.8852
▁dying	-10.8852
▁nurse	-10.8852
▁esquiar	-10.8852
▁ipad	-10.8852
▁vistazo	-10.8852
▁confianza	-10.8853
▁awful	-10.8853
▁agreement	-10.8853
▁preferido	-10.8853
ir	-10.8854
▁potatoes	-10.8854
▁agradecido	-10.8854
▁trago	-10.8854
▁completo	-10.8855
▁due	-10.8857
▁saludable	-10.8857
▁popula	-10.886
▁ciento	-10.8861
▁texto	-10.8864
▁kick	-10.8864
▁cantando	-10.8868
▁bang	-10.8869
▁imagine	-10.8871
▁sonido	-10.8873
▁deaf	-10.8875
▁difficulty	-10.8879
▁levantar	-10.8882
▁probar	-10.8886
▁kinds	-10.889
▁requiere	-10.8913
▁calma	-10.892
▁depends	-10.8927
este	-10.8931
▁tickets	-10.8936
▁miembros	-10.8944
▁noon	-10.8959
so	-10.8964
▁vengas	-10.899
▁visita	-10.8992
▁lasted	-10.8994
▁viejos	-10.8997
▁estrella	-10.9006
▁naranja	-10.9006
▁sport	-10.9007
▁egg	-10.9007
▁rose	-10.901
▁luce	-10.901
▁bomba	-10.9011
▁poema	-10.9018
▁turno	-10.9023
▁bite	-10.9028
▁hated	-10.9033
▁artist	-10.9036
▁tomando	-10.9047
ook	-10.9067
▁admiti	-10.9069
▁noches	-10.9075
▁permite	-10.9119
▁smells	-10.9129
tengo	-10.913
▁compra	-10.913
▁necesidad	-10.9131
▁hechos	-10.9133
▁slow	-10.9134
▁airplane	-10.9138
▁cincuenta	-10.9138
▁energy	-10.9138
▁improbable	-10.9138
▁lloró	-10.9138
▁neighborhood	-10.9138
▁plenty	-10.9138
▁relación	-10.9138
▁system	-10.9138
▁amistad	-10.9138
▁cabello	-10.9138
▁drove	-10.9138
▁inútil	-10.9138
▁musician	-10.9138
▁market	-10.9138
▁ground	-10.9138
▁castillo	-10.9138
▁winning	-10.9138
▁convencido	-10.9138
▁convenció	-10.9138
▁prohibido	-10.9139
▁ejemplo	-10.9139
▁castle	-10.914
▁huge	-10.914
bió	-10.9144
▁definite	-10.9147
▁passengers	-10.9147
▁querer	-10.9149
▁crossed	-10.9151
▁listos	-10.9151
▁hill	-10.9154
▁teaches	-10.9155
▁quedado	-10.9156
▁flying	-10.9158
▁tomé	-10.9158
▁esperamos	-10.9166
▁regalos	-10.9169
▁dale	-10.9171
▁llen	-10.9178
▁loca	-10.9179
▁saltó	-10.9179
▁siga	-10.918
▁express	-10.9182
▁acordar	-10.9188
▁prepare	-10.9217
▁rare	-10.9221
▁caer	-10.9226
▁alarma	-10.9228
▁escritor	-10.9237
▁hablaba	-10.9255
▁nor	-10.9264
▁cab	-10.927
▁rog	-10.9271
▁autos	-10.9273
▁poem	-10.9285
▁pasatiempo	-10.9289
▁uses	-10.9289
▁ingenuo	-10.929
▁scientist	-10.929
▁motivo	-10.9293
▁bienvenido	-10.9296
▁photo	-10.93
▁neighbors	-10.9302
▁buying	-10.9302
▁acepta	-10.9304
▁detail	-10.9313
▁abra	-10.9334
▁woods	-10.9349
▁hagan	-10.9355
▁divide	-10.9361
▁stars	-10.9368
▁proteger	-10.9396
▁complete	-10.9413
▁wise	-10.9428
▁sharp	-10.943
reció	-10.943
▁education	-10.9431
▁rehus	-10.9432
safortunadamente	-10.9432
▁conversation	-10.9432
▁elevator	-10.9432
▁falda	-10.9432
▁mantequilla	-10.9432
▁pantalones	-10.9432
▁puntual	-10.9432
▁smiling	-10.9432
▁eleven	-10.9432
▁puzzle	-10.9432
▁sofa	-10.9432
▁subway	-10.9432
▁esperó	-10.9432
▁center	-10.9432
▁example	-10.9432
▁easier	-10.9432
▁fifty	-10.9432
▁matrimonio	-10.9432
▁cantidad	-10.9432
▁thirsty	-10.9432
▁bench	-10.9433
▁puse	-10.9433
▁louder	-10.9433
▁gritó	-10.9434
▁asustado	-10.9434
▁manager	-10.9434
▁pagó	-10.9434
▁stronger	-10.9437
▁significado	-10.9441
▁camina	-10.9441
▁habido	-10.9442
▁article	-10.9447
▁attacked	-10.945
io	-10.9452
▁llevas	-10.9453
▁bebió	-10.9457
▁conocemos	-10.9458
▁millas	-10.9459
▁weak	-10.9459
▁drug	-10.9459
▁novelas	-10.9462
▁require	-10.9468
▁classes	-10.947
▁entra	-10.947
tendremos	-10.947
▁visité	-10.947
▁invitar	-10.9471
▁complain	-10.9478
▁within	-10.9486
▁forest	-10.9494
▁doll	-10.9497
▁sta	-10.9505
▁jugo	-10.9512
▁tarda	-10.953
▁seré	-10.9552
▁coma	-10.9567
aré	-10.9568
▁asegurar	-10.9572
▁results	-10.9582
▁intention	-10.9597
▁afortunado	-10.9598
▁ésa	-10.9598
▁servicio	-10.9599
▁cierta	-10.9601
▁estúpida	-10.9601
▁esfuerzo	-10.9603
▁malas	-10.9603
▁estadounidense	-10.9603
▁orange	-10.9604
▁harías	-10.9605
▁mover	-10.9639
▁dará	-10.9651
▁sundays	-10.966
▁suya	-10.9675
ry	-10.9684
tenés	-10.9688
realmente	-10.9688
▁press	-10.9696
▁diferentes	-10.971
▁modern	-10.9711
▁persuade	-10.972
▁salí	-10.9725
▁ignore	-10.9726
▁main	-10.9728
▁sandwich	-10.9728
mi	-10.9731
virtió	-10.9733
▁confío	-10.9735
▁energía	-10.9735
▁equipaje	-10.9735
▁españa	-10.9735
▁huyó	-10.9735
▁ocean	-10.9735
▁pool	-10.9735
▁round	-10.9735
▁violence	-10.9735
▁área	-10.9735
▁conoció	-10.9735
▁violencia	-10.9735
▁kidding	-10.9735
▁traducir	-10.9735
▁libertad	-10.9735
▁spain	-10.9735
▁committed	-10.9735
▁ambas	-10.9735
▁granja	-10.9736
▁tallest	-10.9737
▁perfectamente	-10.9738
▁third	-10.974
▁confía	-10.974
▁llovió	-10.974
▁querido	-10.974
▁mathematics	-10.9741
▁abandonó	-10.9741
▁generally	-10.9741
▁caballos	-10.9742
▁escuchado	-10.9742
▁smaller	-10.9744
▁robar	-10.9745
▁survived	-10.9745
▁veamos	-10.9746
▁perfectly	-10.9746
▁beside	-10.975
▁tratado	-10.975
▁escriba	-10.9751
▁ignored	-10.9753
▁artista	-10.9765
▁leyó	-10.9767
▁horses	-10.9776
▁using	-10.9778
▁starting	-10.9809
▁sur	-10.9816
▁disfruta	-10.9818
▁montañas	-10.9823
▁members	-10.9833
▁respuestas	-10.9837
▁teachers	-10.9851
▁imaginar	-10.9856
▁contract	-10.9856
▁estadounidenses	-10.9868
ero	-10.9872
dor	-10.9881
▁pensado	-10.9889
▁conferencia	-10.9907
▁abierto	-10.991
▁hombro	-10.9912
▁escalera	-10.9917
▁invitado	-10.9917
▁compar	-10.9923
▁resultados	-10.9926
▁ayudarle	-10.9931
▁venta	-10.9939
ón	-10.9942
▁pelear	-10.9952
▁extranjeros	-10.9954
01	-10.996
▁co	-10.9971
▁herir	-10.9976
▁comen	-10.9978
▁roma	-10.998
▁quedara	-10.9989
▁draw	-10.9993
je	-11.0006
▁plant	-11.0013
red	-11.0028
▁ap	-11.0033
▁suffer	-11.0038
▁mention	-11.0038
▁fortuna	-11.0038
▁pequeños	-11.0045
▁ocurrir	-11.0045
vés	-11.0046
▁curious	-11.0047
▁brown	-11.0047
▁calcetines	-11.0047
▁captain	-11.0047
▁conversación	-11.0047
▁illegal	-11.0047
▁october	-11.0047
▁octubre	-11.0047
▁paquete	-11.0047
▁pudimos	-11.0047
▁rechazó	-11.0047
▁website	-11.0047
▁esperé	-11.0047
▁garage	-11.0047
▁colina	-11.0047
▁couch	-11.0047
▁washington	-11.0047
▁weird	-11.0047
▁traté	-11.0047
▁curso	-11.0048
▁tough	-11.0048
▁lentamente	-11.0048
▁pregúntale	-11.0048
▁vinieron	-11.0048
▁gracioso	-11.0048
▁poniendo	-11.0049
▁saliendo	-11.0049
▁tráeme	-11.0049
▁scolded	-11.005
▁regaló	-11.005
▁betrayed	-11.005
▁empezado	-11.005
▁trabajadores	-11.0051
▁tendría	-11.0052
▁seguido	-11.0054
▁ascensor	-11.0054
▁levantarme	-11.0055
▁original	-11.0055
▁esperemos	-11.0056
▁ayudarnos	-11.0057
▁complained	-11.006
▁hello	-11.0063
▁verdadera	-11.0064
podés	-11.0065
▁russian	-11.0068
▁guests	-11.0071
▁nuevamente	-11.0071
▁houses	-11.0077
▁writer	-11.0085
▁quedamos	-11.0089
▁workers	-11.0092
▁mess	-11.0092
▁hablamos	-11.0129
▁quitar	-11.0132
▁accidents	-11.0136
mp	-11.0148
émonos	-11.015
▁díga	-11.0174
▁h	-11.0174
▁viva	-11.0184
▁deber	-11.0185
▁hurts	-11.0196
sabe	-11.0202
▁gira	-11.0203
▁riesgo	-11.0216
▁na	-11.0218
▁cuánta	-11.0227
▁músico	-11.0227
▁emergencia	-11.0227
▁billete	-11.0233
▁viniera	-11.0236
▁tend	-11.0237
▁termina	-11.0243
z	-11.0252
▁answers	-11.0271
▁cercano	-11.0276
ic	-11.0293
▁shoulder	-11.0293
▁changes	-11.0313
▁sepas	-11.0319
▁pesca	-11.0328
▁mentir	-11.0345
▁supone	-11.0346
▁push	-11.0347
▁suggest	-11.0347
▁vende	-11.0355
▁refuse	-11.0355
▁repeat	-11.0358
▁adora	-11.0359
▁quick	-11.0366
▁brasil	-11.037
▁aceptó	-11.037
▁advantage	-11.037
▁agujero	-11.037
▁anciana	-11.037
▁capitán	-11.037
▁evil	-11.037
▁exchange	-11.037
▁maravilloso	-11.037
▁marriage	-11.037
▁mundial	-11.037
▁plata	-11.037
▁possibility	-11.037
▁suéter	-11.037
▁pollo	-11.037
▁millones	-11.037
▁enfermera	-11.037
▁conversar	-11.037
▁trece	-11.037
▁regresó	-11.037
▁podamos	-11.037
▁departamento	-11.037
▁toalla	-11.037
▁bald	-11.0371
▁credit	-11.0371
▁héroe	-11.0371
▁elección	-11.0371
▁embarrassed	-11.0371
▁claramente	-11.0371
▁gotten	-11.0372
▁everywhere	-11.0372
▁preocupada	-11.0372
▁supuesto	-11.0373
▁pale	-11.0373
▁salida	-11.0373
▁shelf	-11.0374
▁sort	-11.0374
▁ability	-11.0377
▁board	-11.0377
▁progress	-11.0381
▁repaired	-11.0381
▁iguales	-11.0385
▁pulled	-11.0385
▁encontraste	-11.0385
▁director	-11.0392
▁fe	-11.0394
▁borrowed	-11.0398
▁grab	-11.0399
▁apologized	-11.0401
▁fuma	-11.0407
▁skin	-11.0418
▁iría	-11.042
▁sore	-11.0426
▁badly	-11.0427
▁venía	-11.0431
▁jug	-11.0444
ish	-11.0447
▁norte	-11.0448
▁promet	-11.0451
▁besar	-11.0454
▁toques	-11.0457
▁plu	-11.046
▁handle	-11.0462
▁disculpas	-11.049
nse	-11.0499
ri	-11.05
▁salga	-11.0526
▁holidays	-11.053
▁schedule	-11.0543
▁piensan	-11.0552
▁boleto	-11.0567
▁vendría	-11.0567
▁disease	-11.0568
▁olvidar	-11.0568
▁deportes	-11.0574
ión	-11.0578
▁enemigos	-11.0649
though	-11.0656
▁experiment	-11.0674
piensas	-11.0676
▁local	-11.069
▁ilegal	-11.0696
▁débil	-11.0696
▁engine	-11.0697
▁hop	-11.07
▁licencia	-11.0701
▁electric	-11.0703
▁beauty	-11.0703
▁creyó	-11.0703
▁enseguida	-11.0703
▁estupendo	-11.0703
▁lincoln	-11.0703
▁otoño	-11.0703
▁retraso	-11.0703
▁toward	-11.0703
▁zoológico	-11.0703
▁razonable	-11.0703
▁value	-11.0703
▁childhood	-11.0703
▁podido	-11.0703
▁interés	-11.0703
▁breve	-11.0703
▁armario	-11.0703
▁foolish	-11.0704
▁consigo	-11.0704
▁saliera	-11.0704
▁author	-11.0704
▁acusado	-11.0704
▁master	-11.0704
▁ocultando	-11.0704
▁supper	-11.0705
▁puesta	-11.0705
▁bebiendo	-11.0705
▁celoso	-11.0706
▁detesto	-11.0707
▁nearest	-11.0707
▁subir	-11.0707
▁tocando	-11.0708
▁estuvi	-11.0708
▁contrato	-11.0708
▁esconder	-11.0709
▁useless	-11.0709
▁graduated	-11.071
▁agotado	-11.0711
▁dé	-11.0711
▁vivimos	-11.0712
▁army	-11.0715
▁apagó	-11.0717
▁dijera	-11.0719
▁cantó	-11.0723
▁dirá	-11.0724
▁pasajeros	-11.0724
▁esperado	-11.0725
▁falling	-11.0727
▁acabar	-11.0733
▁quedaron	-11.0733
▁nubes	-11.0737
▁italian	-11.0742
▁salvar	-11.0746
pa	-11.0746
▁escalar	-11.0752
▁irnos	-11.0762
▁enfadar	-11.0767
▁ghosts	-11.0773
▁odian	-11.079
▁alimentar	-11.0792
▁abandonar	-11.0798
▁cuid	-11.0811
▁quedes	-11.0811
▁nose	-11.0825
▁solos	-11.0845
▁verle	-11.0853
▁gasta	-11.0854
▁marcha	-11.0865
il	-11.0871
▁iron	-11.0874
▁llevan	-11.0896
▁accidentes	-11.0901
costó	-11.0906
▁despedido	-11.0908
▁intento	-11.0908
▁vuelvas	-11.091
▁burn	-11.091
▁cambia	-11.0915
▁nuevas	-11.0924
ment	-11.093
▁promesas	-11.0937
▁form	-11.0937
▁letra	-11.095
▁program	-11.0961
▁estarás	-11.0968
▁hacerse	-11.0982
pongo	-11.1005
▁citizen	-11.1008
▁decía	-11.1009
estáis	-11.1012
▁echa	-11.1018
ni	-11.1019
▁repair	-11.1026
▁search	-11.1038
▁11	-11.1047
▁acercó	-11.1048
▁apartamento	-11.1048
▁brazil	-11.1048
▁cuestión	-11.1048
▁curiosidad	-11.1048
▁desperté	-11.1048
▁escenario	-11.1048
▁fortune	-11.1048
▁genius	-11.1048
▁junio	-11.1048
▁llamo	-11.1048
▁mexico	-11.1048
▁mirror	-11.1048
▁silence	-11.1048
▁unhappy	-11.1048
▁dislike	-11.1048
▁grateful	-11.1048
▁soltero	-11.1048
▁towel	-11.1048
▁available	-11.1048
▁private	-11.1048
▁sencillo	-11.1048
▁collar	-11.1048
▁condiciones	-11.1048
▁amazing	-11.1048
▁definitivamente	-11.1048
▁trapped	-11.1049
▁espejo	-11.1049
▁wild	-11.1049
▁trato	-11.1049
▁ataque	-11.105
▁colectivo	-11.105
▁hunting	-11.105
▁consejos	-11.105
▁friendship	-11.105
▁birth	-11.1051
▁despierta	-11.1051
▁pesado	-11.1051
▁volviendo	-11.1051
he	-11.1052
▁dis	-11.1053
▁pagado	-11.1053
▁ciencia	-11.1053
▁greatest	-11.1053
▁comúnmente	-11.1055
▁piel	-11.1057
▁warned	-11.1061
▁recoger	-11.1063
▁appeared	-11.1066
▁deserted	-11.1069
▁practice	-11.107
▁impuestos	-11.1074
▁amigas	-11.1075
▁aprendido	-11.1075
▁novels	-11.1076
▁queréis	-11.1076
▁succeeded	-11.1076
éis	-11.1077
▁computers	-11.1077
▁vernos	-11.1081
▁comprender	-11.1083
▁breathe	-11.1085
▁abrí	-11.1086
▁gritar	-11.1086
▁clouds	-11.1088
▁sano	-11.1091
▁cre	-11.1093
▁depressed	-11.1097
▁cleaning	-11.1104
▁fantasmas	-11.1112
!"	-11.112
▁usando	-11.1126
▁nadando	-11.1127
▁detuvo	-11.1129
▁stamps	-11.113
▁seguros	-11.1142
▁gast	-11.1143
▁paying	-11.1161
▁mando	-11.1165
ita	-11.117
▁presentes	-11.1184
pusieron	-11.1186
tió	-11.119
▁reparar	-11.1202
▁details	-11.1205
▁actuar	-11.1214
▁primo	-11.1218
▁interest	-11.1246
▁expert	-11.1256
▁material	-11.1261
▁relationship	-11.1262
▁enfadada	-11.1262
▁tranquilo	-11.1263
▁muchacha	-11.1263
▁rosa	-11.1265
▁mu	-11.1265
▁lindo	-11.1268
tally	-11.1269
▁cigarette	-11.1273
▁cookie	-11.1275
▁warn	-11.1291
▁canadienses	-11.1299
▁disculpa	-11.131
▁quedan	-11.1323
▁hecha	-11.1327
becoming	-11.1345
what	-11.1358
▁goal	-11.136
▁chose	-11.1367
▁hero	-11.1374
▁jump	-11.1383
▁olvide	-11.1384
▁lies	-11.1389
▁disturb	-11.1392
▁shock	-11.1393
▁prepar	-11.1395
▁build	-11.1396
▁automóvil	-11.1398
▁dificultad	-11.1399
▁sudden	-11.1401
▁polite	-11.1403
▁stomach	-11.1405
▁alcalde	-11.1405
▁arguing	-11.1405
▁basketball	-11.1405
▁failure	-11.1405
▁impresión	-11.1405
▁lecture	-11.1405
▁ocurrido	-11.1405
▁océano	-11.1405
▁polvo	-11.1405
▁yokohama	-11.1405
▁bucket	-11.1405
▁pleasant	-11.1405
▁velocidad	-11.1405
▁buried	-11.1405
▁esperanto	-11.1405
▁tiró	-11.1405
▁belleza	-11.1405
▁changing	-11.1405
▁sugirió	-11.1406
▁peel	-11.1406
▁suicidó	-11.1406
▁moda	-11.1406
▁aproximadamente	-11.1406
▁aprendiste	-11.1406
▁disappeared	-11.1407
▁despise	-11.1408
▁vosotras	-11.1408
▁pintó	-11.1409
▁nuts	-11.141
▁cual	-11.141
▁sentarme	-11.141
▁intentarlo	-11.1411
▁fallen	-11.1411
▁tail	-11.1412
▁invented	-11.1413
▁cometió	-11.1413
▁viniste	-11.1415
▁emocionado	-11.1416
▁ausente	-11.1417
▁divorced	-11.1418
▁apaga	-11.142
▁treated	-11.1425
▁lower	-11.1429
▁ponerse	-11.1429
eme	-11.1435
▁adonde	-11.1442
▁disfrut	-11.1443
un	-11.1443
▁bello	-11.1444
▁traveling	-11.1452
▁sospecha	-11.1454
▁cae	-11.146
▁inter	-11.1464
▁snowing	-11.1465
▁descubrir	-11.1465
▁atrap	-11.1473
▁cooked	-11.1474
▁pro	-11.1476
▁verla	-11.1478
▁starts	-11.1482
▁sand	-11.1487
▁visiting	-11.1492
▁names	-11.1495
▁quedaba	-11.1498
▁productos	-11.1507
▁buses	-11.1512
▁presta	-11.1521
▁miel	-11.1522
vo	-11.1546
,000	-11.1556
▁quejas	-11.1561
▁mismos	-11.1565
▁photos	-11.1568
▁viaja	-11.1573
▁ayudará	-11.1578
▁dejo	-11.161
zó	-11.1615
esta	-11.1616
▁termine	-11.1635
▁criminal	-11.1635
▁hábito	-11.164
▁antiguo	-11.1641
▁altura	-11.1642
▁saving	-11.1643
▁soldier	-11.1645
▁soldado	-11.1646
▁herida	-11.1651
▁admitir	-11.166
mo	-11.1681
▁tareas	-11.1685
▁robo	-11.1688
ábamos	-11.1688
▁autor	-11.1689
¿	-11.1725
▁gives	-11.1726
debería	-11.1733
▁metal	-11.1733
▁guardar	-11.1736
▁trabajaba	-11.1739
▁civil	-11.1742
▁marca	-11.1745
▁señor	-11.1753
▁dentist	-11.1758
▁escondi	-11.1758
▁greet	-11.1764
▁steal	-11.1766
▁lift	-11.1767
▁social	-11.1768
▁baile	-11.1768
▁largas	-11.177
▁com	-11.1771
▁suspicious	-11.1771
▁thin	-11.1775
▁votar	-11.1775
▁alfombra	-11.1776
▁apoyo	-11.1776
▁aprecio	-11.1776
▁cierre	-11.1776
▁cinturón	-11.1776
▁crédito	-11.1776
▁delicioso	-11.1776
▁despertó	-11.1776
▁laptop	-11.1776
▁lástima	-11.1776
▁professor	-11.1776
▁ridículo	-11.1776
▁ruso	-11.1776
▁picasso	-11.1776
▁complicated	-11.1776
▁violín	-11.1776
▁méxico	-11.1776
▁sensible	-11.1776
▁battle	-11.1776
▁mintió	-11.1776
▁robbed	-11.1776
▁batalla	-11.1776
▁invitation	-11.1776
▁invitación	-11.1776
▁atrasado	-11.1776
▁entendido	-11.1776
▁exhausted	-11.1776
▁decepcionado	-11.1776
▁guapo	-11.1776
▁molesto	-11.1777
▁gerente	-11.1777
▁baffled	-11.1777
▁salvó	-11.1777
▁sonreír	-11.1778
▁conseguí	-11.1778
▁science	-11.1778
▁adiós	-11.1778
▁election	-11.1778
▁vieron	-11.1779
▁capaces	-11.178
▁vienen	-11.1781
▁ruined	-11.1784
▁intentado	-11.1786
▁considerado	-11.1786
▁visitado	-11.1788
▁echo	-11.1796
▁compre	-11.18
▁larger	-11.1804
▁drives	-11.1816
▁meter	-11.182
▁base	-11.1822
▁venden	-11.1823
▁queja	-11.1824
ried	-11.1825
▁signed	-11.1829
za	-11.1832
▁chat	-11.1871
▁estuvieron	-11.1875
cha	-11.1876
▁carrie	-11.1879
▁maravillosa	-11.1885
▁compañeros	-11.1889
ías	-11.1896
▁continuar	-11.19
▁ibas	-11.1908
▁plantas	-11.192
▁arms	-11.1922
▁vienes	-11.1924
▁daba	-11.1933
▁march	-11.1935
▁casas	-11.1949
▁arena	-11.1952
▁argument	-11.1968
▁dulces	-11.1987
▁predict	-11.1988
▁force	-11.199
▁ayudé	-11.2006
▁volví	-11.2013
▁detener	-11.2017
▁aspecto	-11.2023
▁extranjera	-11.2027
▁effort	-11.2027
▁chiste	-11.2028
▁hopes	-11.2031
▁alguno	-11.2044
ied	-11.2046
pe	-11.2051
▁rode	-11.2053
▁actu	-11.2054
▁adapt	-11.2055
▁ta	-11.2065
▁contest	-11.2111
law	-11.2114
▁lean	-11.2114
estoy	-11.212
sí	-11.2123
▁sabían	-11.2136
▁renunciar	-11.2142
▁niñas	-11.2143
▁improve	-11.2145
▁crash	-11.2148
▁gain	-11.2148
ers	-11.2159
▁audience	-11.216
▁economy	-11.216
▁economía	-11.216
▁efectivo	-11.216
▁enemies	-11.216
▁genio	-11.216
▁insane	-11.216
▁itself	-11.216
▁opina	-11.216
▁provide	-11.216
▁rush	-11.216
▁strict	-11.216
▁íbamos	-11.216
▁colgó	-11.216
▁empecé	-11.216
▁ugly	-11.216
▁coward	-11.216
▁solicitud	-11.216
▁cima	-11.216
▁excusa	-11.216
▁hawaii	-11.216
▁facebook	-11.216
▁rieron	-11.2161
▁diary	-11.2161
▁north	-11.2161
▁importancia	-11.2161
▁ayúdame	-11.2161
▁kilómetros	-11.2161
▁recientemente	-11.2161
▁tocó	-11.2161
▁entré	-11.2162
▁rota	-11.2162
▁nation	-11.2162
▁salario	-11.2162
▁frightened	-11.2163
▁kindness	-11.2163
▁anger	-11.2164
▁impressed	-11.2164
▁concentrate	-11.2164
▁punished	-11.2165
▁cercana	-11.2166
▁cheated	-11.2166
▁hire	-11.2168
▁sentada	-11.2168
▁hablemos	-11.2171
teniendo	-11.2172
▁deeply	-11.2172
▁capable	-11.2173
▁jam	-11.2174
▁haremos	-11.2174
▁bebo	-11.2174
▁pushed	-11.2175
▁acting	-11.2176
▁imagen	-11.2177
▁supo	-11.2178
▁dentista	-11.2179
▁encendió	-11.2179
▁diste	-11.218
▁trataba	-11.218
▁ordenó	-11.2188
▁llegaría	-11.2191
▁saca	-11.2191
▁trate	-11.2192
▁cansados	-11.2196
▁expresar	-11.2197
▁kissing	-11.2197
▁esperaré	-11.2205
▁musical	-11.2205
▁voted	-11.2217
▁alumnos	-11.222
▁text	-11.2225
▁miré	-11.2231
ical	-11.2232
▁wondering	-11.225
▁burl	-11.2251
▁quedando	-11.2255
▁viaj	-11.226
▁usado	-11.2261
▁acuerdas	-11.2262
imos	-11.2275
ion	-11.2302
▁esfuerzos	-11.2331
▁leader	-11.2333
▁pill	-11.2353
▁vase	-11.2369
▁mantiene	-11.2375
▁muertos	-11.2389
▁pi	-11.2411
▁pañuelo	-11.2417
▁vacío	-11.2417
▁apariencia	-11.2421
▁impaciente	-11.2421
▁cerdo	-11.2425
▁pidie	-11.2426
▁talento	-11.2426
▁miembro	-11.2429
▁regla	-11.243
▁seguí	-11.244
▁lesson	-11.2442
▁fines	-11.2445
▁po	-11.2462
tienen	-11.2471
▁saltar	-11.2472
ces	-11.2477
▁mistaken	-11.2483
▁guarda	-11.2501
▁understands	-11.2503
ponía	-11.2511
▁contain	-11.2516
▁m	-11.2524
▁walks	-11.2537
▁talent	-11.2538
▁advance	-11.2545
▁lleg	-11.2548
▁cover	-11.2552
▁receive	-11.2553
▁sándwich	-11.2553
▁defend	-11.2559
▁scene	-11.256
▁baloncesto	-11.256
▁bienvenida	-11.256
▁caluroso	-11.256
▁compromiso	-11.256
▁current	-11.256
▁desierto	-11.256
▁grosero	-11.256
▁mochila	-11.256
▁tránsito	-11.256
▁turkey	-11.256
▁bound	-11.256
▁conduciendo	-11.256
▁desapareció	-11.256
▁june	-11.256
▁mercado	-11.256
▁thirteen	-11.256
▁escucho	-11.256
▁notebook	-11.256
▁pepper	-11.256
▁switch	-11.256
▁acusó	-11.256
▁reuniones	-11.256
▁formulario	-11.256
▁gorda	-11.256
▁campana	-11.256
▁vendré	-11.2561
▁adoro	-11.2561
▁noisy	-11.2561
ista	-11.2561
▁celular	-11.2561
▁móvil	-11.2561
▁villa	-11.2561
▁apply	-11.2562
▁aumento	-11.2562
▁seguida	-11.2563
▁fracaso	-11.2563
▁outfit	-11.2563
▁elected	-11.2563
▁annoying	-11.2563
ur	-11.2563
▁coser	-11.2563
▁cuyo	-11.2564
▁empez	-11.2565
▁shake	-11.2565
▁obviously	-11.2565
▁firme	-11.2567
▁confundido	-11.2567
▁vago	-11.2569
▁usualmente	-11.2569
▁successful	-11.2569
▁inclinó	-11.2571
▁gained	-11.2573
▁formas	-11.2573
▁escena	-11.2575
▁vain	-11.2576
▁obedecer	-11.2577
▁bala	-11.2578
▁spite	-11.258
▁persuaded	-11.2581
▁ringing	-11.2581
▁hall	-11.2588
▁diera	-11.2602
▁inform	-11.2604
éramos	-11.2607
▁dejaría	-11.2611
▁devolver	-11.2621
▁produce	-11.2627
▁sleeps	-11.265
▁despedir	-11.2651
▁trenes	-11.2659
▁cap	-11.267
▁seguía	-11.2687
▁compartir	-11.2687
▁teme	-11.2689
▁tap	-11.2708
▁cancel	-11.2741
▁comparti	-11.2744
▁poems	-11.2744
▁olvida	-11.2748
▁presentar	-11.2749
▁plants	-11.2752
▁vend	-11.2756
▁mejorar	-11.2761
▁tomará	-11.2763
▁fotografías	-11.2766
▁inteligentes	-11.2777
ive	-11.2783
▁empeza	-11.2787
▁wins	-11.2802
ty	-11.2804
▁acostumbrar	-11.282
▁document	-11.2833
▁medida	-11.2838
▁field	-11.284
▁cheek	-11.2841
▁hambriento	-11.2842
▁francesa	-11.2842
▁member	-11.2845
▁orders	-11.2856
▁pe	-11.2876
▁trabaj	-11.2878
▁asuntos	-11.2881
▁equal	-11.2898
▁nombres	-11.2905
▁charla	-11.293
looking	-11.293
quieren	-11.2931
ation	-11.2933
▁sirve	-11.2942
▁tied	-11.2943
▁model	-11.2952
▁señal	-11.2956
▁trabajado	-11.2957
▁interrupt	-11.2962
▁divorce	-11.2962
▁altos	-11.2963
▁prevent	-11.2965
▁gather	-11.2968
▁nevar	-11.2976
▁mantén	-11.2977
▁accompan	-11.2977
▁actress	-11.2977
▁basket	-11.2977
▁envelope	-11.2977
▁garganta	-11.2977
▁grapes	-11.2977
▁kilometers	-11.2977
▁nature	-11.2977
▁piscina	-11.2977
▁razones	-11.2977
▁ridiculous	-11.2977
▁tamaño	-11.2977
▁throat	-11.2977
▁anxious	-11.2977
▁juez	-11.2977
▁okay	-11.2977
▁calvo	-11.2977
▁enojada	-11.2977
▁fecha	-11.2977
▁violin	-11.2977
▁naturaleza	-11.2977
▁acostumbrada	-11.2978
▁fought	-11.2978
▁candy	-11.2978
▁cubierto	-11.2978
▁seriamente	-11.2979
▁comprendo	-11.2979
▁quejando	-11.2979
▁exciting	-11.2979
▁salieron	-11.2979
▁vengo	-11.2979
▁arrestado	-11.2979
▁forgetful	-11.2979
▁volando	-11.298
▁harta	-11.298
▁peleando	-11.2981
▁escondido	-11.2983
▁torre	-11.2983
▁spilled	-11.2983
▁levantado	-11.2984
▁alice	-11.2986
▁cocinando	-11.2988
▁regular	-11.2991
▁juzgar	-11.2991
adas	-11.2992
▁parecer	-11.2993
▁staring	-11.3002
▁casarte	-11.3003
▁growing	-11.3003
▁closer	-11.3004
▁llamaste	-11.3008
▁encontraron	-11.3011
▁murdered	-11.3013
▁llevaré	-11.3019
▁notas	-11.302
▁aparte	-11.3023
▁ayudaría	-11.3035
▁comprarlo	-11.3035
▁miraba	-11.3037
▁llamaba	-11.3037
▁brazos	-11.3039
▁oírte	-11.3042
▁planeta	-11.3045
▁quieto	-11.3048
▁perfecta	-11.306
▁cleaned	-11.3064
▁carga	-11.3065
▁lava	-11.3074
▁dust	-11.3079
▁knowing	-11.3099
▁cerrados	-11.31
▁convertir	-11.3108
dicó	-11.3115
▁promises	-11.3136
▁helps	-11.3139
ito	-11.3148
▁arregl	-11.3159
▁poemas	-11.3177
si	-11.3205
▁remembered	-11.321
▁strangers	-11.3215
dos	-11.3234
▁firmar	-11.3254
▁sales	-11.3267
▁desnudo	-11.3268
▁negra	-11.3268
arme	-11.327
▁alternativa	-11.3271
▁opera	-11.3271
▁fila	-11.3272
▁firm	-11.3272
▁antigua	-11.3274
▁ciudadano	-11.3278
▁científico	-11.3279
▁corte	-11.3279
▁compañero	-11.328
▁hoja	-11.328
▁regard	-11.3283
▁experto	-11.3283
biste	-11.3289
▁suceder	-11.3298
ante	-11.3311
▁action	-11.3313
▁asegúr	-11.3339
ones	-11.3345
▁flu	-11.3346
▁incident	-11.3355
▁apunt	-11.3364
capaz	-11.3365
▁existe	-11.3372
ous	-11.3376
▁muere	-11.3379
ue	-11.3388
▁pressure	-11.3395
▁crecí	-11.3397
▁survive	-11.3397
▁manage	-11.3397
▁bowl	-11.3402
▁nivel	-11.3404
▁witness	-11.3405
▁obvious	-11.3408
▁amar	-11.3408
▁achieve	-11.3412
▁adjust	-11.3412
▁cuarenta	-11.3412
▁dessert	-11.3412
▁efecto	-11.3412
▁embargo	-11.3412
▁enciende	-11.3412
▁evidence	-11.3412
▁inocencia	-11.3412
▁percent	-11.3412
▁strength	-11.3412
▁bullet	-11.3412
▁crisis	-11.3412
▁thick	-11.3412
▁hierro	-11.3412
▁soporto	-11.3412
▁average	-11.3412
▁instituto	-11.3412
▁fijamente	-11.3412
▁screen	-11.3412
▁occurred	-11.3412
▁nevando	-11.3412
▁perdiendo	-11.3412
▁ratón	-11.3412
▁comimos	-11.3412
▁complicado	-11.3412
▁habitual	-11.3412
▁electrónico	-11.3412
▁conference	-11.3412
▁nap	-11.3413
▁adelantado	-11.3413
▁elecciones	-11.3413
▁brillante	-11.3413
▁olor	-11.3413
▁siéntate	-11.3413
▁deshacer	-11.3413
▁raw	-11.3413
▁patio	-11.3414
▁major	-11.3414
▁reply	-11.3414
▁pesada	-11.3414
▁adorable	-11.3414
▁cuente	-11.3415
▁déjalo	-11.3416
▁costa	-11.3416
▁command	-11.3416
▁costará	-11.3416
▁muchísimo	-11.3417
▁generalmente	-11.3418
▁newspapers	-11.3418
▁pants	-11.3418
▁construyó	-11.3419
▁removed	-11.3419
▁jeans	-11.3421
▁causó	-11.3421
▁pica	-11.3422
▁wounded	-11.3422
▁mantente	-11.3423
▁recuerdas	-11.3423
▁llamando	-11.3424
▁concerned	-11.3425
llón	-11.3429
▁sed	-11.3431
▁azules	-11.3432
▁importantes	-11.3434
▁visitors	-11.3439
▁alma	-11.3443
▁llamarme	-11.3444
▁experimento	-11.3447
▁postre	-11.3448
▁bebido	-11.3456
▁utilizar	-11.3458
▁león	-11.3461
▁fork	-11.3478
▁legal	-11.3478
▁danced	-11.3484
▁touched	-11.3489
das	-11.3493
ma	-11.3499
▁suma	-11.3513
▁watches	-11.3515
▁twins	-11.3516
▁however	-11.3518
▁insult	-11.3521
▁ciudades	-11.3527
▁indica	-11.3532
ran	-11.3532
▁sp	-11.3534
▁lately	-11.3534
▁empleado	-11.356
▁creas	-11.3597
▁iban	-11.3605
▁comas	-11.3609
▁w	-11.361
▁oblig	-11.3621
▁controlar	-11.3624
probó	-11.3638
▁resolvi	-11.3656
▁mías	-11.3661
▁dirigi	-11.3668
▁closet	-11.37
▁shoot	-11.3707
▁concern	-11.3711
▁limpi	-11.3717
▁service	-11.3723
▁asesinado	-11.3726
▁testigo	-11.3727
▁lion	-11.3728
▁pierde	-11.3728
▁direction	-11.373
▁juguete	-11.3733
▁cerrado	-11.3736
▁shoe	-11.3736
▁creen	-11.3737
▁placer	-11.3742
▁rojas	-11.3745
▁leo	-11.3754
▁pasan	-11.3754
▁pasto	-11.3757
▁planet	-11.3763
▁alimenta	-11.3772
▁historias	-11.3786
▁earn	-11.3788
sumo	-11.3789
▁contratar	-11.3793
▁terror	-11.3802
ja	-11.3816
▁aim	-11.3816
▁ricos	-11.3816
▁facts	-11.3831
▁directo	-11.384
▁desert	-11.3845
▁supe	-11.3846
necesitas	-11.3847
▁spread	-11.3856
▁speed	-11.3856
▁cell	-11.3856
▁import	-11.3856
▁venid	-11.386
▁salad	-11.3862
▁física	-11.3863
▁oficial	-11.3863
hace	-11.3864
▁attract	-11.3866
▁brit	-11.3866
▁religion	-11.3866
▁acceso	-11.3866
▁ansioso	-11.3866
▁apellido	-11.3866
▁cajón	-11.3866
▁conocimos	-11.3866
▁contrario	-11.3866
▁diamond	-11.3866
▁ejército	-11.3866
▁false	-11.3866
▁gloves	-11.3866
▁helicopter	-11.3866
▁ladder	-11.3866
▁levanto	-11.3866
▁líder	-11.3866
▁method	-11.3866
▁nonsense	-11.3866
▁politics	-11.3866
▁register	-11.3866
▁reputation	-11.3866
▁shakespeare	-11.3866
▁whale	-11.3866
▁whistle	-11.3866
▁actriz	-11.3866
▁emocionante	-11.3866
▁estudió	-11.3866
▁furioso	-11.3866
▁obtuvo	-11.3866
▁deposit	-11.3866
▁guantes	-11.3866
▁tower	-11.3866
▁refrigerador	-11.3866
▁adecuado	-11.3866
▁explosion	-11.3866
▁privado	-11.3866
▁bribe	-11.3866
▁poker	-11.3866
▁electricity	-11.3867
▁lightning	-11.3867
▁discussion	-11.3867
▁enamorada	-11.3867
▁preferida	-11.3867
▁export	-11.3867
▁valla	-11.3867
▁obsequio	-11.3867
▁impression	-11.3867
▁construir	-11.3867
▁suave	-11.3867
▁punta	-11.3867
▁nara	-11.3867
▁condujo	-11.3867
▁cuidadosamente	-11.3867
▁obviamente	-11.3868
▁puppy	-11.3868
▁tiende	-11.3868
▁averg	-11.3868
▁preocuparse	-11.3868
▁prohibited	-11.3868
▁escapó	-11.3868
▁cage	-11.3869
▁posición	-11.387
▁perdone	-11.3871
▁mostraré	-11.3871
▁copa	-11.3871
▁órdenes	-11.3872
▁barking	-11.3872
▁destroyed	-11.3872
▁terminé	-11.3872
▁elige	-11.3873
▁self	-11.3873
▁granted	-11.3874
▁dificultades	-11.3875
▁reasonable	-11.3875
▁delayed	-11.3876
▁attractive	-11.3876
▁llegues	-11.388
▁talented	-11.388
▁moral	-11.388
▁canceled	-11.3881
▁uvas	-11.3883
▁crossing	-11.3883
▁hola	-11.3884
▁actual	-11.3888
▁fan	-11.3897
▁modelo	-11.3897
▁options	-11.3901
▁hacerle	-11.3901
▁volvería	-11.3904
▁peanuts	-11.3907
▁pasaron	-11.3908
▁llevará	-11.391
▁encontrarás	-11.3912
▁orejas	-11.3913
▁charged	-11.3914
▁degrees	-11.3919
▁martes	-11.3926
▁ayudado	-11.393
▁deny	-11.3932
ci	-11.3932
▁estaremos	-11.3936
▁llevara	-11.3963
▁snowed	-11.3963
ventó	-11.3974
▁coins	-11.3976
▁humanos	-11.3992
tuve	-11.3992
▁documentos	-11.3996
▁earns	-11.4
▁total	-11.401
▁pasara	-11.403
▁perdonar	-11.4035
▁primos	-11.404
yon	-11.4043
▁seats	-11.4045
tar	-11.4045
gue	-11.4075
▁closes	-11.4077
▁cares	-11.4088
▁entregar	-11.409
▁presents	-11.4092
▁vano	-11.4093
▁cousins	-11.4095
▁funcionar	-11.4099
▁lea	-11.4115
▁producto	-11.4122
▁participar	-11.4125
▁trabajan	-11.4138
▁upon	-11.4152
tener	-11.4156
habla	-11.4161
▁juga	-11.4161
▁ocupa	-11.4166
▁bromas	-11.4171
▁aprende	-11.4176
▁estén	-11.4177
▁handkerchief	-11.4199
▁file	-11.4201
▁cosecha	-11.4203
▁regrese	-11.4204
▁plate	-11.4206
▁debt	-11.4208
▁amarilla	-11.4209
▁atrapar	-11.421
▁sentar	-11.4219
▁documento	-11.422
▁aquello	-11.4226
▁reasons	-11.4227
ina	-11.4234
▁dudas	-11.4241
▁pása	-11.4274
▁maneja	-11.4274
▁sings	-11.4285
yes	-11.4285
▁ocurre	-11.4286
▁ahorrar	-11.4289
▁planta	-11.4293
▁jugaba	-11.4303
▁poet	-11.4308
ized	-11.4318
▁vea	-11.432
▁double	-11.4325
▁harás	-11.4326
▁acostar	-11.4327
▁disappoint	-11.433
▁admire	-11.4331
▁spell	-11.4332
▁flat	-11.4336
▁disfraz	-11.4342
▁access	-11.4342
▁agradezco	-11.4342
▁aliento	-11.4342
▁ambulance	-11.4342
▁ambulancia	-11.4342
▁atentamente	-11.4342
▁baggage	-11.4342
▁concurso	-11.4342
▁enfadó	-11.4342
▁ensalada	-11.4342
▁falso	-11.4342
▁families	-11.4342
▁impatient	-11.4342
▁mordió	-11.4342
▁método	-11.4342
▁opciones	-11.4342
▁petróleo	-11.4342
▁pregnant	-11.4342
▁práctica	-11.4342
▁responsabilidad	-11.4342
▁rifle	-11.4342
▁tuesday	-11.4342
▁uñas	-11.4342
▁vecindario	-11.4342
▁voluntad	-11.4342
▁vuelvo	-11.4342
▁absence	-11.4342
▁asesino	-11.4342
▁stage	-11.4342
▁task	-11.4342
▁tesoro	-11.4342
▁temper	-11.4342
▁hidden	-11.4342
▁ease	-11.4342
▁perdimos	-11.4342
▁muriendo	-11.4343
▁package	-11.4343
▁begun	-11.4343
▁involucrado	-11.4343
▁stake	-11.4343
▁pídele	-11.4343
▁priest	-11.4343
▁pago	-11.4343
▁lavadora	-11.4343
▁frecuentemente	-11.4343
▁electricidad	-11.4343
▁apparently	-11.4343
▁perdieron	-11.4343
▁burst	-11.4343
▁almohada	-11.4343
▁mandó	-11.4343
▁properly	-11.4344
▁bigge	-11.4344
▁continúa	-11.4344
▁muéstrame	-11.4344
▁embarazada	-11.4344
▁estalló	-11.4345
▁bordo	-11.4345
▁fluently	-11.4345
▁drawer	-11.4345
▁botas	-11.4346
▁matado	-11.4347
▁creció	-11.4347
▁apretó	-11.4347
▁smarter	-11.4348
▁comiste	-11.4349
▁murderer	-11.4349
▁personalmente	-11.435
▁issue	-11.435
▁olvidaré	-11.4351
▁echado	-11.4351
▁baked	-11.4352
▁confessed	-11.4352
▁vendi	-11.4352
claró	-11.4354
▁served	-11.4354
▁preparing	-11.4355
▁cero	-11.4356
▁honesty	-11.4356
▁siesta	-11.4358
▁enseñarme	-11.4358
▁traduj	-11.4359
▁quietly	-11.436
▁coches	-11.4363
▁classmates	-11.4365
▁adopted	-11.4368
▁planted	-11.4372
▁incidente	-11.4373
▁repar	-11.4377
▁colores	-11.4386
▁sabés	-11.4389
▁scare	-11.4396
▁grados	-11.4412
▁seca	-11.4418
▁causes	-11.4421
▁dreaming	-11.4439
▁nowhere	-11.444
▁llegara	-11.4445
po	-11.4451
▁comentarios	-11.4457
▁monedas	-11.4457
▁wishes	-11.4459
▁weapons	-11.4464
▁super	-11.4464
▁presentó	-11.4473
▁mires	-11.4486
▁alérgic	-11.4488
▁aula	-11.4501
▁particip	-11.4503
ug	-11.4511
▁cigarettes	-11.4523
▁tantos	-11.4532
▁ga	-11.4536
▁deer	-11.4549
▁roses	-11.457
▁reporte	-11.4576
▁resulta	-11.4583
▁busqué	-11.4584
▁bat	-11.4596
▁quede	-11.4604
▁alcanz	-11.4607
▁pasear	-11.4614
rme	-11.4628
▁amenaza	-11.4647
▁páginas	-11.4649
▁loan	-11.4658
▁wound	-11.4689
▁presente	-11.4695
vis	-11.4696
▁ríe	-11.4697
▁sorprende	-11.4697
▁adult	-11.4698
▁detective	-11.4699
▁dueño	-11.4702
▁photograph	-11.4702
▁disponible	-11.4705
▁sordo	-11.4705
▁gallina	-11.4706
▁medicamento	-11.4706
▁mejilla	-11.4706
▁deuda	-11.4707
▁dama	-11.4708
▁político	-11.4709
▁acuerda	-11.471
▁employee	-11.4711
▁prisoner	-11.4713
ated	-11.4716
▁callado	-11.4724
▁humano	-11.4731
▁trains	-11.4738
▁depend	-11.4742
▁resist	-11.4757
▁canadians	-11.4762
▁soñ	-11.4778
▁vives	-11.4785
▁americano	-11.4785
▁shame	-11.4798
year	-11.4798
▁miente	-11.4803
cu	-11.4805
▁demanda	-11.4816
▁sentados	-11.4818
ncia	-11.4821
▁mostrar	-11.4823
▁fashion	-11.4826
▁frame	-11.4829
▁flood	-11.4829
▁nuclear	-11.4835
▁fox	-11.4839
ísimo	-11.484
▁lujo	-11.484
▁materna	-11.484
▁pour	-11.4842
▁capacidad	-11.4842
▁burglar	-11.4842
▁court	-11.4842
▁harsh	-11.4842
▁amabilidad	-11.4842
▁arriving	-11.4842
▁california	-11.4842
▁ceiling	-11.4842
▁committee	-11.4842
▁césped	-11.4842
▁dieciocho	-11.4842
▁embajada	-11.4842
▁embassy	-11.4842
▁engaged	-11.4842
▁espectáculo	-11.4842
▁evidencia	-11.4842
▁explosión	-11.4842
▁francisco	-11.4842
▁greek	-11.4842
▁hawái	-11.4842
▁heavily	-11.4842
▁infancia	-11.4842
▁insurance	-11.4842
▁malentendido	-11.4842
▁nowadays	-11.4842
▁ocasión	-11.4842
▁outstanding	-11.4842
▁pimienta	-11.4842
▁pleasure	-11.4842
▁political	-11.4842
▁presión	-11.4842
▁reputación	-11.4842
▁rostro	-11.4842
▁sensitive	-11.4842
▁sociedad	-11.4842
▁society	-11.4842
▁sunglasses	-11.4842
▁typhoon	-11.4842
▁además	-11.4842
▁motorcycle	-11.4842
▁fridge	-11.4842
▁jaula	-11.4842
▁jogging	-11.4842
▁obtener	-11.4843
▁importance	-11.4843
▁lucía	-11.4843
▁blackboard	-11.4843
▁sabia	-11.4843
▁calidad	-11.4843
▁cities	-11.4843
▁boots	-11.4843
▁investigación	-11.4843
▁muero	-11.4843
▁sunny	-11.4843
▁juan	-11.4843
▁claus	-11.4843
▁carpet	-11.4843
▁melodía	-11.4843
▁estanque	-11.4843
▁autoridad	-11.4844
▁bailando	-11.4844
▁stove	-11.4844
▁babbling	-11.4844
▁decidieron	-11.4844
▁distinguish	-11.4844
▁objeto	-11.4844
▁frankly	-11.4844
▁picante	-11.4844
▁tinta	-11.4844
▁stock	-11.4844
▁elegido	-11.4845
▁muerta	-11.4845
▁interesada	-11.4845
▁bitter	-11.4845
▁entregó	-11.4845
▁respirar	-11.4845
▁obligado	-11.4846
▁valuable	-11.4846
▁enséñame	-11.4846
▁tejado	-11.4846
▁cuéntame	-11.4847
▁taxes	-11.4847
▁humo	-11.4848
▁sentarse	-11.4848
▁caminaba	-11.4849
▁mancha	-11.4849
▁sewing	-11.4849
▁lección	-11.485
▁treasure	-11.4851
▁propios	-11.4851
▁sour	-11.4851
▁sweating	-11.4852
▁shouted	-11.4853
▁shorter	-11.4854
▁separated	-11.4855
▁esquí	-11.4855
▁empezamos	-11.4855
▁personally	-11.4856
▁insisted	-11.4857
▁oldest	-11.4862
▁hired	-11.4863
▁entraron	-11.4865
▁pobres	-11.4865
▁height	-11.4866
▁intended	-11.4867
▁casarme	-11.4868
▁korean	-11.487
▁magic	-11.4872
▁solucionar	-11.4874
▁rented	-11.4876
estabas	-11.4877
▁nerviosa	-11.4879
▁volumen	-11.488
lu	-11.4881
▁closely	-11.4883
▁pasaba	-11.4885
▁contarte	-11.4887
▁fiar	-11.4888
▁mandar	-11.4889
▁places	-11.489
▁existen	-11.4892
▁forty	-11.4893
▁imagined	-11.4894
▁solar	-11.4895
j	-11.4897
▁periódicos	-11.4899
▁grades	-11.4901
▁che	-11.4901
▁turistas	-11.4915
▁bananas	-11.4922
▁reunir	-11.4925
▁tales	-11.4929
▁cazar	-11.493
▁dejarlo	-11.4932
▁derechos	-11.4933
ller	-11.4934
▁encargar	-11.4939
▁conté	-11.4939
▁juegos	-11.4942
▁comía	-11.4944
▁alimentos	-11.4944
▁vacas	-11.4945
▁meta	-11.4947
▁normas	-11.495
▁doubts	-11.4952
pero	-11.4954
▁meters	-11.4958
ud	-11.4965
▁ink	-11.4966
▁l	-11.5004
▁veas	-11.5005
side	-11.5014
▁efforts	-11.5019
▁comp	-11.5021
▁rosas	-11.5033
▁cargar	-11.5041
▁j	-11.5052
▁extrañar	-11.5053
ico	-11.5076
sal	-11.5089
▁metros	-11.5104
▁debate	-11.5118
▁ignorar	-11.5124
one	-11.513
▁claims	-11.5131
age	-11.5135
darnos	-11.5143
áramos	-11.515
▁ca	-11.5155
▁luchar	-11.5157
▁sábados	-11.5166
▁consult	-11.517
sh	-11.5172
▁unusual	-11.5177
▁calles	-11.5186
▁knee	-11.5195
▁prefiere	-11.5197
▁tune	-11.5201
▁ruin	-11.5202
▁behave	-11.5212
▁demand	-11.5215
ch	-11.5216
▁desayuna	-11.5221
▁hu	-11.5223
illa	-11.5224
▁amarillo	-11.5225
▁suggestion	-11.5226
▁appearance	-11.5228
▁zorro	-11.5229
▁flag	-11.5229
▁parecido	-11.5231
▁cabra	-11.5233
▁piloto	-11.5233
▁tourist	-11.5236
▁weapon	-11.5236
▁pide	-11.5237
▁lento	-11.5238
▁vuestros	-11.5243
cient	-11.5245
▁manda	-11.5248
▁squeeze	-11.5248
▁papers	-11.5262
▁necesite	-11.5263
▁players	-11.5268
▁africa	-11.5274
▁scar	-11.5278
▁éstas	-11.5279
ig	-11.5284
▁protest	-11.5298
▁pop	-11.5301
▁jobs	-11.5302
▁cómodo	-11.5304
▁faith	-11.5307
▁rate	-11.5308
▁llegas	-11.531
aciones	-11.531
▁oppose	-11.5319
▁mat	-11.5322
recuerdas	-11.5325
▁extraños	-11.5326
▁volume	-11.5329
▁decent	-11.5338
▁tipos	-11.5344
▁cough	-11.5346
endo	-11.535
▁approve	-11.5353
▁poison	-11.5356
▁sweat	-11.5357
▁oso	-11.5357
▁blow	-11.5359
▁recogi	-11.5361
▁angel	-11.5362
▁lastimar	-11.5363
▁unexpected	-11.5364
▁pruebas	-11.5364
▁hug	-11.5365
▁servir	-11.5365
▁obvio	-11.5368
▁occasion	-11.5369
▁adicto	-11.5369
▁apoyó	-11.5369
▁comité	-11.5369
▁confesó	-11.5369
▁coraje	-11.5369
▁cuaderno	-11.5369
▁deliciosa	-11.5369
▁egoísta	-11.5369
▁encender	-11.5369
▁engañó	-11.5369
▁entrance	-11.5369
▁estudié	-11.5369
▁hoax	-11.5369
▁impresionado	-11.5369
▁inevitable	-11.5369
▁instructions	-11.5369
▁izquierdo	-11.5369
▁juicio	-11.5369
▁ketchup	-11.5369
▁knowledge	-11.5369
▁maestra	-11.5369
▁martillo	-11.5369
▁ocurra	-11.5369
▁paliza	-11.5369
▁pizarra	-11.5369
▁rough	-11.5369
▁secundaria	-11.5369
▁target	-11.5369
▁temporada	-11.5369
▁terrific	-11.5369
▁tifón	-11.5369
▁unfair	-11.5369
▁universe	-11.5369
▁universo	-11.5369
▁upstairs	-11.5369
▁vestida	-11.5369
▁época	-11.5369
▁ausencia	-11.5369
▁conceited	-11.5369
▁drew	-11.5369
▁silver	-11.5369
▁policy	-11.5369
▁pagué	-11.5369
▁almorzando	-11.5369
▁descubierto	-11.5369
▁sheep	-11.5369
▁mystery	-11.5369
▁soft	-11.5369
▁swear	-11.5369
▁coincidence	-11.5369
▁competition	-11.5369
▁replace	-11.5369
▁habitaciones	-11.5369
▁scenery	-11.5369
▁mentido	-11.5369
▁educado	-11.5369
▁imagination	-11.5369
▁cigarro	-11.5369
▁presence	-11.5369
▁permitido	-11.537
▁imaginación	-11.537
▁scratch	-11.537
▁asia	-11.537
▁comparto	-11.537
▁exhausto	-11.537
▁honestidad	-11.537
▁hundió	-11.537
▁level	-11.537
▁row	-11.537
▁arrepiento	-11.537
▁salgo	-11.537
▁muro	-11.5371
▁quality	-11.5371
▁fortunately	-11.5371
▁square	-11.5372
▁actualmente	-11.5372
▁professional	-11.5372
▁cheaper	-11.5372
▁object	-11.5372
▁sonriendo	-11.5372
▁restless	-11.5372
▁soul	-11.5372
▁instrucciones	-11.5373
▁progreso	-11.5373
▁arrojó	-11.5374
▁suitable	-11.5374
▁barba	-11.5374
▁dating	-11.5375
▁saqué	-11.5375
▁r	-11.5375
▁ignoró	-11.5376
▁collecting	-11.5377
▁treaty	-11.5377
▁product	-11.5377
▁bowed	-11.5378
▁oeste	-11.5378
▁mostrarte	-11.5379
▁rescued	-11.5379
▁fairly	-11.5379
▁miraron	-11.538
▁addict	-11.5382
▁despertador	-11.5384
▁disparar	-11.5384
▁framed	-11.5385
▁prest	-11.5385
▁shocked	-11.5387
▁marchó	-11.5389
▁disfrutar	-11.5394
▁podré	-11.5396
▁sigo	-11.5396
▁reina	-11.5397
▁income	-11.5401
▁manners	-11.5401
ear	-11.5402
▁quarter	-11.5403
▁quejó	-11.5404
▁quemó	-11.5406
▁ayudando	-11.5409
▁herramientas	-11.5409
▁pagaré	-11.541
nzó	-11.5417
▁serás	-11.542
▁applie	-11.542
▁chosen	-11.5428
▁sellos	-11.5428
▁pesa	-11.5434
▁posee	-11.5436
▁rely	-11.5436
▁acción	-11.5451
▁leerlo	-11.5452
▁cows	-11.5452
▁gemelos	-11.5452
▁busca	-11.5457
▁preciosa	-11.546
▁terms	-11.5463
▁saludó	-11.5466
cated	-11.5472
▁serpientes	-11.5474
▁snakes	-11.5474
▁alcanza	-11.5491
▁lit	-11.5491
▁fate	-11.5493
▁parking	-11.5495
▁amas	-11.5496
▁regalar	-11.5506
▁grown	-11.5509
▁talla	-11.551
▁permanecer	-11.5514
▁americanos	-11.553
▁sonando	-11.5531
▁científicos	-11.5533
oso	-11.5538
pidieron	-11.5545
esa	-11.557
▁lados	-11.5581
▁lucha	-11.5584
ance	-11.5592
▁canal	-11.5597
▁aside	-11.5597
▁gustado	-11.5632
eza	-11.5636
▁cor	-11.5638
ho	-11.5655
▁considera	-11.5674
elo	-11.5676
▁fueras	-11.5681
▁cu	-11.5681
▁mata	-11.5702
▁tru	-11.5723
▁entradas	-11.5725
ida	-11.5728
▁recibi	-11.5743
▁piense	-11.5749
▁coin	-11.5761
cantaría	-11.5768
▁pilot	-11.577
▁dim	-11.5778
▁colors	-11.578
▁cobarde	-11.5783
▁pluma	-11.5784
▁bandera	-11.5784
▁cuento	-11.5786
▁guardia	-11.5787
▁custom	-11.5787
▁viera	-11.5788
▁pida	-11.5789
▁curtain	-11.5789
▁rodilla	-11.579
▁encuentre	-11.579
▁cigarrillo	-11.5791
▁moneda	-11.5792
▁comentario	-11.5792
▁stamp	-11.5793
▁oscura	-11.5794
▁twin	-11.5801
▁design	-11.5809
▁sucio	-11.5809
▁edi	-11.5815
▁resultar	-11.5819
▁budge	-11.5833
▁revis	-11.5842
▁ke	-11.5856
▁corrí	-11.5867
▁arruin	-11.5868
▁agradeci	-11.5872
ellos	-11.5872
▁botellas	-11.5875
mail	-11.5875
▁fuese	-11.5878
▁cocin	-11.5881
▁odiaba	-11.5884
arte	-11.5884
▁bottles	-11.5897
▁pray	-11.5899
▁apunta	-11.5904
▁increase	-11.5908
▁pack	-11.5914
▁profesional	-11.5917
▁malos	-11.5918
▁triunfar	-11.5918
▁brand	-11.5921
▁gentil	-11.5921
▁central	-11.5924
▁april	-11.5924
▁automobile	-11.5924
▁biblia	-11.5924
▁cottage	-11.5924
▁despedida	-11.5924
▁diecisiete	-11.5924
▁festival	-11.5924
▁gasolina	-11.5924
▁hockey	-11.5924
▁inconsciente	-11.5924
▁innocence	-11.5924
▁limít	-11.5924
▁mouse	-11.5924
▁oigo	-11.5924
▁oxygen	-11.5924
▁oxígeno	-11.5924
▁promotion	-11.5924
▁química	-11.5924
▁reducir	-11.5924
▁regreso	-11.5924
▁resort	-11.5924
▁retrasó	-11.5924
▁rusia	-11.5924
▁sombra	-11.5924
▁stubborn	-11.5924
▁unreliable	-11.5924
▁seventeen	-11.5924
▁suceda	-11.5924
▁apology	-11.5924
▁pillow	-11.5924
▁cálido	-11.5924
▁deprimido	-11.5924
▁merecía	-11.5924
▁mutuamente	-11.5924
▁trunk	-11.5924
▁kobe	-11.5925
▁discutiendo	-11.5925
▁selfish	-11.5925
▁brief	-11.5925
▁hugged	-11.5925
▁periodista	-11.5925
▁rio	-11.5925
▁tinto	-11.5925
▁batería	-11.5925
▁estantería	-11.5925
▁wide	-11.5925
▁repentinamente	-11.5925
▁observando	-11.5925
▁juguemos	-11.5925
▁advirtió	-11.5925
▁safety	-11.5925
▁sugiero	-11.5926
▁spade	-11.5926
▁drowning	-11.5926
▁contraseña	-11.5926
▁password	-11.5926
▁hammer	-11.5926
▁revés	-11.5926
▁caminó	-11.5926
▁bible	-11.5927
▁partida	-11.5927
▁bleeding	-11.5927
▁gane	-11.5927
▁soap	-11.5927
▁caído	-11.5927
▁threatened	-11.5927
▁incómodo	-11.5928
▁saque	-11.5928
▁abandonado	-11.5929
▁partió	-11.5929
▁metido	-11.5929
▁released	-11.5929
▁optimista	-11.5929
▁pretendía	-11.593
▁pido	-11.593
▁disguised	-11.593
▁abril	-11.5931
▁afortunadamente	-11.5932
▁fuertes	-11.5934
▁arrogante	-11.5935
▁santa	-11.5935
▁decile	-11.5936
▁salgamos	-11.5936
▁siguieron	-11.5936
▁everest	-11.5939
▁jugadores	-11.594
▁burning	-11.594
▁estacionar	-11.5941
▁riendo	-11.5942
▁suffering	-11.5942
dical	-11.5943
▁naturales	-11.5945
construido	-11.5946
▁computadores	-11.5947
▁logro	-11.5947
▁estacion	-11.5949
▁senté	-11.5957
cogí	-11.5958
▁decente	-11.5958
▁kilos	-11.5959
▁moderna	-11.5961
▁cómoda	-11.5962
▁poeta	-11.5964
▁aparcar	-11.5964
▁feo	-11.5966
▁evento	-11.5968
▁informed	-11.5973
▁respond	-11.5974
▁sabor	-11.5975
▁labios	-11.5981
▁trabajamos	-11.5982
leaned	-11.5986
▁celebrate	-11.5987
▁supplies	-11.599
▁incorrecta	-11.5994
▁pasaría	-11.5997
▁imp	-11.6001
▁decirlo	-11.6005
▁memorize	-11.6007
how	-11.6017
▁heater	-11.6017
▁considerar	-11.6018
▁pasarme	-11.6019
▁comprarse	-11.6026
▁conejos	-11.6036
tiendo	-11.6038
▁clientes	-11.6053
▁decepcionar	-11.6053
▁painful	-11.6054
▁juegan	-11.6056
eligió	-11.6057
▁discuti	-11.606
▁products	-11.6065
▁tourists	-11.6067
▁necesites	-11.6068
ng	-11.6074
▁chances	-11.6081
▁dependen	-11.6103
▁divorci	-11.6121
▁extranjeras	-11.6122
▁chistes	-11.6123
▁superar	-11.6129
▁ba	-11.6141
ismo	-11.6199
iz	-11.6216
▁abuse	-11.622
▁consume	-11.623
old	-11.6231
▁cultura	-11.6241
qui	-11.6251
▁hoped	-11.6266
che	-11.6278
▁aprobar	-11.6286
▁owner	-11.6301
▁encuentras	-11.631
▁stepp	-11.6311
▁mentiras	-11.6313
▁acabas	-11.6322
where	-11.6332
▁scream	-11.6342
▁roll	-11.6348
▁tire	-11.6349
▁damage	-11.6356
▁gu	-11.6364
▁misterio	-11.6365
▁culture	-11.6365
▁divertida	-11.6365
▁sugerencia	-11.6365
vamos	-11.6366
▁reservation	-11.6366
▁helicóptero	-11.6369
▁clara	-11.637
▁wheel	-11.6371
▁sujeto	-11.6371
▁belt	-11.6373
▁cliente	-11.638
dando	-11.6382
▁lu	-11.6383
▁familias	-11.6385
▁dollar	-11.639
▁italiano	-11.6399
▁fuente	-11.6401
aking	-11.6403
su	-11.641
▁mono	-11.6412
▁permaneci	-11.6412
sumí	-11.6453
▁puñ	-11.6461
um	-11.6465
queréis	-11.6465
tenéis	-11.6465
ria	-11.6469
▁entendí	-11.6469
▁russia	-11.6473
five	-11.6474
▁gifts	-11.6485
▁state	-11.6493
▁lent	-11.6499
▁delay	-11.6501
▁habilidad	-11.6506
▁thorough	-11.6508
▁wealth	-11.6509
▁shout	-11.6509
▁rápida	-11.651
zco	-11.651
▁prince	-11.6511
▁affect	-11.6512
▁aburrida	-11.6513
▁actitud	-11.6513
▁anteojos	-11.6513
▁attitude	-11.6513
▁autumn	-11.6513
▁auténtico	-11.6513
▁cedió	-11.6513
▁challenge	-11.6513
▁desastre	-11.6513
▁desierta	-11.6513
▁downstairs	-11.6513
▁eighteen	-11.6513
▁estilo	-11.6513
▁financial	-11.6513
▁funcionó	-11.6513
▁garbage	-11.6513
▁halloween	-11.6513
▁horario	-11.6513
▁hunch	-11.6513
▁journalist	-11.6513
▁junk	-11.6513
▁lastimó	-11.6513
▁lápices	-11.6513
▁narrow	-11.6513
▁opposite	-11.6513
▁promedio	-11.6513
▁repugnante	-11.6513
▁scissors	-11.6513
▁simpático	-11.6513
▁statue	-11.6513
▁tabaco	-11.6513
▁traicionó	-11.6513
▁trigger	-11.6513
▁pálido	-11.6513
▁quíta	-11.6513
▁recién	-11.6513
▁screw	-11.6513
▁sensación	-11.6513
▁desaparecido	-11.6513
▁flashlight	-11.6513
▁honey	-11.6513
▁zona	-11.6513
▁falleció	-11.6513
▁parcial	-11.6513
▁flour	-11.6513
▁slam	-11.6513
▁stomachache	-11.6513
▁atento	-11.6513
▁empiece	-11.6513
▁department	-11.6513
▁reduce	-11.6513
▁dozen	-11.6513
▁lavó	-11.6513
▁pozo	-11.6513
▁purse	-11.6513
▁sirvió	-11.6513
▁pipe	-11.6513
▁palace	-11.6513
▁nearby	-11.6513
▁authority	-11.6513
▁further	-11.6513
▁antig	-11.6513
▁eyesight	-11.6513
▁tóma	-11.6513
▁soltera	-11.6513
▁remarkable	-11.6513
▁robando	-11.6513
▁dormida	-11.6513
▁operation	-11.6514
▁admiro	-11.6514
▁dibujo	-11.6514
▁acondicionado	-11.6514
▁rejected	-11.6514
▁soñando	-11.6515
▁informado	-11.6515
▁happier	-11.6515
▁quejarse	-11.6515
▁atravesó	-11.6516
▁appetite	-11.6516
▁pavo	-11.6516
▁planned	-11.6516
▁áfrica	-11.6517
▁lotería	-11.6517
▁continuó	-11.6518
▁ciertamente	-11.6518
▁actúa	-11.6518
▁boiling	-11.652
▁mostrarme	-11.652
▁proof	-11.652
▁condición	-11.652
▁defense	-11.652
▁tela	-11.652
▁busc	-11.652
▁explicarlo	-11.652
▁secó	-11.6521
▁swam	-11.6521
▁invitaron	-11.6521
▁muestra	-11.6522
cipe	-11.6523
▁balde	-11.6523
▁desgracia	-11.6525
▁screamed	-11.6525
▁sandwiches	-11.6526
▁cogido	-11.6526
▁sobrevivir	-11.6528
▁logró	-11.6528
▁mataron	-11.653
▁approved	-11.653
▁enseñaré	-11.653
▁dominar	-11.6531
▁cave	-11.6532
▁busco	-11.6532
▁pasaste	-11.6533
▁responde	-11.6535
▁cochera	-11.6538
▁comparado	-11.6539
▁preguntarte	-11.6539
▁resistir	-11.6541
▁conocerte	-11.6542
▁participate	-11.6544
▁gastos	-11.6544
▁lloverá	-11.6546
▁tonta	-11.6546
▁apetece	-11.6548
▁asientos	-11.6549
▁insistió	-11.6549
▁oye	-11.6549
▁utiliza	-11.655
▁avoided	-11.6555
▁adivina	-11.6556
▁joy	-11.6558
▁ponerme	-11.6559
▁crowded	-11.6562
▁officer	-11.6564
▁yendo	-11.6566
▁trabajas	-11.6566
▁hijas	-11.6568
▁checked	-11.6569
▁tiro	-11.6572
▁rainy	-11.6573
▁estudias	-11.6574
▁uniforme	-11.6575
vi	-11.6578
▁barber	-11.6579
chi	-11.658
▁worrying	-11.6585
▁guns	-11.6588
▁comete	-11.659
▁breaking	-11.6591
▁nodded	-11.6592
▁completa	-11.6594
▁assure	-11.66
▁daría	-11.6606
voted	-11.6623
▁foreigners	-11.6624
king	-11.6625
▁aman	-11.6635
▁adultos	-11.6642
zo	-11.6656
▁tires	-11.6657
▁encontrarte	-11.6664
▁knees	-11.6665
eh	-11.6679
▁sabías	-11.6681
▁amarillas	-11.6681
▁osos	-11.6684
▁sienten	-11.6695
▁lamp	-11.6699
tenemos	-11.6699
▁lovely	-11.6711
pueden	-11.6713
ados	-11.6723
▁lead	-11.6746
▁prepara	-11.6748
▁salgas	-11.6757
▁pa	-11.6762
▁molestar	-11.6789
▁aguantar	-11.6797
▁encantador	-11.6801
▁listens	-11.6803
▁pages	-11.6805
▁cabe	-11.6806
▁ocupar	-11.6819
▁logr	-11.6826
▁meals	-11.6829
▁understanding	-11.6836
▁bolsillos	-11.6847
▁alegre	-11.6855
▁pockets	-11.6864
▁invent	-11.6869
▁west	-11.6875
▁consigue	-11.6877
tado	-11.6883
▁muchachos	-11.6889
▁maletas	-11.6889
tir	-11.6895
▁encantado	-11.6898
▁dare	-11.6899
▁norma	-11.6906
▁permit	-11.6908
▁vayan	-11.6911
▁pencils	-11.6922
bo	-11.6933
aban	-11.6952
▁cups	-11.6955
iera	-11.6957
podé	-11.696
▁realizar	-11.6963
▁asustar	-11.6981
▁confuso	-11.6991
▁advis	-11.6993
▁pesadilla	-11.6998
▁brain	-11.6999
▁cortina	-11.7004
▁cheque	-11.7005
▁ghost	-11.7006
▁detalle	-11.7006
▁adulto	-11.7015
▁violent	-11.7018
▁traiga	-11.7021
▁mission	-11.7022
▁lamenta	-11.7031
▁fi	-11.704
▁resign	-11.7045
▁doctors	-11.705
▁suicidar	-11.7055
▁compara	-11.7063
▁bebí	-11.7064
cierto	-11.7064
vy	-11.7066
▁ayudes	-11.7071
eras	-11.7081
ará	-11.7082
sabés	-11.7089
tendré	-11.709
▁evit	-11.709
▁collect	-11.7115
▁separate	-11.7118
▁owes	-11.7121
▁hesitate	-11.7122
ula	-11.7123
▁origin	-11.7123
▁faint	-11.7125
▁confess	-11.7125
▁borde	-11.7126
▁quarrel	-11.7126
tando	-11.7129
▁superior	-11.713
▁tenedor	-11.713
▁comercial	-11.713
▁ángel	-11.7131
▁ours	-11.7131
▁convenient	-11.7133
▁spli	-11.7135
▁profunda	-11.7136
▁veneno	-11.7137
▁spot	-11.7137
▁conscious	-11.7137
tacó	-11.7137
▁tranquila	-11.7137
▁aceite	-11.7138
▁acepto	-11.7138
▁album	-11.7138
▁apetito	-11.7138
▁application	-11.7138
▁cafetería	-11.7138
▁cambié	-11.7138
▁ciega	-11.7138
▁circumstances	-11.7138
▁clásica	-11.7138
▁complex	-11.7138
▁conjunto	-11.7138
▁conocieron	-11.7138
▁conseguido	-11.7138
▁decírselo	-11.7138
▁desmayó	-11.7138
▁determine	-11.7138
▁disculpó	-11.7138
▁duermo	-11.7138
▁eléctrica	-11.7138
▁gatillo	-11.7138
▁húmedo	-11.7138
▁intérprete	-11.7138
▁january	-11.7138
▁ladrones	-11.7138
▁lectura	-11.7138
▁ligero	-11.7138
▁linterna	-11.7138
▁luggage	-11.7138
▁mobile	-11.7138
▁mínimo	-11.7138
▁narita	-11.7138
▁necesaria	-11.7138
▁pajamas	-11.7138
▁patinar	-11.7138
▁pánico	-11.7138
▁research	-11.7138
▁responsibility	-11.7138
▁rising	-11.7138
▁rompecabezas	-11.7138
▁siguiendo	-11.7138
▁translation	-11.7138
▁vencido	-11.7138
▁virus	-11.7138
▁corriente	-11.7138
▁excepcional	-11.7138
▁veloz	-11.7138
▁infantil	-11.7138
▁amusing	-11.7138
▁disaster	-11.7138
▁typical	-11.7138
▁apague	-11.7138
▁assistant	-11.7138
▁palacio	-11.7138
▁acciones	-11.7138
▁vegetales	-11.7138
▁coincidencia	-11.7138
▁desperate	-11.7138
▁estatua	-11.7138
▁pink	-11.7138
▁láv	-11.7138
▁resuelto	-11.7138
▁cocinero	-11.7138
▁almorzamos	-11.7138
▁aparentemente	-11.7138
▁fog	-11.7138
▁datos	-11.7138
▁amazed	-11.7138
▁communicate	-11.7138
▁ebrio	-11.7138
▁desocupado	-11.7138
▁poquito	-11.7138
▁secretary	-11.7138
▁comenzado	-11.7138
▁harina	-11.7139
▁treatment	-11.7139
▁directamente	-11.7139
▁tratamiento	-11.7139
▁salimos	-11.7139
▁delgado	-11.7139
▁strike	-11.7139
▁exitoso	-11.7139
▁pasaje	-11.7139
▁"¡	-11.7139
▁gripe	-11.7139
▁lenguaje	-11.7139
▁sink	-11.7139
▁confidence	-11.7139
▁impedir	-11.7139
▁salón	-11.7139
▁bush	-11.7139
▁cloudy	-11.7139
▁thrilled	-11.714
▁guía	-11.714
▁flow	-11.714
▁drowned	-11.714
▁construcción	-11.714
▁librería	-11.714
▁revel	-11.7141
▁visible	-11.7141
▁punctual	-11.7142
▁encouraged	-11.7142
▁subiendo	-11.7142
▁sorprendería	-11.7142
▁incorrecto	-11.7142
▁astuto	-11.7143
▁alegría	-11.7143
▁cheered	-11.7143
▁path	-11.7143
▁perderás	-11.7143
▁respira	-11.7143
▁sentamos	-11.7144
▁enseñando	-11.7144
▁warmer	-11.7145
▁barrio	-11.7145
▁cheating	-11.7145
▁ganando	-11.7146
▁divorcio	-11.7147
han	-11.7148
▁loudly	-11.7148
▁practical	-11.7148
▁retired	-11.7149
▁crush	-11.7149
▁mudó	-11.715
▁lottery	-11.715
▁fainted	-11.715
▁unknown	-11.7151
▁recursos	-11.7151
▁painter	-11.7151
▁float	-11.7151
▁reconocí	-11.7152
▁comamos	-11.7153
▁border	-11.7154
▁sincera	-11.7154
▁damaged	-11.7156
▁misión	-11.7157
▁yard	-11.7158
▁climbing	-11.7161
▁improved	-11.7163
▁mezcla	-11.7164
▁career	-11.7165
▁preguntando	-11.7166
▁cultiva	-11.7167
▁respetar	-11.7168
▁insectos	-11.7168
▁mire	-11.717
▁sudando	-11.717
▁enojar	-11.7173
▁hundreds	-11.7177
▁latest	-11.7179
▁papeles	-11.7181
▁fea	-11.7189
▁daughters	-11.719
▁trabajador	-11.7198
▁cumple	-11.7201
▁consecuencias	-11.7203
▁aquél	-11.7206
▁ideal	-11.7216
▁creemos	-11.7217
▁estate	-11.722
▁compraron	-11.722
▁beard	-11.7222
▁comb	-11.7223
▁mirá	-11.7228
▁tigers	-11.7238
▁lobos	-11.7256
▁dejas	-11.7264
▁blamed	-11.728
▁enero	-11.7286
▁seated	-11.7286
▁cigarrillos	-11.7291
▁pienses	-11.7291
manded	-11.7296
ame	-11.7299
▁políticos	-11.7308
▁juguetes	-11.7326
▁documents	-11.7344
▁lawn	-11.7356
misunderstanding	-11.7373
▁juntar	-11.7375
▁asegur	-11.7387
▁letras	-11.7388
▁vasos	-11.7398
▁seria	-11.7399
▁pasas	-11.741
▁colecciona	-11.7423
ke	-11.7429
▁abandon	-11.7435
gó	-11.7436
▁pis	-11.7438
op	-11.7444
ica	-11.7452
pr	-11.7459
▁baila	-11.746
▁caus	-11.7479
▁stones	-11.7486
x	-11.7489
▁bi	-11.7489
▁ref	-11.75
▁llaman	-11.7514
▁locos	-11.7518
▁toque	-11.752
▁lanza	-11.7523
▁revistas	-11.753
ros	-11.7533
▁magazines	-11.7539
▁fle	-11.7554
▁cura	-11.7555
▁tapa	-11.756
▁limpias	-11.7563
▁derram	-11.7569
▁cds	-11.759
cer	-11.7602
out	-11.7606
▁llamadas	-11.7612
▁anterior	-11.7613
pi	-11.7643
▁asusta	-11.7651
▁universitario	-11.7657
▁ventaja	-11.7657
▁fresca	-11.7657
▁mosquito	-11.766
▁barata	-11.7661
▁falsa	-11.7661
▁sonríe	-11.7661
▁prima	-11.7661
▁odd	-11.7662
▁conocimiento	-11.7663
▁corté	-11.7663
▁ciervo	-11.7664
▁cambie	-11.7669
▁conozca	-11.7669
▁pedazo	-11.7669
▁politician	-11.767
▁voluntario	-11.767
▁rabbit	-11.767
▁sienta	-11.767
▁conejo	-11.7671
▁serpiente	-11.7671
▁snake	-11.7671
▁segundos	-11.7674
▁quema	-11.768
▁alimento	-11.768
▁liber	-11.7683
▁bears	-11.7692
▁interior	-11.7699
▁tuyos	-11.7701
rte	-11.7702
▁detenido	-11.7705
▁horror	-11.7706
ló	-11.7707
▁vaca	-11.7718
▁quita	-11.7724
▁fu	-11.7726
edades	-11.7737
▁ladra	-11.7746
▁cen	-11.7747
▁loose	-11.7748
▁qui	-11.775
▁temer	-11.7752
▁firma	-11.7755
▁preocupados	-11.7756
thirty	-11.7757
ahora	-11.7757
▁caza	-11.7758
▁serve	-11.7758
▁pusi	-11.7765
vale	-11.7765
▁mark	-11.7768
soy	-11.7771
▁reunió	-11.7773
ustedes	-11.7777
▁despertado	-11.7785
▁mas	-11.7785
▁aprecia	-11.7797
▁insist	-11.7798
▁skate	-11.78
▁absolute	-11.78
▁trigo	-11.7801
▁demostrar	-11.7801
▁negar	-11.7801
scribió	-11.7803
▁dish	-11.7804
▁aprobado	-11.7804
▁asintió	-11.7804
▁delegate	-11.7804
▁exámenes	-11.7804
▁forehead	-11.7804
▁frigorífico	-11.7804
▁glance	-11.7804
▁grifo	-11.7804
▁handwriting	-11.7804
▁independiente	-11.7804
▁international	-11.7804
▁médica	-11.7804
▁niebla	-11.7804
▁ochenta	-11.7804
▁ordinary	-11.7804
▁physics	-11.7804
▁purchase	-11.7804
▁recomendó	-11.7804
▁riqueza	-11.7804
▁rotten	-11.7804
▁stool	-11.7804
▁surprising	-11.7804
▁thumb	-11.7804
▁timbre	-11.7804
▁toothpaste	-11.7804
▁universal	-11.7804
▁volleyball	-11.7804
▁vídeo	-11.7804
▁withdraw	-11.7804
▁wolves	-11.7804
▁álbum	-11.7804
▁atractiva	-11.7804
▁audiencia	-11.7804
▁escrita	-11.7804
▁fierce	-11.7804
▁haircut	-11.7804
▁sesenta	-11.7804
▁culpo	-11.7804
▁pésimo	-11.7804
▁romantic	-11.7804
▁heladera	-11.7804
▁sake	-11.7804
▁aguanto	-11.7804
▁bici	-11.7804
▁punishment	-11.7804
▁underestimate	-11.7804
▁stew	-11.7804
▁princesa	-11.7804
▁magia	-11.7804
▁alquiler	-11.7804
▁breed	-11.7804
▁volvamos	-11.7804
▁pintor	-11.7804
▁wings	-11.7804
▁escaso	-11.7805
▁bookstore	-11.7805
▁frog	-11.7805
▁otherwise	-11.7805
▁esperábamos	-11.7805
▁casco	-11.7805
▁tentación	-11.7805
▁crema	-11.7805
▁silly	-11.7805
▁comieron	-11.7805
▁powerful	-11.7805
▁investigando	-11.7805
▁wheat	-11.7805
▁published	-11.7806
▁national	-11.7806
▁nevó	-11.7806
▁reconoció	-11.7806
▁prometido	-11.7806
▁hatred	-11.7806
▁harvest	-11.7806
▁princess	-11.7806
▁micro	-11.7806
▁coal	-11.7806
▁charlar	-11.7807
▁mencionó	-11.7807
▁oven	-11.7807
▁sucedido	-11.7807
▁preocuparme	-11.7808
▁decidiste	-11.7808
▁beans	-11.7808
▁cumplió	-11.7808
▁scary	-11.7809
▁difficulties	-11.7809
▁sinceramente	-11.7809
▁invité	-11.7809
▁track	-11.7809
▁recuperó	-11.781
▁active	-11.781
▁preparada	-11.781
▁llegada	-11.7811
▁golden	-11.7811
▁bajando	-11.7811
▁enamoró	-11.7812
▁buscaba	-11.7813
▁grito	-11.7813
▁gastado	-11.7813
▁distract	-11.7814
▁disco	-11.7814
▁cumplido	-11.7814
▁tercera	-11.7815
▁agudo	-11.7816
▁conducta	-11.7816
▁deceived	-11.7817
▁insects	-11.7818
▁tijeras	-11.7818
▁infeliz	-11.782
▁higher	-11.7823
▁crashed	-11.7826
▁insulted	-11.7826
▁resources	-11.7828
▁admired	-11.7828
▁ahorros	-11.7828
▁contestó	-11.7829
▁llevé	-11.7829
▁minor	-11.783
▁dancer	-11.7831
▁palo	-11.7833
▁llamaron	-11.7833
▁normally	-11.7835
▁rió	-11.7835
▁cambiará	-11.7836
▁salvajes	-11.7837
todos	-11.7838
▁alérgica	-11.7839
▁señora	-11.7843
▁relaxed	-11.7845
▁complaints	-11.7846
▁nerves	-11.7846
▁ayudarla	-11.7847
▁wipe	-11.7848
▁remains	-11.7848
▁entiendes	-11.7852
▁instante	-11.7853
▁avisar	-11.7863
up	-11.7864
▁lips	-11.7865
▁entendería	-11.7874
▁leyes	-11.7875
▁deserved	-11.7877
▁cast	-11.7884
▁ancianos	-11.7884
▁viví	-11.7889
▁intentes	-11.7897
▁tigres	-11.7902
▁trescient	-11.7902
▁influencia	-11.7906
▁veras	-11.7907
▁momentos	-11.7908
▁vais	-11.7909
▁ayudaré	-11.791
▁content	-11.7916
▁budget	-11.7916
▁balance	-11.7917
you	-11.792
▁terminará	-11.7922
▁velas	-11.7923
▁rojos	-11.793
▁humana	-11.7931
▁streets	-11.7933
▁abus	-11.7933
▁reads	-11.7936
▁sientas	-11.794
▁rabbits	-11.794
▁nails	-11.7943
rían	-11.7945
▁cortinas	-11.7949
▁beg	-11.798
▁adults	-11.7987
▁prefieres	-11.799
▁cancelar	-11.8001
▁esperara	-11.8002
▁difíciles	-11.8008
▁sangra	-11.8009
led	-11.8013
▁interesantes	-11.8015
▁regards	-11.8016
▁atropell	-11.8017
▁llora	-11.8032
▁adoptar	-11.8041
▁gustaban	-11.8047
▁hermosas	-11.8051
▁escrib	-11.8058
▁llegaré	-11.8059
▁números	-11.8069
▁digan	-11.8073
ible	-11.8073
hi	-11.8091
▁usan	-11.8094
▁cho	-11.8098
▁estúpidas	-11.8111
▁vengan	-11.8124
rías	-11.8157
▁fuerzas	-11.8158
▁suitcases	-11.8168
▁sopl	-11.8186
▁k	-11.8192
▁sube	-11.8195
▁piedras	-11.8206
▁trozos	-11.8216
ob	-11.8225
▁odiar	-11.8228
▁hablarle	-11.8233
▁dejá	-11.8234
ard	-11.8249
tuviste	-11.8256
▁junt	-11.8269
▁perdona	-11.8283
▁acostumbr	-11.8288
▁frutas	-11.8293
▁ka	-11.8293
vertirse	-11.8294
ería	-11.8304
ware	-11.8312
▁ho	-11.8316
▁aliment	-11.8324
▁sew	-11.8342
ished	-11.8346
▁milagro	-11.8371
▁source	-11.8375
▁character	-11.8379
▁verdes	-11.8381
▁elefante	-11.8383
▁comment	-11.8384
▁prisionero	-11.8384
▁nail	-11.8385
▁peligrosa	-11.8385
▁farmer	-11.8385
▁candle	-11.8385
▁fantasma	-11.8387
▁droga	-11.8387
▁competent	-11.8387
▁deseos	-11.8393
ily	-11.8394
▁foreigner	-11.8394
▁rompe	-11.8402
▁memoriz	-11.841
▁papa	-11.841
▁goat	-11.8411
actuando	-11.8415
▁consist	-11.842
▁tumba	-11.8421
ine	-11.8423
▁lobo	-11.8423
▁crece	-11.844
ármelo	-11.8444
▁comprende	-11.8445
▁gang	-11.8447
▁escala	-11.8452
▁individual	-11.8456
gracias	-11.8456
▁heridos	-11.8465
creés	-11.8468
pé	-11.8468
fuiste	-11.8471
shirt	-11.8471
will	-11.8473
cy	-11.8477
▁rise	-11.8477
handed	-11.8477
▁disgust	-11.8477
▁juegue	-11.8477
▁exact	-11.8478
▁astronaut	-11.8478
▁korea	-11.8479
▁vueltas	-11.8485
▁aspirin	-11.8488
ándome	-11.8494
vienes	-11.8497
▁disagree	-11.8499
▁falls	-11.8501
▁influence	-11.8502
▁postpone	-11.8504
imed	-11.8504
▁engañar	-11.8504
▁crack	-11.8505
▁pronounce	-11.8507
▁conduct	-11.8507
▁tax	-11.8509
▁exterior	-11.8511
▁corea	-11.8512
▁escolar	-11.8513
▁furious	-11.8514
▁fluent	-11.8514
▁robber	-11.8515
▁prime	-11.8516
▁materia	-11.8516
▁moto	-11.8517
▁daños	-11.8517
▁commit	-11.8518
▁orphan	-11.8518
▁alphabet	-11.8518
▁forecast	-11.8518
▁honeymoon	-11.8518
▁árabe	-11.8518
▁acento	-11.8518
▁arrival	-11.8518
▁arrow	-11.8518
▁campaign	-11.8518
▁comencemos	-11.8518
▁conceal	-11.8518
▁círculo	-11.8518
▁description	-11.8518
▁discount	-11.8518
▁environment	-11.8518
▁essential	-11.8518
▁fbi	-11.8518
▁garaje	-11.8518
▁hilton	-11.8518
▁increasing	-11.8518
▁independent	-11.8518
▁injusto	-11.8518
▁jabón	-11.8518
▁julio	-11.8518
▁luxury	-11.8518
▁necklace	-11.8518
▁popcorn	-11.8518
▁portugal	-11.8518
▁pudieron	-11.8518
▁racket	-11.8518
▁religión	-11.8518
▁semejante	-11.8518
▁soborno	-11.8518
▁switzerland	-11.8518
▁technology	-11.8518
▁tecnología	-11.8518
▁unconscious	-11.8518
▁victim	-11.8518
▁whisky	-11.8518
▁wolf	-11.8518
▁yourselves	-11.8518
▁hiroshima	-11.8519
▁inesperado	-11.8519
▁predecir	-11.8519
▁silk	-11.8519
▁sírva	-11.8519
▁below	-11.8519
▁suicidio	-11.8519
▁briefcase	-11.8519
▁gym	-11.8519
▁optimistic	-11.8519
▁plain	-11.8519
▁ésos	-11.8519
▁charity	-11.8519
▁delegados	-11.8519
▁escoba	-11.8519
▁presencia	-11.8519
▁suiza	-11.8519
▁campaña	-11.8519
▁composition	-11.8519
▁millionaire	-11.8519
▁recurrir	-11.8519
▁jury	-11.8519
▁perdiste	-11.8519
▁volviera	-11.8519
▁toyota	-11.8519
▁cuero	-11.8519
▁tidy	-11.8519
▁renunció	-11.8519
▁confíe	-11.8519
▁continuación	-11.8519
▁sorprendente	-11.8519
▁desagradable	-11.8519
▁figura	-11.8519
▁broom	-11.8519
▁fuga	-11.8519
▁mojado	-11.8519
▁digging	-11.8519
▁pusiste	-11.8519
▁operación	-11.852
▁rechazado	-11.852
▁interpreter	-11.852
▁internacional	-11.852
▁convertido	-11.852
▁grasa	-11.852
▁medalla	-11.852
▁practicing	-11.852
▁unlocked	-11.852
▁reino	-11.852
▁empeorando	-11.852
▁automovilístico	-11.852
▁comidas	-11.852
▁condenado	-11.8521
▁unlucky	-11.8521
▁july	-11.8521
▁fake	-11.8521
▁spicy	-11.8521
▁parties	-11.8521
▁chew	-11.8522
▁enviado	-11.8522
▁pusiera	-11.8522
▁permitió	-11.8522
▁cambiando	-11.8523
▁desayunado	-11.8523
▁preocuparte	-11.8524
▁funcionará	-11.8524
▁nieva	-11.8524
▁struck	-11.8524
▁style	-11.8524
▁votaron	-11.8524
▁talentoso	-11.8526
▁east	-11.8526
▁probarlo	-11.8526
▁caí	-11.8527
▁suelto	-11.8528
▁convencerlo	-11.8528
▁disgusting	-11.8528
▁sentaron	-11.8528
▁arreglarlo	-11.8529
▁coreano	-11.8529
▁banca	-11.8529
▁convencerle	-11.853
▁oración	-11.8531
▁nado	-11.8531
▁bow	-11.8531
▁punch	-11.8531
▁llegando	-11.8532
▁online	-11.8532
▁sobrevivió	-11.8534
▁bola	-11.8535
▁cortado	-11.8535
▁mentí	-11.8536
▁hilo	-11.8536
▁medal	-11.8537
▁saludos	-11.8537
▁secretos	-11.8538
▁eighty	-11.8538
▁earned	-11.8539
▁pure	-11.8539
▁tango	-11.8546
▁tocaba	-11.8546
▁caridad	-11.8548
▁aspirina	-11.855
▁confident	-11.8552
cho	-11.8554
▁firmó	-11.8554
▁enfermedades	-11.8555
▁recordó	-11.8557
▁astronauta	-11.8559
▁examine	-11.8559
▁vacant	-11.8559
▁breathing	-11.8562
▁durará	-11.8565
▁decisiones	-11.857
▁bomberos	-11.8575
▁appreciated	-11.8577
▁populares	-11.858
▁entering	-11.8581
▁loosen	-11.8581
▁visitarme	-11.8583
▁crops	-11.8584
▁permíta	-11.8592
▁encontrarlo	-11.8597
▁operate	-11.8601
▁basa	-11.8603
▁pierdas	-11.8604
▁customers	-11.8604
▁ingresos	-11.8604
▁negros	-11.8606
▁toys	-11.8609
▁adolescentes	-11.8614
aría	-11.8615
▁comemos	-11.862
▁casaron	-11.8622
▁latin	-11.8624
metió	-11.863
▁aseguro	-11.8641
▁veros	-11.8641
▁judg	-11.8643
▁chairs	-11.8645
▁encontrarme	-11.8647
▁lid	-11.8652
▁canilla	-11.8653
▁vivos	-11.866
▁alquilar	-11.8661
▁cuentas	-11.8662
▁sucede	-11.8663
▁despegar	-11.8667
▁sucia	-11.8672
▁juntas	-11.8676
▁precioso	-11.8676
▁anota	-11.8684
▁sillas	-11.8686
▁monos	-11.8703
▁pides	-11.8705
▁secrets	-11.8706
▁dejarte	-11.8708
▁pares	-11.8716
▁tip	-11.8716
▁prisoners	-11.8716
▁sorprender	-11.873
▁ciudadanos	-11.8747
▁shine	-11.8748
lew	-11.8754
▁nación	-11.877
▁decisions	-11.8786
▁savings	-11.8787
▁ends	-11.8787
▁stops	-11.879
▁aun	-11.8792
▁jugará	-11.8796
pped	-11.881
▁durar	-11.8814
▁revisar	-11.8823
▁smokes	-11.883
▁dr	-11.8837
gas	-11.8843
▁suicida	-11.8847
▁seek	-11.8881
▁mud	-11.8885
▁cakes	-11.8889
▁golpear	-11.8914
▁mild	-11.8917
▁jo	-11.8921
▁metas	-11.8927
▁alerta	-11.8929
▁stare	-11.8963
ezca	-11.8967
▁baña	-11.8974
▁invit	-11.9
▁grano	-11.9001
▁eche	-11.9004
▁risks	-11.9004
▁gustar	-11.9013
fi	-11.9015
▁term	-11.9018
▁pequeñas	-11.9038
▁cometa	-11.9039
▁seda	-11.9043
▁amanecer	-11.9046
▁gastar	-11.9051
men	-11.9059
▁pet	-11.9066
▁trampas	-11.9067
▁flirt	-11.9075
sistieron	-11.9081
▁laughs	-11.9099
▁sabrá	-11.9103
▁economic	-11.9105
▁viejas	-11.9108
v	-11.9116
▁encontraré	-11.9119
minded	-11.9124
▁boil	-11.9126
▁foods	-11.9136
tara	-11.9137
put	-11.9138
▁miracle	-11.914
▁sabio	-11.914
▁invention	-11.914
▁crudo	-11.9143
▁conociera	-11.9144
▁nightmare	-11.9144
▁constant	-11.9145
▁pig	-11.9146
▁hierba	-11.9147
▁tontería	-11.9147
▁block	-11.9148
▁límite	-11.9148
▁diamante	-11.915
▁creep	-11.915
▁principiante	-11.9151
▁sincero	-11.9152
▁elephant	-11.9152
▁rueda	-11.9153
▁rayo	-11.9155
▁sorprendidos	-11.9161
ucho	-11.9168
ze	-11.9177
▁sometime	-11.9177
▁exams	-11.9183
▁ayudarlo	-11.9202
▁li	-11.9207
▁chill	-11.9208
▁bonitas	-11.9213
tan	-11.9215
▁leña	-11.9234
▁viajes	-11.9236
▁tomaste	-11.9236
▁cop	-11.9237
oíste	-11.9238
phone	-11.924
house	-11.9241
▁resume	-11.9241
volvió	-11.9245
tomás	-11.9246
sabías	-11.9248
ier	-11.9248
▁famosos	-11.9256
dejaste	-11.9259
▁rin	-11.9265
▁cheat	-11.9266
oh	-11.927
▁cloth	-11.9271
▁rescue	-11.9273
▁respeta	-11.9273
▁bake	-11.9273
▁mexican	-11.9273
▁reward	-11.9274
▁develop	-11.9275
▁pianist	-11.9275
▁fren	-11.9278
▁graduate	-11.9279
cio	-11.928
▁divertir	-11.928
▁spill	-11.928
▁dólar	-11.9281
▁cuchara	-11.9283
▁cuantos	-11.9284
▁cálida	-11.9284
▁conociste	-11.9285
▁comfort	-11.9286
▁declara	-11.9287
▁acquaint	-11.9288
▁orgullosos	-11.9288
▁settle	-11.9288
▁flash	-11.9288
▁enemiga	-11.9288
▁aguja	-11.9288
▁alibi	-11.9288
▁awesome	-11.9288
▁carbón	-11.9288
▁castigo	-11.9288
▁chemistry	-11.9288
▁chimenea	-11.9288
▁circle	-11.9288
▁combustible	-11.9288
▁conmovió	-11.9288
▁eager	-11.9288
▁económica	-11.9288
▁egypt	-11.9288
▁envíe	-11.9288
▁estricta	-11.9288
▁estufa	-11.9288
▁explique	-11.9288
▁fantastic	-11.9288
▁filipino	-11.9288
▁flame	-11.9288
▁generous	-11.9288
▁homicidio	-11.9288
▁huelga	-11.9288
▁inténtalo	-11.9288
▁llores	-11.9288
▁lyrics	-11.9288
▁lámpara	-11.9288
▁motocicleta	-11.9288
▁overslept	-11.9288
▁pedimos	-11.9288
▁portátil	-11.9288
▁poverty	-11.9288
▁puerto	-11.9288
▁pública	-11.9288
▁reliable	-11.9288
▁semáforo	-11.9288
▁shampoo	-11.9288
▁surrounded	-11.9288
▁sweep	-11.9288
▁taburete	-11.9288
▁telefónica	-11.9288
▁terribly	-11.9288
▁unhealthy	-11.9288
▁veterinario	-11.9288
▁videojuegos	-11.9288
▁wednesday	-11.9288
▁coach	-11.9288
▁engañe	-11.9288
▁excepción	-11.9288
▁hirviendo	-11.9288
▁justicia	-11.9288
▁jurado	-11.9288
▁smith	-11.9288
▁fifth	-11.9288
▁militar	-11.9288
▁region	-11.9288
▁competencia	-11.9288
▁asistente	-11.9288
▁divirtiendo	-11.9288
▁multa	-11.9288
▁property	-11.9288
▁temptation	-11.9288
▁traducción	-11.9288
▁inundación	-11.9288
▁cellphone	-11.9288
▁freedom	-11.9288
▁fascinante	-11.9288
▁nacimiento	-11.9288
▁asombroso	-11.9288
▁exigi	-11.9288
▁dizzy	-11.9288
▁skinny	-11.9288
▁slipped	-11.9288
▁possibly	-11.9288
▁collection	-11.9288
▁fumo	-11.9288
▁ignorance	-11.9288
▁investigating	-11.9288
▁fascinating	-11.9288
▁ignorancia	-11.9288
▁producción	-11.9288
▁shallow	-11.9288
▁gimnasio	-11.9288
▁scarf	-11.9288
▁amargo	-11.9288
▁mandé	-11.9288
ámonos	-11.9288
▁miserable	-11.9288
▁announced	-11.9288
▁estuviese	-11.9288
▁ninety	-11.9289
▁mareado	-11.9289
▁sunset	-11.9289
▁nublado	-11.9289
▁goose	-11.9289
▁máximo	-11.9289
▁ahorrando	-11.9289
▁tasa	-11.9289
▁humanidad	-11.9289
▁ocasiones	-11.9289
▁desorientado	-11.9289
▁recomendar	-11.9289
▁maid	-11.9289
▁cerebro	-11.9289
▁presupuesto	-11.9289
▁bunch	-11.9289
▁aumentando	-11.929
▁típico	-11.929
▁charming	-11.929
▁embarrassing	-11.929
▁roommate	-11.929
▁cuanta	-11.929
▁empezaste	-11.929
▁shining	-11.929
▁apurado	-11.929
▁mantenga	-11.929
▁prometí	-11.929
▁reality	-11.929
▁pardon	-11.929
▁chores	-11.929
▁sixty	-11.929
▁camp	-11.929
▁rama	-11.9291
▁asustada	-11.9291
▁charlando	-11.9291
▁leather	-11.9291
ez	-11.9292
▁sufrió	-11.9292
▁guide	-11.9292
▁relieved	-11.9292
▁shape	-11.9293
▁molestando	-11.9293
▁approached	-11.9293
▁millonario	-11.9294
▁agradecerle	-11.9294
▁compone	-11.9294
▁inquieto	-11.9295
▁quejarte	-11.9295
▁conseguiste	-11.9295
▁absurdo	-11.9296
▁crió	-11.9296
▁hunger	-11.9297
▁recovered	-11.9297
▁diseño	-11.9297
▁camping	-11.9298
▁clothing	-11.9298
▁pudiste	-11.9298
▁empecemos	-11.9298
▁traído	-11.9298
▁mueve	-11.9298
▁rodeado	-11.9298
▁saldrá	-11.9298
▁dyed	-11.93
▁entrenador	-11.93
▁pianista	-11.9301
▁averigua	-11.9302
▁anytime	-11.9302
▁descripción	-11.9304
▁evidente	-11.9304
▁quint	-11.9304
▁stain	-11.9304
▁sentarte	-11.9304
▁memorizar	-11.9304
▁mientas	-11.9304
▁terminamos	-11.9304
▁ranch	-11.9305
▁shooting	-11.9305
▁reírme	-11.9306
▁postponed	-11.9306
▁sigamos	-11.9306
▁enterrado	-11.9309
▁searching	-11.931
▁drawing	-11.9313
▁escuchaste	-11.9313
▁repeated	-11.9313
▁pasta	-11.9316
▁helpful	-11.9316
▁fatal	-11.9318
▁mentioned	-11.9319
▁entenderlo	-11.932
▁longest	-11.9321
▁oírlo	-11.9322
▁packed	-11.9323
▁tira	-11.9323
▁gustará	-11.9325
▁contarle	-11.9325
▁enseñarte	-11.9326
▁crown	-11.9327
▁ab	-11.9329
▁vela	-11.9332
▁soñar	-11.9334
▁ajustar	-11.9335
▁fooled	-11.9337
▁opiniones	-11.9339
▁tasted	-11.9341
▁entendió	-11.9343
▁direct	-11.9346
▁slapp	-11.9348
▁pinch	-11.9348
ial	-11.935
▁rumores	-11.9351
▁accent	-11.9351
▁data	-11.9358
▁aprovechar	-11.9358
▁llevado	-11.9358
▁welcomed	-11.9365
▁escuchaba	-11.937
▁pagará	-11.9372
▁escuchas	-11.9375
▁charle	-11.9379
▁tools	-11.938
▁citizens	-11.938
▁escuches	-11.9381
▁tells	-11.9381
▁stands	-11.9382
▁ocurren	-11.9383
▁libres	-11.9388
▁dial	-11.9389
▁sobras	-11.939
▁parts	-11.9394
▁molestes	-11.9403
▁mejorando	-11.9404
▁doscient	-11.9406
▁mass	-11.9419
ling	-11.9434
▁prisioneros	-11.9435
▁candles	-11.9435
▁manten	-11.9436
ned	-11.9444
▁politicians	-11.9446
tura	-11.9449
▁llenos	-11.9453
hablas	-11.9454
▁cultural	-11.9454
tas	-11.9455
▁ages	-11.9473
▁rodillas	-11.9479
▁cha	-11.9481
bré	-11.9489
▁entienden	-11.9541
gi	-11.9545
sos	-11.9547
▁sabíamos	-11.9557
way	-11.9571
▁answering	-11.9578
ea	-11.9584
ka	-11.9588
sistencia	-11.959
▁arrives	-11.9591
ué	-11.9599
▁burns	-11.9602
▁walls	-11.9609
▁faces	-11.962
▁contiene	-11.9622
▁vinieras	-11.9623
ary	-11.9631
▁esperá	-11.964
▁pospone	-11.965
▁mental	-11.9679
sistió	-11.9688
ter	-11.9694
encia	-11.97
▁conditions	-11.972
▁solicit	-11.9724
▁ocult	-11.9725
▁esperes	-11.9726
▁pat	-11.9727
the	-11.9727
▁abogados	-11.973
▁blancos	-11.9741
vete	-11.9747
▁supieras	-11.9758
▁agrees	-11.9765
▁acabe	-11.9773
▁arrojar	-11.9775
▁ku	-11.9776
▁jugu	-11.9778
ric	-11.9787
▁plancha	-11.9799
▁negoci	-11.9803
nza	-11.9809
▁contactar	-11.981
▁bur	-11.9822
▁visitas	-11.9826
▁asks	-11.9827
▁interpret	-11.9828
▁pare	-11.9829
estaba	-11.9829
come	-11.984
▁operar	-11.985
fully	-11.9857
▁rana	-11.9862
▁weigh	-11.9882
▁aplica	-11.9887
▁admira	-11.9899
ang	-11.9916
▁temas	-11.9918
chó	-11.9922
▁ste	-11.9923
▁regresa	-11.9941
▁juegas	-11.9947
▁extend	-11.9952
▁idiotas	-11.9957
▁seize	-11.9962
▁siguen	-11.9966
▁volunteer	-11.9967
▁paintings	-11.9973
▁pijama	-11.9973
▁ovni	-11.9973
▁ufo	-11.9974
▁archivo	-11.9983
▁blanket	-11.9983
▁buildings	-11.9984
▁gemelo	-11.9988
med	-11.9988
▁banana	-11.9988
▁cow	-11.9989
▁relative	-11.9989
▁alumno	-11.9989
▁tiger	-11.999
▁trick	-11.9991
▁pondrá	-11.9992
▁comprara	-11.9996
▁sheet	-12.0005
▁cable	-12.0007
▁consiga	-12.0016
▁recuerdos	-12.0018
tera	-12.0018
▁cambios	-12.0019
▁sa	-12.0031
▁becomes	-12.0046
ice	-12.006
zing	-12.006
▁industrial	-12.006
▁blam	-12.0063
▁oscur	-12.0067
▁alas	-12.0069
employed	-12.007
llama	-12.0073
sobre	-12.0074
recibi	-12.0075
▁ag	-12.008
aún	-12.0082
▁exit	-12.0085
mira	-12.0085
▁fa	-12.0088
▁montó	-12.0089
▁labor	-12.0093
▁absurd	-12.0099
▁bark	-12.01
▁repetir	-12.0106
▁pistol	-12.0106
▁surrender	-12.0107
▁tercer	-12.0108
▁accomplish	-12.0108
▁defeat	-12.0109
aña	-12.0109
▁period	-12.0112
▁buscas	-12.0113
▁acudir	-12.0114
▁potato	-12.0114
▁cuadra	-12.0115
▁incredibl	-12.0116
▁recent	-12.0117
▁happie	-12.0117
▁estupenda	-12.0118
▁probado	-12.0119
▁susurr	-12.0119
▁compro	-12.0119
▁circula	-12.0121
▁rug	-12.0121
▁disneyland	-12.0121
▁dirige	-12.0121
▁apuñaló	-12.0121
▁atmosphere	-12.0121
▁atmósfera	-12.0121
▁bastón	-12.0121
▁cadena	-12.0121
▁chocó	-12.0121
▁coartada	-12.0121
▁cueva	-12.0121
▁curiosity	-12.0121
▁egipto	-12.0121
▁engañado	-12.0121
▁faucet	-12.0121
▁febrero	-12.0121
▁february	-12.0121
▁hagámoslo	-12.0121
▁indispensable	-12.0121
▁invisible	-12.0121
▁jersey	-12.0121
▁juramento	-12.0121
▁koala	-12.0121
▁mahjong	-12.0121
▁maletero	-12.0121
▁muralla	-12.0121
▁obtuve	-12.0121
▁olvidadizo	-12.0121
▁outdoors	-12.0121
▁pacífico	-12.0121
▁perfume	-12.0121
▁plastic	-12.0121
▁préstamo	-12.0121
▁pésima	-12.0121
▁resemblance	-12.0121
▁romántico	-12.0121
▁roosevelt	-12.0121
▁sacerdote	-12.0121
▁scheme	-12.0121
▁skating	-12.0121
▁solving	-12.0121
▁stiff	-12.0121
▁sucediendo	-12.0121
▁suspicion	-12.0121
▁twitter	-12.0121
▁uncomfortable	-12.0121
▁victoria	-12.0121
▁voleibol	-12.0121
▁colección	-12.0121
▁helmet	-12.0121
▁pledge	-12.0121
▁raqueta	-12.0121
▁risa	-12.0121
▁spoon	-12.0121
▁dawn	-12.0121
▁enojó	-12.0121
▁noventa	-12.0121
▁surgery	-12.0121
▁oath	-12.0121
▁textbook	-12.0121
▁despegó	-12.0121
▁hurried	-12.0121
▁registradora	-12.0121
▁región	-12.0121
▁essay	-12.0121
▁forzado	-12.0121
▁pollera	-12.0121
▁siglo	-12.0121
▁steak	-12.0121
▁literatura	-12.0121
▁perdida	-12.0121
▁assistance	-12.0121
▁creciendo	-12.0121
▁teresa	-12.0121
▁kong	-12.0121
▁viniendo	-12.0121
rubbed	-12.0121
▁tries	-12.0121
▁queráis	-12.0121
▁detallada	-12.0121
▁empeorar	-12.0121
▁condujera	-12.0121
▁defectos	-12.0121
▁chef	-12.0122
▁production	-12.0122
▁prometiste	-12.0122
▁aggressive	-12.0122
▁scarce	-12.0122
▁comenzando	-12.0122
▁presentimiento	-12.0122
▁jarra	-12.0122
▁serbia	-12.0122
▁marzo	-12.0122
▁modales	-12.0122
▁pobreza	-12.0122
▁practicando	-12.0122
▁downtown	-12.0122
▁gané	-12.0122
▁lloraba	-12.0122
▁talkative	-12.0123
▁concentrarme	-12.0123
▁harp	-12.0123
▁hunter	-12.0123
▁relajado	-12.0123
▁sentimos	-12.0123
▁kidnapped	-12.0123
▁severo	-12.0123
▁retrasado	-12.0123
▁tardará	-12.0123
▁contrató	-12.0123
▁miércoles	-12.0123
▁effective	-12.0124
▁retiró	-12.0124
▁secretaria	-12.0124
▁postura	-12.0124
▁previsto	-12.0124
▁latín	-12.0124
▁defender	-12.0124
▁ceremonia	-12.0124
▁aventura	-12.0124
▁plead	-12.0125
▁cuán	-12.0125
▁fried	-12.0125
▁solid	-12.0125
▁fumando	-12.0125
▁basta	-12.0126
▁conciencia	-12.0127
▁sword	-12.0127
▁agradecerte	-12.0127
▁pride	-12.0128
▁horno	-12.0128
▁incredible	-12.0128
▁yelling	-12.013
▁ángeles	-12.013
▁lastimado	-12.013
▁frontera	-12.013
▁security	-12.0131
▁besando	-12.0131
▁confiaba	-12.0131
▁saldr	-12.0131
▁rancho	-12.0132
▁rollo	-12.0133
▁remote	-12.0133
gging	-12.0134
▁congratulated	-12.0134
▁jar	-12.0134
▁apuntes	-12.0135
▁sándwiches	-12.0135
▁defeated	-12.0136
▁servirá	-12.0136
▁correctamente	-12.0136
▁windy	-12.0137
▁collected	-12.0138
▁especialmente	-12.0138
▁resigned	-12.0139
▁pensamientos	-12.0139
▁trash	-12.014
▁prayed	-12.014
▁frozen	-12.0141
▁compramos	-12.0141
donald	-12.0141
▁importaba	-12.0142
▁cogieron	-12.0143
▁install	-12.0143
▁retirar	-12.0144
▁practicar	-12.0144
▁pala	-12.0144
▁formal	-12.0145
▁repairing	-12.0145
▁lavarse	-12.0146
▁interrupted	-12.0147
omic	-12.0148
▁planeado	-12.0148
▁marchar	-12.0148
▁intentaré	-12.015
▁preguntaré	-12.015
▁levantarte	-12.015
▁contenta	-12.0151
▁trabaje	-12.0152
▁expenses	-12.0153
▁advanced	-12.0154
▁alike	-12.0156
▁llegaremos	-12.0158
▁remove	-12.0161
▁pensarlo	-12.0161
▁knocking	-12.0162
▁hamburguesas	-12.0163
▁cure	-12.0164
▁vendedor	-12.0164
▁flea	-12.0165
▁waiter	-12.0168
▁ayudaros	-12.0169
▁landed	-12.017
▁compraría	-12.017
▁helpless	-12.0171
▁matarme	-12.0171
▁salía	-12.0171
▁mor	-12.0171
▁cruza	-12.0171
▁palm	-12.0172
▁corona	-12.0176
▁huérfano	-12.0177
▁cantaba	-12.0179
▁dormía	-12.0181
▁observar	-12.0181
▁ponerlo	-12.0183
▁pronuncia	-12.0184
▁consideran	-12.0186
▁entendía	-12.0186
▁arrancar	-12.0186
▁x	-12.0186
▁wan	-12.0187
▁sung	-12.019
▁estaciones	-12.0191
▁preguntado	-12.0196
▁rep	-12.0196
▁reconocer	-12.0196
▁robot	-12.0197
▁agradec	-12.0197
▁counting	-12.0198
▁estampillas	-12.0198
▁británicos	-12.0198
▁handy	-12.0199
▁dresses	-12.0202
▁verás	-12.0204
▁litera	-12.0205
▁aboard	-12.0211
▁falló	-12.0212
▁recuperar	-12.0213
▁cometí	-12.0216
▁manej	-12.0217
▁boxes	-12.0221
▁cal	-12.0221
tic	-12.0221
▁plátanos	-12.0222
▁ballenas	-12.0234
▁probó	-12.0236
▁mislead	-12.0236
▁armed	-12.0238
▁crecer	-12.0238
▁consiste	-12.0239
dded	-12.0244
▁skills	-12.0247
per	-12.0262
▁cops	-12.0265
▁prob	-12.0268
▁ruedas	-12.027
▁abandona	-12.0271
▁criad	-12.0274
▁funcione	-12.0276
▁comments	-12.0282
▁rested	-12.0282
▁pace	-12.0289
▁pedazos	-12.0294
▁cheques	-12.0306
▁relate	-12.0307
tions	-12.0309
▁hablara	-12.0311
▁vivi	-12.0312
▁encuentres	-12.0329
▁bitte	-12.033
▁curtains	-12.033
▁sucios	-12.033
vos	-12.0336
▁acto	-12.0339
▁forgiven	-12.0344
▁official	-12.0352
▁adaptar	-12.0356
▁enfrentar	-12.0358
▁confund	-12.0377
▁discuta	-12.0389
▁aumenta	-12.039
▁antiguas	-12.039
▁tristes	-12.0391
▁inso	-12.0399
▁hambrientos	-12.0403
▁tocado	-12.0412
▁pills	-12.0414
▁tiendas	-12.0427
▁tard	-12.0429
signed	-12.0433
▁antiguos	-12.0439
▁heridas	-12.0439
▁persuadir	-12.0459
▁cases	-12.0461
▁numbers	-12.0472
▁pesos	-12.0475
▁phoned	-12.0477
cking	-12.0499
▁ciertas	-12.0512
▁abuelos	-12.0522
▁lawyers	-12.0522
▁wasted	-12.0538
▁riesgos	-12.0542
▁bal	-12.0547
ered	-12.0547
▁acusar	-12.0552
selo	-12.0553
▁cajas	-12.0553
▁informar	-12.0559
▁atrapados	-12.0561
▁confirm	-12.0568
▁sides	-12.0569
▁arrastr	-12.0574
▁tirar	-12.0584
▁horne	-12.0594
▁dejará	-12.0599
cen	-12.0608
▁aguanta	-12.0626
▁rumors	-12.0633
alo	-12.0633
ster	-12.0634
▁bu	-12.064
mu	-12.0642
▁desperdicia	-12.0655
lic	-12.0656
▁faltan	-12.0661
0,000	-12.0668
▁bonitos	-12.0672
▁bags	-12.0676
▁leía	-12.0678
▁sir	-12.0679
▁queríamos	-12.0685
▁mayo	-12.0706
▁nativos	-12.0721
▁exception	-12.0736
▁rem	-12.074
▁arregla	-12.074
▁pega	-12.0748
▁andaba	-12.0749
▁saluda	-12.0749
▁llamara	-12.0753
▁desprecia	-12.0759
for	-12.0762
▁suits	-12.0763
▁puestos	-12.0763
▁spa	-12.0764
▁vení	-12.0768
▁chinos	-12.0772
▁needle	-12.0788
▁mereces	-12.079
▁espaldas	-12.0796
▁th	-12.0802
▁explic	-12.0814
▁mix	-12.0817
▁estudios	-12.0833
ches	-12.0835
via	-12.0847
▁causar	-12.0858
ul	-12.0863
▁clave	-12.0863
▁compensa	-12.0865
ssed	-12.0868
▁quedará	-12.087
▁andá	-12.0873
▁skill	-12.0875
▁explica	-12.0875
▁económico	-12.0883
▁eléctrico	-12.0883
▁gatito	-12.0883
▁encendida	-12.0883
▁topic	-12.0888
▁bump	-12.0889
▁levante	-12.089
▁distinta	-12.0891
▁kite	-12.0891
▁slice	-12.0891
▁lemon	-12.0892
▁entienda	-12.0893
▁granjero	-12.0893
▁desconocido	-12.0894
▁truco	-12.0894
▁antique	-12.0895
▁tigre	-12.0896
▁araña	-12.0898
▁mudar	-12.0898
ally	-12.09
▁intente	-12.09
▁pu	-12.09
▁turista	-12.0902
▁grado	-12.091
▁fac	-12.0912
▁lines	-12.0932
▁bills	-12.0933
▁moleste	-12.0938
▁déje	-12.0942
▁decí	-12.0946
ant	-12.0947
▁divid	-12.0953
▁fina	-12.0957
zed	-12.0966
▁vigila	-12.0967
▁podr	-12.097
0,	-12.0972
sabéis	-12.0977
▁secreta	-12.0979
▁ol	-12.0981
ayer	-12.0982
compraste	-12.0983
mañana	-12.0983
aquí	-12.0988
ship	-12.0988
▁image	-12.0991
▁ancho	-12.0992
▁sub	-12.0992
▁registr	-12.0992
▁palma	-12.0995
ándole	-12.1006
▁enamorados	-12.1009
▁yell	-12.101
▁deliver	-12.1014
▁llovi	-12.1016
▁squeak	-12.1016
▁novelist	-12.1017
▁punish	-12.1018
▁destroy	-12.1018
▁crawl	-12.102
▁bore	-12.1024
▁cheerful	-12.1025
nna	-12.1026
▁ligera	-12.1027
▁inmediata	-12.1027
▁engaño	-12.1028
▁reciente	-12.1028
▁aparenta	-12.1029
▁orgullo	-12.1029
▁depart	-12.103
▁thai	-12.103
▁chalk	-12.103
▁muéstre	-12.103
▁smooth	-12.103
caño	-12.103
▁acknowledge	-12.103
▁almuerza	-12.103
▁awoke	-12.103
▁bathtub	-12.103
▁blouse	-12.103
▁bufanda	-12.103
▁columbus	-12.103
▁cordones	-12.103
▁cómete	-12.103
▁diablo	-12.103
▁dieciséis	-12.103
▁divertimos	-12.103
▁dáselo	-12.103
▁estricto	-12.103
▁estupidez	-12.103
▁fellow	-12.103
▁financiera	-12.103
▁fluidamente	-12.103
▁graduó	-12.103
▁greece	-12.103
▁imágenes	-12.103
▁insecure	-12.103
▁intenciones	-12.103
▁link	-12.103
▁literature	-12.103
▁locura	-12.103
▁lío	-12.103
▁lógica	-12.103
▁marrón	-12.103
▁maíz	-12.103
▁movió	-12.103
▁positive	-12.103
▁revenge	-12.103
▁revolution	-12.103
▁ritmo	-12.103
▁récord	-12.103
▁sanguíneo	-12.103
▁scotland	-12.103
▁shoelaces	-12.103
▁spaghetti	-12.103
▁starving	-12.103
▁sueltes	-12.103
▁tattoo	-12.103
▁telefónico	-12.103
▁traitor	-12.103
▁trousers	-12.103
▁tunnel	-12.103
▁término	-12.103
▁undressing	-12.103
▁unpleasant	-12.103
▁victory	-12.103
▁worries	-12.103
▁ópera	-12.103
▁blusa	-12.103
▁perezoso	-12.103
▁valentin	-12.103
▁construction	-12.103
▁destiny	-12.103
▁escocia	-12.103
▁jerk	-12.103
▁traidor	-12.103
▁arabic	-12.103
▁atractivo	-12.103
▁fluidez	-12.103
▁morder	-12.103
▁pausa	-12.103
▁apropiado	-12.103
▁prevenir	-12.103
▁propiedad	-12.103
▁zumo	-12.103
▁battery	-12.103
▁colón	-12.103
▁expresión	-12.103
▁agenda	-12.103
▁zero	-12.103
▁sonrieron	-12.103
▁aliviado	-12.103
▁pecho	-12.103
▁necessity	-12.103
▁bañera	-12.103
▁grecia	-12.103
▁túnel	-12.103
▁cabaña	-12.103
▁sorprendida	-12.103
▁comiera	-12.103
▁construyeron	-12.103
▁supiste	-12.103
▁swimmer	-12.103
▁descubrí	-12.103
▁creature	-12.103
▁canasta	-12.103
▁encontraba	-12.103
▁rompí	-12.103
▁fluido	-12.1031
▁tropical	-12.1031
▁déjanos	-12.1031
▁cocinera	-12.1031
▁generation	-12.1031
▁complicada	-12.1031
▁whispered	-12.1031
▁genuine	-12.1031
▁housework	-12.1031
▁dining	-12.1031
▁backyard	-12.1031
▁cavando	-12.1031
▁deportivo	-12.1031
▁pearl	-12.1031
▁florero	-12.1031
▁numerosa	-12.1031
▁soleado	-12.1031
▁freezing	-12.1031
▁descuento	-12.1031
▁ministro	-12.1031
▁poderoso	-12.1031
▁respiración	-12.1031
▁pura	-12.1031
▁relajarme	-12.1032
▁confiado	-12.1032
▁inherit	-12.1032
▁atropellado	-12.1032
▁aplaudió	-12.1032
▁soltó	-12.1032
▁ladrando	-12.1032
▁exploded	-12.1032
▁panic	-12.1032
▁sentarnos	-12.1033
▁impresionante	-12.1033
▁pantalla	-12.1033
▁texas	-12.1033
▁vidrio	-12.1033
▁arriesgado	-12.1033
▁petición	-12.1033
▁joyas	-12.1033
▁despidieron	-12.1033
▁invest	-12.1033
▁disculparme	-12.1033
▁rendirse	-12.1034
▁proposed	-12.1034
▁arranged	-12.1034
▁nacier	-12.1034
▁impos	-12.1034
▁pronunciar	-12.1034
▁háblame	-12.1034
▁checks	-12.1035
▁bajé	-12.1035
▁directly	-12.1035
▁conditioner	-12.1035
▁parezca	-12.1036
▁baking	-12.1036
▁personaje	-12.1036
▁theft	-12.1037
▁declaración	-12.1038
▁justice	-12.1038
▁volviste	-12.1038
▁careless	-12.1038
▁wow	-12.1039
▁praised	-12.1039
▁severe	-12.104
▁chased	-12.104
▁regularly	-12.104
▁discutimos	-12.1041
▁carrots	-12.1041
▁trace	-12.1041
▁realizó	-12.1042
▁contenido	-12.1043
▁acostarme	-12.1043
▁función	-12.1043
▁cancelado	-12.1044
▁aprendemos	-12.1044
▁volunteered	-12.1044
▁entrado	-12.1044
▁waved	-12.1044
▁póngase	-12.1045
▁situa	-12.1045
▁click	-12.1046
▁nave	-12.1047
▁yelled	-12.1048
▁section	-12.1048
▁distracted	-12.1048
▁settled	-12.1049
▁folded	-12.105
▁circunstancias	-12.105
▁jewels	-12.105
▁kilograms	-12.105
▁zanahorias	-12.105
▁coughing	-12.105
▁suministros	-12.105
▁brilla	-12.1051
▁mango	-12.1051
▁boiled	-12.1052
▁traduce	-12.1053
van	-12.1053
▁matches	-12.1053
▁decorate	-12.1054
▁fortunate	-12.1054
▁sinking	-12.1055
▁sufre	-12.1055
▁quemé	-12.1056
▁ordené	-12.1056
▁jumping	-12.1056
▁aclarar	-12.106
▁borrachos	-12.106
▁insultó	-12.106
▁marco	-12.1062
▁pounds	-12.1063
▁fritas	-12.1063
fe	-12.1063
▁dejando	-12.1064
▁fold	-12.1066
▁ruinas	-12.1066
▁relacion	-12.1067
▁ruidosa	-12.1068
▁besara	-12.1069
done	-12.1071
▁aid	-12.1073
▁polish	-12.1073
▁coca	-12.1073
▁consequences	-12.1076
▁leftovers	-12.1076
▁resfriar	-12.1077
▁ratas	-12.108
▁safely	-12.1081
▁lleguemos	-12.1081
pon	-12.1083
▁escucharlo	-12.1083
▁puertas	-12.1084
▁estante	-12.1085
▁pastillas	-12.1089
▁celebra	-12.1091
▁aguarda	-12.1094
▁lightly	-12.11
▁oíste	-12.1101
▁postal	-12.1102
▁shortly	-12.1103
rán	-12.1104
▁vegetarianos	-12.1104
▁planeaba	-12.1107
▁cuidará	-12.1107
▁matarte	-12.1111
▁sudor	-12.1112
▁subí	-12.1113
▁escase	-12.1115
▁brakes	-12.1115
▁pluck	-12.1116
▁finales	-12.1121
▁stirr	-12.1125
▁sab	-12.1127
cel	-12.1129
▁felicit	-12.1129
ie	-12.113
▁unido	-12.1132
▁veremos	-12.1137
rk	-12.1137
▁protesta	-12.1138
▁colgar	-12.1138
▁shed	-12.1141
▁spiders	-12.1141
▁mina	-12.1146
▁sentences	-12.1148
▁bee	-12.1149
▁pron	-12.1152
▁teenagers	-12.1155
▁vegetarians	-12.1155
▁notes	-12.1164
▁include	-12.1167
ki	-12.1168
▁manténga	-12.1168
▁quedarás	-12.1172
▁empezará	-12.118
▁tricks	-12.118
ors	-12.1184
▁confi	-12.1186
▁llevarlo	-12.119
ju	-12.1191
▁sincere	-12.1192
▁elephants	-12.1194
▁liberar	-12.1194
▁seco	-12.1199
▁messages	-12.1201
▁pacientes	-12.1201
▁constante	-12.1203
▁elefantes	-12.1207
▁indicar	-12.121
▁honesta	-12.1212
▁cepillar	-12.1216
▁conozcas	-12.122
▁arañas	-12.1223
▁pot	-12.1227
▁leads	-12.123
stó	-12.1243
▁ignora	-12.1254
yeron	-12.1257
▁rats	-12.1258
▁ge	-12.1258
▁fingí	-12.1259
▁customs	-12.126
▁hazme	-12.1261
▁provoc	-12.1264
ika	-12.1265
▁pel	-12.127
▁médicos	-12.1279
▁dejase	-12.128
▁damas	-12.1288
▁celebrar	-12.1289
▁cherr	-12.1292
▁mide	-12.1315
▁caras	-12.1318
▁inusual	-12.1322
▁ponen	-12.1325
dad	-12.1331
▁casamos	-12.1334
▁shows	-12.1334
▁doctores	-12.1337
arle	-12.1338
▁lessons	-12.1353
spite	-12.1356
▁v	-12.1358
▁corr	-12.1376
▁temor	-12.1377
▁funcionan	-12.1378
▁hábitos	-12.138
▁mist	-12.1391
can	-12.1401
▁ladrar	-12.1405
▁volvía	-12.1409
▁convenc	-12.1409
▁meetings	-12.1411
▁diseases	-12.142
▁canto	-12.1422
ísima	-12.1424
▁deberá	-12.1427
sigues	-12.1432
▁criar	-12.1434
▁hombros	-12.1447
▁grita	-12.1465
▁complains	-12.1466
▁interfere	-12.1466
▁abras	-12.1472
▁comprendi	-12.1477
rg	-12.1478
▁alert	-12.148
▁terremotos	-12.1515
▁lograr	-12.1516
▁enseñ	-12.1524
tivo	-12.153
▁sl	-12.155
▁vendrás	-12.1552
▁earthquakes	-12.1555
▁interfer	-12.1564
▁corn	-12.1576
▁habits	-12.1583
▁soltar	-12.1593
▁desat	-12.1595
▁resolv	-12.1616
ak	-12.1616
▁suyos	-12.1623
▁políticas	-12.1637
▁crea	-12.1637
▁pagan	-12.1669
▁hipo	-12.167
▁incluye	-12.1671
▁groups	-12.1678
▁satisfechos	-12.1691
▁1,000	-12.1702
ponlo	-12.1705
▁verdaderos	-12.1705
berg	-12.1706
▁revisa	-12.1716
▁soñado	-12.172
▁entrega	-12.1731
▁bolígrafos	-12.1733
▁bon	-12.1733
▁cortas	-12.1736
rry	-12.1738
illas	-12.1743
ui	-12.1751
▁breaks	-12.1781
▁junta	-12.1783
ense	-12.1789
▁apoya	-12.1789
▁quedas	-12.1803
cree	-12.181
▁grupos	-12.1815
▁esperanzas	-12.1829
cas	-12.1838
cal	-12.1839
▁fracasar	-12.184
▁produ	-12.1842
▁pinturas	-12.1843
▁cru	-12.1849
▁dig	-12.1862
▁unió	-12.1864
▁wrap	-12.1866
▁gum	-12.1866
▁bra	-12.187
▁retire	-12.1872
iéramos	-12.1877
▁flecha	-12.1883
▁vegetarian	-12.1883
preferirías	-12.1884
▁vitamin	-12.1886
▁ensayo	-12.1886
▁navideña	-12.1886
▁score	-12.1887
day	-12.1889
▁effect	-12.1889
▁oveja	-12.1889
▁limit	-12.1891
▁víctima	-12.1892
▁camello	-12.1892
▁monkey	-12.1893
▁beginner	-12.1894
▁casé	-12.1894
▁separado	-12.1894
▁teenager	-12.1894
▁ballena	-12.1895
▁engineer	-12.1896
▁adolescente	-12.1896
▁zapato	-12.1905
▁vitamina	-12.1906
▁sobra	-12.191
▁captur	-12.1925
▁sana	-12.1927
▁rebel	-12.1929
▁horn	-12.1929
cr	-12.1932
ció	-12.1935
▁aterriz	-12.1936
▁estima	-12.1937
sion	-12.1937
nged	-12.1939
tled	-12.194
▁industria	-12.1947
▁bloque	-12.1951
entendiste	-12.1976
▁largos	-12.198
encontraste	-12.1982
cerró	-12.1983
querría	-12.1983
nunca	-12.1983
siempre	-12.1983
quisiera	-12.1983
thank	-12.1983
quiero	-12.1983
▁empujó	-12.1986
▁hablarte	-12.1989
debido	-12.1993
tazo	-12.1995
▁organ	-12.1997
▁driven	-12.2
land	-12.2
▁marte	-12.2003
▁verlos	-12.2006
▁guarantee	-12.2013
▁fro	-12.2013
▁rechazar	-12.2015
▁shave	-12.2015
▁congratulate	-12.2015
▁dye	-12.2015
▁identif	-12.2015
▁chain	-12.2017
▁reserve	-12.2017
▁focus	-12.2017
▁reveal	-12.2018
▁discover	-12.2018
stico	-12.2018
▁ascenso	-12.2021
▁assemble	-12.2022
▁nacional	-12.2023
▁superfici	-12.2023
▁unfortunate	-12.2026
▁hábil	-12.2027
▁tímida	-12.2027
▁measure	-12.2028
▁spy	-12.2029
▁compose	-12.2029
▁equivoca	-12.2029
▁natal	-12.203
▁indulge	-12.203
▁occur	-12.203
▁minister	-12.203
ustria	-12.203
▁curioso	-12.203
▁acumul	-12.203
▁aficionado	-12.203
▁agresivo	-12.203
▁alivio	-12.203
▁almacén	-12.203
▁appropriate	-12.203
▁architect	-12.203
▁argentina	-12.203
▁arquitecto	-12.203
▁asqueroso	-12.203
▁attorney	-12.203
▁aviones	-12.203
▁barefoot	-12.203
▁blog	-12.203
▁bloom	-12.203
▁brazilian	-12.203
▁buzón	-12.203
▁cariño	-12.203
▁castaño	-12.203
▁catholic	-12.203
▁century	-12.203
▁ceremony	-12.203
▁champion	-12.203
▁chemical	-12.203
▁chopin	-12.203
▁cicatriz	-12.203
▁closing	-12.203
▁commercial	-12.203
▁darwin	-12.203
▁declared	-12.203
▁desafortunado	-12.203
▁desafío	-12.203
▁dismissed	-12.203
▁disney	-12.203
▁encienda	-12.203
▁engagement	-12.203
▁envidia	-12.203
▁estacionamiento	-12.203
▁estropeado	-12.203
▁etiqueta	-12.203
▁female	-12.203
▁filosofía	-12.203
▁fotógrafo	-12.203
▁gambling	-12.203
▁generoso	-12.203
▁globo	-12.203
▁grandparents	-12.203
▁hangover	-12.203
▁hurricane	-12.203
▁improving	-12.203
▁inteligencia	-12.203
▁interview	-12.203
▁kanji	-12.203
▁laguna	-12.203
▁laundry	-12.203
▁malgaste	-12.203
▁mischievous	-12.203
▁monroe	-12.203
▁niñito	-12.203
▁november	-12.203
▁okinawa	-12.203
▁omelet	-12.203
▁opponent	-12.203
▁overcoat	-12.203
▁oysters	-12.203
▁pacific	-12.203
▁physical	-12.203
▁plazo	-12.203
▁plástico	-12.203
▁rastro	-12.203
▁refund	-12.203
▁resaca	-12.203
▁response	-12.203
▁sapporo	-12.203
▁semestre	-12.203
▁shinjuku	-12.203
▁thunder	-12.203
▁tractor	-12.203
▁translator	-12.203
▁travieso	-12.203
▁unmarried	-12.203
▁vodka	-12.203
▁whining	-12.203
▁zealand	-12.203
▁zelanda	-12.203
▁alternative	-12.203
▁august	-12.203
▁berlin	-12.203
▁envidio	-12.203
▁napole	-12.203
▁niego	-12.203
▁shade	-12.203
▁splash	-12.203
▁promoted	-12.203
▁revolución	-12.203
▁broad	-12.203
▁contagious	-12.203
▁entrevista	-12.203
▁escríbeme	-12.203
▁hágame	-12.203
▁identical	-12.203
▁paranoico	-12.203
▁patético	-12.203
▁camarero	-12.203
▁identidad	-12.203
▁receta	-12.203
▁paranoid	-12.203
▁templo	-12.203
▁abriera	-12.203
▁admission	-12.203
▁claridad	-12.203
▁excursión	-12.203
▁trial	-12.203
▁agrado	-12.203
▁biwa	-12.203
▁plaza	-12.203
▁typewriter	-12.203
▁equipment	-12.203
▁slavery	-12.203
▁temple	-12.203
babies	-12.203
▁gorra	-12.203
▁grandpa	-12.203
▁performance	-12.203
▁fax	-12.203
▁strawberries	-12.203
▁entendieron	-12.203
▁mailbox	-12.203
▁asocia	-12.203
▁malgasta	-12.203
▁mentirosa	-12.203
▁rabia	-12.203
▁engordado	-12.203
▁software	-12.203
▁combine	-12.203
▁defendant	-12.203
▁espada	-12.203
▁espía	-12.203
▁pruébate	-12.203
▁relief	-12.203
▁merezco	-12.203
▁sympathy	-12.203
▁nevada	-12.203
▁sintieron	-12.203
▁liberty	-12.203
▁flush	-12.203
▁sufriendo	-12.203
▁assist	-12.203
▁fascinated	-12.203
▁mask	-12.203
▁tumor	-12.203
▁privada	-12.2031
▁huir	-12.2031
▁aviso	-12.2031
▁factura	-12.2031
▁majority	-12.2031
▁reconozco	-12.2031
▁sediento	-12.2031
▁expression	-12.2031
▁simply	-12.2031
▁surgeon	-12.2031
▁pub	-12.2031
▁campus	-12.2031
▁ladies	-12.2031
▁estudie	-12.2031
▁siéntese	-12.2031
▁diploma	-12.2031
▁sostenía	-12.2031
▁crew	-12.2031
▁shovel	-12.2031
▁billion	-12.2031
▁sentencia	-12.2031
▁baje	-12.2031
▁onions	-12.2031
▁venture	-12.2031
▁obligación	-12.2031
▁humiliated	-12.2031
▁venganza	-12.2031
▁reluctantly	-12.2031
▁chatting	-12.2031
▁existencia	-12.2032
▁adquir	-12.2032
▁curry	-12.2032
▁frequently	-12.2032
▁accidentally	-12.2032
▁recipe	-12.2032
▁personalidad	-12.2032
▁applauded	-12.2032
▁sentémonos	-12.2032
▁turquía	-12.2033
▁terrified	-12.2033
▁balloon	-12.2033
▁observó	-12.2033
▁tolerate	-12.2033
▁sobrevivieron	-12.2033
▁tirado	-12.2033
▁photographer	-12.2033
▁cállate	-12.2033
▁ilusión	-12.2033
▁mc	-12.2033
▁sixteen	-12.2033
▁grites	-12.2033
▁symbol	-12.2033
▁chest	-12.2033
▁portuguese	-12.2034
itas	-12.2034
▁discovery	-12.2034
▁asustó	-12.2034
▁roy	-12.2034
▁pico	-12.2034
▁ordenada	-12.2034
▁divirtió	-12.2034
▁observe	-12.2034
▁atajo	-12.2035
▁wandered	-12.2035
▁tomatoes	-12.2035
▁hook	-12.2035
▁perdonado	-12.2035
▁severely	-12.2035
▁gallo	-12.2035
▁mudarse	-12.2035
tendrás	-12.2035
▁preguntes	-12.2036
▁cuidadosa	-12.2036
▁pegado	-12.2036
▁nevará	-12.2036
▁entendemos	-12.2036
▁app	-12.2036
▁approaching	-12.2036
▁connected	-12.2036
▁aceptable	-12.2036
▁suavemente	-12.2036
▁entusiasmado	-12.2037
▁olla	-12.2037
▁sintiendo	-12.2037
▁familiarizado	-12.2037
▁ocurrirá	-12.2038
▁giró	-12.2038
▁impacto	-12.2038
▁niega	-12.2038
▁muerde	-12.2038
▁pintando	-12.2038
▁animó	-12.2038
▁tortured	-12.2038
▁turtles	-12.2038
▁gradual	-12.2038
▁occupied	-12.2039
▁invitaste	-12.2039
▁tiza	-12.2039
▁muchísima	-12.2039
▁recado	-12.204
▁sentate	-12.204
▁contributed	-12.2041
▁atravesar	-12.2042
▁gano	-12.2042
▁trade	-12.2042
▁offended	-12.2042
▁revealed	-12.2043
▁struggled	-12.2043
▁traditional	-12.2043
▁habilidades	-12.2043
▁utter	-12.2043
▁leyera	-12.2043
▁chewing	-12.2044
▁fracasó	-12.2045
▁guardado	-12.2045
▁adventure	-12.2045
▁escaparon	-12.2045
▁shaved	-12.2046
▁negotiate	-12.2046
▁novelista	-12.2046
▁molestarte	-12.2046
▁despedirme	-12.2046
▁slightly	-12.2047
▁señales	-12.2047
▁hopeless	-12.2047
▁risky	-12.2048
▁pidiera	-12.2048
▁demora	-12.2048
▁lastimarte	-12.2049
▁rellenar	-12.2049
▁tightly	-12.2049
▁adivinar	-12.205
▁worker	-12.205
▁theirs	-12.2051
▁dí	-12.2052
▁cenó	-12.2052
▁jesus	-12.2052
▁tortugas	-12.2052
▁acordarme	-12.2053
▁interrupting	-12.2055
ring	-12.2055
▁portón	-12.2055
▁hesitated	-12.2056
▁registro	-12.2056
▁rompa	-12.2056
▁dinos	-12.2056
▁explicaré	-12.206
▁útiles	-12.2061
ham	-12.2062
▁preguntarme	-12.2064
▁comparte	-12.2066
▁acerques	-12.2067
▁necesité	-12.2068
▁considerada	-12.2068
▁culparte	-12.2071
▁tank	-12.2072
▁ordenadores	-12.2073
▁correctly	-12.2074
▁posiblemente	-12.2075
▁prender	-12.2077
▁agente	-12.2079
▁pino	-12.2079
▁abrazar	-12.2079
▁arrestó	-12.2086
▁dilo	-12.2086
▁georg	-12.2086
▁parks	-12.2088
▁cabin	-12.209
▁cantado	-12.2091
▁completed	-12.2092
▁capa	-12.2095
▁frutos	-12.2096
▁fuertemente	-12.2098
▁reca	-12.21
▁corría	-12.2101
▁corredor	-12.2104
▁eligier	-12.2107
▁mejorado	-12.211
▁arruinar	-12.211
▁huesos	-12.211
▁frenos	-12.2113
▁quejar	-12.2114
▁respected	-12.2114
▁muevas	-12.2124
▁huellas	-12.2125
rain	-12.2125
▁remarks	-12.2125
▁uniforms	-12.2127
▁mueren	-12.2127
▁atrev	-12.2128
▁delete	-12.2135
cked	-12.2135
▁pizzas	-12.2137
▁discute	-12.2139
▁apuros	-12.2139
▁ignor	-12.2144
▁hablaste	-12.2148
▁asco	-12.2148
▁buscado	-12.2153
▁insulto	-12.2154
▁affairs	-12.2154
▁contentos	-12.2154
▁pensás	-12.2154
▁doors	-12.2167
▁acuest	-12.2167
▁smiles	-12.2168
▁beginners	-12.2168
▁separados	-12.2168
▁equivocas	-12.2172
▁catching	-12.2175
▁coman	-12.2176
ger	-12.2183
▁robots	-12.2198
▁amamos	-12.2198
▁manga	-12.22
▁relatives	-12.2204
▁esperen	-12.2204
▁rayos	-12.2212
▁telephoned	-12.2231
▁adopta	-12.2239
▁transfer	-12.224
▁cambies	-12.2241
▁apesta	-12.2241
▁delito	-12.2242
wa	-12.2246
▁traslad	-12.2249
▁guarde	-12.2251
rió	-12.2252
▁duermen	-12.2254
▁visito	-12.2257
▁drain	-12.2262
▁esperad	-12.2265
▁sneeze	-12.2271
tica	-12.2277
▁divorciar	-12.2285
▁policías	-12.229
aga	-12.2302
▁imagina	-12.2309
▁opinions	-12.2309
▁mejillas	-12.2315
▁deudas	-12.2315
▁ways	-12.232
▁twist	-12.2322
▁pedía	-12.2323
ments	-12.2331
▁pararon	-12.2343
▁directions	-12.2345
adora	-12.2346
▁escalado	-12.2358
▁taxis	-12.2373
▁cheeks	-12.2375
▁hablaron	-12.2379
▁empeora	-12.2383
▁cerdos	-12.239
▁oculta	-12.2393
▁seconds	-12.2394
▁oídos	-12.2422
▁sow	-12.2441
▁caros	-12.2459
are	-12.2469
zca	-12.2475
▁billetes	-12.2479
▁verse	-12.2483
▁ventas	-12.2495
▁estúpidos	-12.2496
ador	-12.2496
▁nota	-12.2501
ating	-12.2505
▁servicios	-12.2509
▁rat	-12.251
▁celebr	-12.2522
▁tomate	-12.2523
▁cer	-12.2526
▁loses	-12.2528
▁encogió	-12.2538
▁entren	-12.2539
▁curar	-12.2544
▁derrota	-12.2546
▁event	-12.2552
▁objetivos	-12.2554
▁reforma	-12.2562
arlo	-12.2568
▁absorb	-12.2575
▁shirts	-12.2582
▁vacías	-12.2584
▁conserva	-12.2619
shed	-12.2628
▁sweets	-12.2628
▁conduces	-12.2629
▁aprenda	-12.263
▁oscurecie	-12.2631
▁exprimi	-12.2632
▁acts	-12.2636
▁stifle	-12.2649
▁fiestas	-12.2669
▁sigues	-12.2674
▁vet	-12.2679
▁estudiara	-12.269
▁dividi	-12.2691
omo	-12.2703
▁bodas	-12.2706
nme	-12.2711
▁acompañ	-12.2713
▁hab	-12.2717
▁critic	-12.2728
▁líneas	-12.2736
eth	-12.2738
▁ricas	-12.2766
▁incendios	-12.2767
▁agarra	-12.277
▁notable	-12.2774
▁equivocados	-12.279
10,000	-12.2804
▁modera	-12.2815
fic	-12.2818
dicated	-12.282
▁sue	-12.2827
car	-12.2843
▁triunf	-12.2844
arios	-12.2854
▁travels	-12.286
hanging	-12.2861
▁orbit	-12.2876
▁enfada	-12.2881
liz	-12.2886
▁ci	-12.2888
hoy	-12.2891
dores	-12.2898
proxima	-12.2913
ny	-12.2939
▁cur	-12.2946
▁aburre	-12.2947
▁escuche	-12.2956
conoce	-12.2962
▁respects	-12.297
read	-12.2972
tendió	-12.2977
▁rec	-12.2978
eando	-12.2984
▁conclusion	-12.2986
▁neumático	-12.2994
▁paisaje	-12.2994
▁nieto	-12.2994
▁cubo	-12.2994
▁inglesa	-12.2998
▁candidato	-12.2998
▁mosca	-12.2998
▁ingeniero	-12.3
▁vehículo	-12.3
▁abeja	-12.3002
▁affair	-12.3005
todo	-12.3005
▁spider	-12.3006
▁cloud	-12.3006
▁plátano	-12.3006
▁pierda	-12.3007
▁supplie	-12.3008
▁degree	-12.3009
▁ingreso	-12.3009
▁customer	-12.301
▁vegetable	-12.3011
▁grade	-12.3018
▁element	-12.3019
ders	-12.3023
▁postul	-12.3023
▁elbow	-12.3023
osa	-12.3025
▁warning	-12.3027
▁australian	-12.3034
▁z	-12.3035
▁incorrect	-12.3036
▁diente	-12.3036
▁cepilla	-12.3043
▁nervios	-12.3048
▁trueno	-12.306
▁relativ	-12.3061
resisti	-12.3076
▁clon	-12.308
▁crow	-12.3081
▁traig	-12.3086
▁fuel	-12.3089
▁toast	-12.3091
terminaste	-12.3091
▁hablará	-12.3093
entonces	-12.3094
▁asegura	-12.3096
▁pague	-12.3097
made	-12.3099
plica	-12.31
▁leas	-12.31
pressed	-12.3101
buen	-12.3102
entiendes	-12.3102
▁item	-12.3102
estudias	-12.3103
▁camel	-12.3103
dijo	-12.3103
fue	-12.3104
cola	-12.3104
may	-12.3104
recieron	-12.3105
▁cared	-12.3106
seguimos	-12.3113
▁horizon	-12.3119
▁maní	-12.3119
▁afecta	-12.312
▁enti	-12.3124
▁recover	-12.3125
▁detén	-12.3126
▁confuse	-12.3128
▁swallow	-12.3128
▁impact	-12.313
▁prohíb	-12.3131
ártelo	-12.3132
▁valid	-12.3133
▁comunicar	-12.3133
▁fabrica	-12.3133
▁branch	-12.3134
▁cazador	-12.3134
▁jugado	-12.3134
▁artificial	-12.3134
▁hog	-12.3135
▁immediate	-12.3137
▁mastica	-12.3138
árselo	-12.3139
▁threat	-12.3139
▁carbon	-12.314
▁cigar	-12.314
▁averig	-12.314
▁pulse	-12.314
▁inclina	-12.3141
▁process	-12.3141
▁slip	-12.3141
▁proverb	-12.3141
▁cuelg	-12.3141
▁cerezo	-12.3141
▁compliment	-12.3141
▁exaggerate	-12.3141
▁gossip	-12.3141
▁idéntico	-12.3141
▁postcard	-12.3141
▁sobrino	-12.3141
▁afterwards	-12.3141
▁ahorita	-12.3141
▁amateur	-12.3141
▁amistoso	-12.3141
▁appeal	-12.3141
▁aprobación	-12.3141
▁arbusto	-12.3141
▁asignatura	-12.3141
▁atómica	-12.3141
▁autobuses	-12.3141
▁awkward	-12.3141
▁baboon	-12.3141
▁bancarrota	-12.3141
▁cajero	-12.3141
▁campamento	-12.3141
▁carácter	-12.3141
▁chimney	-12.3141
▁cliff	-12.3141
▁clumsy	-12.3141
▁comunicación	-12.3141
▁concierne	-12.3141
▁conocida	-12.3141
▁demonio	-12.3141
▁desconozco	-12.3141
▁destination	-12.3141
▁dumped	-12.3141
▁elderly	-12.3141
▁equilibrio	-12.3141
▁escándalo	-12.3141
▁espagueti	-12.3141
▁estadística	-12.3141
▁expose	-12.3141
▁extent	-12.3141
▁feroz	-12.3141
▁flauta	-12.3141
▁garlic	-12.3141
▁grammatical	-12.3141
▁incumbe	-12.3141
▁injusta	-12.3141
▁insensitive	-12.3141
▁intelligence	-12.3141
▁intervened	-12.3141
▁journey	-12.3141
▁kyushu	-12.3141
▁magnífica	-12.3141
▁maletín	-12.3141
▁malvado	-12.3141
▁maquillaje	-12.3141
▁misunderstood	-12.3141
▁mysterious	-12.3141
▁negative	-12.3141
▁nephew	-12.3141
▁niñez	-12.3141
▁ostras	-12.3141
▁overweight	-12.3141
▁peluquería	-12.3141
▁platform	-12.3141
▁pollution	-12.3141
▁privacy	-12.3141
▁propina	-12.3141
▁práctico	-12.3141
▁pulso	-12.3141
▁póquer	-12.3141
▁quebró	-12.3141
▁reproductor	-12.3141
▁satisfactory	-12.3141
▁seatbelt	-12.3141
▁siblings	-12.3141
▁solitario	-12.3141
▁spinach	-12.3141
▁statistic	-12.3141
▁suegra	-12.3141
▁swept	-12.3141
▁símbolo	-12.3141
▁tatuaje	-12.3141
▁thieves	-12.3141
▁tobillo	-12.3141
▁translating	-12.3141
▁tropas	-12.3141
▁votó	-12.3141
▁válido	-12.3141
▁workaholic	-12.3141
▁agricultura	-12.3141
▁cease	-12.3141
▁conservative	-12.3141
▁elegí	-12.3141
▁erigi	-12.3141
▁hierve	-12.3141
▁pareciera	-12.3141
▁pediste	-12.3141
▁prosper	-12.3141
▁shelter	-12.3141
▁biology	-12.3141
▁biología	-12.3141
▁cinta	-12.3141
▁confesar	-12.3141
▁parecida	-12.3141
▁shortcut	-12.3141
▁ankle	-12.3141
▁bride	-12.3141
▁crítica	-12.3141
▁snack	-12.3141
▁sneak	-12.3141
▁semester	-12.3141
▁toothache	-12.3141
▁democratic	-12.3141
▁muriera	-12.3141
▁cerradura	-12.3141
▁diversión	-12.3141
▁eternidad	-12.3141
▁kingdom	-12.3141
▁qualified	-12.3141
firiendo	-12.3141
▁intervino	-12.3141
▁thread	-12.3141
▁organization	-12.3141
▁heaven	-12.3141
▁bunk	-12.3141
▁clapped	-12.3141
▁melted	-12.3141
▁profit	-12.3141
▁yawn	-12.3141
▁cayeron	-12.3141
▁western	-12.3141
▁organización	-12.3141
▁mentiste	-12.3141
▁unsure	-12.3141
▁guitarist	-12.3141
▁perrito	-12.3141
▁volcán	-12.3141
▁philosophy	-12.3141
▁snore	-12.3141
▁banjo	-12.3141
▁loyal	-12.3142
▁llévate	-12.3142
▁generación	-12.3142
▁beef	-12.3142
▁cueste	-12.3142
▁seafood	-12.3142
ogen	-12.3142
▁direcciones	-12.3142
▁lloro	-12.3142
▁recibe	-12.3142
▁respondido	-12.3142
▁perdóname	-12.3142
▁corregi	-12.3142
▁abrazó	-12.3142
▁download	-12.3142
▁gentle	-12.3142
▁heavier	-12.3142
▁colgando	-12.3142
▁hiking	-12.3142
▁esquiando	-12.3142
▁atleta	-12.3142
▁numero	-12.3142
▁roca	-12.3142
▁devastated	-12.3142
▁mojada	-12.3142
▁redacción	-12.3142
▁descubrimiento	-12.3142
▁dolía	-12.3142
▁permitted	-12.3142
▁puro	-12.3142
▁tornillo	-12.3142
▁cattle	-12.3142
▁dibujó	-12.3142
▁depriv	-12.3142
▁obligation	-12.3142
▁statement	-12.3142
▁recto	-12.3142
▁esencial	-12.3143
▁conducido	-12.3143
▁desesperado	-12.3143
▁shaking	-12.3143
▁meditando	-12.3143
▁azar	-12.3143
▁marina	-12.3143
▁conclusión	-12.3143
▁trasero	-12.3143
▁interese	-12.3143
▁doloroso	-12.3143
▁reparado	-12.3143
▁temblaba	-12.3143
▁seventy	-12.3144
▁stingy	-12.3144
▁tercio	-12.3144
▁hometown	-12.3144
▁amarga	-12.3144
▁realista	-12.3144
▁consideration	-12.3144
▁disgustado	-12.3144
▁revelar	-12.3144
▁fiable	-12.3144
▁rapidly	-12.3144
▁sacaste	-12.3144
▁gritando	-12.3144
▁levántate	-12.3144
▁doubtful	-12.3144
▁aferr	-12.3144
▁capturado	-12.3144
▁disculparse	-12.3144
▁blank	-12.3145
▁choque	-12.3145
▁costoso	-12.3145
▁apresúrate	-12.3145
▁cirujano	-12.3145
▁continúe	-12.3145
▁jesús	-12.3145
▁cachorro	-12.3145
▁manual	-12.3145
▁ahogarse	-12.3145
▁subestimes	-12.3145
▁hervir	-12.3145
▁patada	-12.3145
▁darkness	-12.3146
▁calentador	-12.3146
▁descalzo	-12.3146
▁afilado	-12.3146
▁defensa	-12.3146
▁melod	-12.3146
▁established	-12.3146
▁atasco	-12.3147
▁tumbado	-12.3147
▁slower	-12.3147
▁comprando	-12.3148
▁wealthy	-12.3148
▁mortal	-12.3148
▁taxista	-12.3149
▁bombarde	-12.3149
▁moments	-12.3149
▁regañó	-12.3149
▁regularmente	-12.3149
▁matando	-12.3149
▁derrotado	-12.3149
▁suene	-12.3149
▁divertirse	-12.3149
▁former	-12.315
▁misled	-12.315
▁deprisa	-12.315
▁fíj	-12.315
▁objection	-12.3151
▁pole	-12.3151
▁regrets	-12.3151
▁carbono	-12.3151
▁arreglado	-12.3151
▁horizonte	-12.3151
▁amused	-12.3152
▁alejado	-12.3152
▁stunning	-12.3152
▁culparía	-12.3152
▁sec	-12.3152
▁apagado	-12.3152
▁regresará	-12.3152
▁spoiled	-12.3152
▁ahogó	-12.3153
▁load	-12.3153
▁lavado	-12.3154
▁desire	-12.3154
▁dibujar	-12.3155
▁politely	-12.3156
▁parecé	-12.3156
▁limited	-12.3156
▁vámonos	-12.3156
▁angeles	-12.3156
▁associate	-12.3156
▁confirmed	-12.3157
▁besaron	-12.3157
▁delivered	-12.3157
▁devolveré	-12.3157
▁apagaron	-12.3157
▁buscamos	-12.3158
▁levantaron	-12.3158
▁enseñado	-12.3158
▁sorbo	-12.3158
▁perform	-12.3159
▁created	-12.3159
▁brillaba	-12.316
▁youngest	-12.3161
▁soportarlo	-12.3161
▁pese	-12.3161
▁alegrará	-12.3161
▁disgusted	-12.3161
▁necesitás	-12.3162
▁criminales	-12.3163
▁blowing	-12.3163
▁rendir	-12.3164
▁celosa	-12.3164
▁filete	-12.3165
▁empe	-12.3165
▁colgado	-12.3165
▁má	-12.3166
▁refieres	-12.3166
▁patatas	-12.3166
▁asiáticos	-12.3166
▁considerable	-12.3168
clined	-12.3168
▁atrae	-12.3169
▁conseguimos	-12.3169
▁satisfactoria	-12.3169
▁culpando	-12.3171
▁qu	-12.3171
▁vía	-12.3172
▁posibilidades	-12.3172
▁mago	-12.3172
▁referr	-12.3173
▁athlete	-12.3174
▁principales	-12.3175
▁examined	-12.3176
▁behaved	-12.3176
▁copies	-12.3178
▁criticize	-12.318
▁señaló	-12.3181
▁marineros	-12.3182
▁sailors	-12.3182
▁exacta	-12.3183
▁escondidas	-12.3183
▁ruidoso	-12.3183
▁aliviar	-12.3183
▁desmayar	-12.3184
▁cerré	-12.3184
▁organized	-12.3185
▁calmado	-12.3185
▁tubo	-12.3186
▁acceptable	-12.3186
▁amaré	-12.3188
▁tame	-12.319
▁errónea	-12.319
▁interna	-12.3191
▁gire	-12.3191
▁menores	-12.3193
▁paré	-12.3193
▁pagaron	-12.3193
▁terminaste	-12.3195
▁prestarme	-12.3196
▁invita	-12.3196
▁responded	-12.3198
▁responda	-12.3198
▁patiently	-12.3198
▁palomas	-12.3199
▁eve	-12.3199
▁interrumpas	-12.3199
▁tooth	-12.3204
▁terminaron	-12.3204
▁cruce	-12.3207
▁jueguen	-12.3207
▁differently	-12.3207
▁cambiaré	-12.3208
▁seguiré	-12.3212
▁mow	-12.3212
▁creerle	-12.3215
aza	-12.3216
▁mantendrá	-12.3217
▁bebas	-12.3219
▁descubre	-12.3219
▁tool	-12.3221
▁discussing	-12.3223
▁meditar	-12.3224
▁distraer	-12.3224
ates	-12.3224
▁aceptaría	-12.3228
▁permanece	-12.3231
enzo	-12.3235
▁du	-12.3236
▁congelado	-12.3237
▁mag	-12.3238
▁mates	-12.3238
▁jugaban	-12.3242
▁tenista	-12.3245
▁weeds	-12.3249
▁acababa	-12.325
▁nicer	-12.3251
▁costear	-12.3253
▁landing	-12.3254
cimiento	-12.3265
▁vuelves	-12.3265
▁vision	-12.3268
▁escribirle	-12.3271
▁encantaba	-12.3272
▁sip	-12.3272
▁laws	-12.3287
▁torn	-12.3291
▁alter	-12.3291
▁coja	-12.3294
▁visitarte	-12.3294
▁monkeys	-12.3297
▁heating	-12.3297
▁vitamins	-12.3297
▁vitaminas	-12.3299
▁hitch	-12.3299
irió	-12.3301
▁decís	-12.3313
▁granjeros	-12.3313
▁trucos	-12.3313
▁antiques	-12.3314
▁provocar	-12.3316
▁ja	-12.3323
fundió	-12.3323
▁usamos	-12.3329
▁sheets	-12.3329
uela	-12.333
▁sacrifice	-12.3331
▁mall	-12.3331
▁weighs	-12.3332
▁exceptional	-12.3332
▁pork	-12.3338
lena	-12.3341
▁principiantes	-12.3346
000	-12.3349
ncé	-12.335
▁logra	-12.3352
▁hablen	-12.3352
▁indian	-12.3352
▁sentirá	-12.3354
nada	-12.3357
▁farmers	-12.3363
▁abrirá	-12.3368
▁sumo	-12.337
▁voluntarios	-12.338
▁arresto	-12.3392
▁acos	-12.3395
▁ban	-12.3399
▁consultar	-12.3405
criado	-12.3417
▁recog	-12.3427
▁cobra	-12.3431
telo	-12.3432
▁oyes	-12.3441
▁cabras	-12.3446
▁ruins	-12.3447
▁classic	-12.3454
▁cómodos	-12.3454
▁partidos	-12.3458
▁gallinas	-12.3462
▁medicamentos	-12.3462
istic	-12.3463
▁recoge	-12.3464
▁enamor	-12.3465
▁plates	-12.3478
▁youth	-12.3479
▁demands	-12.3479
▁files	-12.348
▁freed	-12.3485
▁apresurar	-12.349
▁doctora	-12.3493
▁ayudamos	-12.3502
▁imports	-12.3502
▁harán	-12.3516
▁infla	-12.3521
▁alquila	-12.3521
▁inventar	-12.3527
▁imitate	-12.3529
▁tanque	-12.3533
▁peligrosos	-12.354
ison	-12.3556
▁masa	-12.356
▁tomates	-12.3564
ities	-12.3567
▁criminals	-12.358
▁suficientes	-12.3591
▁garantiza	-12.3607
▁arregle	-12.3624
▁owned	-12.3627
▁estabais	-12.3628
▁ubica	-12.3628
▁boletos	-12.363
▁extendi	-12.3633
▁vendrías	-12.3634
▁hoyo	-12.3634
ong	-12.3643
▁parara	-12.3647
▁despiérta	-12.365
portable	-12.3657
tus	-12.3658
▁remembering	-12.3673
▁sucedier	-12.3679
▁ésas	-12.3681
▁afortunados	-12.3681
▁intentions	-12.3681
ko	-12.3689
▁cercanos	-12.3689
▁vari	-12.3692
▁bienvenidos	-12.3698
▁demandar	-12.3705
▁absorbe	-12.3711
▁mirad	-12.3716
line	-12.3735
▁troubles	-12.374
▁remembers	-12.3744
▁reform	-12.3756
melo	-12.3759
▁costo	-12.3762
▁cuidadosos	-12.3768
▁skirts	-12.3771
▁bro	-12.3774
▁copias	-12.378
▁dormidos	-12.3784
cé	-12.3787
▁muñecas	-12.38
parked	-12.3804
▁mars	-12.3815
if	-12.3816
▁acusa	-12.3818
▁gradua	-12.3829
▁camisas	-12.3834
ándolo	-12.3839
▁borr	-12.3846
▁cas	-12.3853
cre	-12.3857
▁bites	-12.3859
▁arriesg	-12.3863
▁pertene	-12.3867
▁castigar	-12.3879
marily	-12.3899
▁pegar	-12.3903
▁idiots	-12.3905
▁expresa	-12.3923
▁admite	-12.3924
▁aves	-12.3927
▁proporcionar	-12.3937
▁humans	-12.3945
▁esperas	-12.3947
▁recomiend	-12.3957
▁reconsider	-12.3984
▁burlar	-12.399
▁urge	-12.4004
▁frases	-12.4009
▁pele	-12.4012
▁limpie	-12.4019
▁levantas	-12.4035
▁comprendí	-12.4059
▁puntos	-12.4062
▁aterriza	-12.4069
ix	-12.4072
▁irás	-12.4072
▁fare	-12.4077
▁vibra	-12.4077
▁pl	-12.4087
ático	-12.4095
▁elevado	-12.4099
talo	-12.4115
▁reparti	-12.4151
quis	-12.4164
deja	-12.4185
primió	-12.4194
vendrá	-12.4206
▁transmit	-12.4232
▁creci	-12.4235
▁investment	-12.4244
▁oiga	-12.4244
▁arruinado	-12.4246
▁castigado	-12.4246
▁movimiento	-12.4248
▁valioso	-12.4248
▁avance	-12.4248
▁pela	-12.4249
▁cristiano	-12.425
▁mascota	-12.425
▁string	-12.425
▁blonde	-12.425
▁distinto	-12.4251
▁christian	-12.4252
▁disparo	-12.4253
▁apuro	-12.4255
▁oreja	-12.4259
▁wire	-12.4259
▁consecuencia	-12.426
▁pista	-12.426
▁nube	-12.426
▁sock	-12.426
▁impress	-12.4261
▁verdura	-12.4264
rected	-12.4265
▁codo	-12.4268
▁pregunt	-12.4272
▁jog	-12.4275
▁congela	-12.4279
▁docena	-12.4282
omas	-12.4291
▁moderno	-12.4293
▁aprueb	-12.4299
illo	-12.43
espera	-12.4301
▁invento	-12.4305
▁aprovech	-12.4307
rro	-12.4316
▁adelanta	-12.4319
▁reuni	-12.4323
▁ocup	-12.4326
orge	-12.4329
▁magnet	-12.4331
confident	-12.4343
debo	-12.4343
alguno	-12.4343
▁agent	-12.4344
déjame	-12.4344
rolled	-12.4345
who	-12.4345
pasas	-12.4347
▁combina	-12.4348
10.	-12.4351
hola	-12.4351
mbled	-12.4354
▁receiv	-12.4354
voy	-12.4355
▁instal	-12.4357
▁racist	-12.4362
▁annoy	-12.4369
▁agradecer	-12.4372
▁aparece	-12.4373
▁compete	-12.4375
▁concentr	-12.4375
▁deceive	-12.4376
▁spoil	-12.4379
▁offend	-12.4379
▁betray	-12.4379
▁regar	-12.4379
estamos	-12.4379
rich	-12.438
▁coast	-12.4383
▁modest	-12.4384
▁chaval	-12.4384
bamos	-12.4384
▁implica	-12.4384
▁neat	-12.4386
▁accu	-12.4386
▁compani	-12.4387
▁gene	-12.4388
▁apropiada	-12.4388
▁plena	-12.4389
▁salvado	-12.439
▁sharpen	-12.439
▁vietnam	-12.4391
▁knit	-12.4391
oru	-12.4391
▁dinosaur	-12.4391
▁react	-12.4391
▁tendenc	-12.4391
▁differ	-12.4391
▁blunt	-12.4391
▁cadáver	-12.4391
▁descartar	-12.4391
▁einstein	-12.4391
▁hydr	-12.4391
▁lipstick	-12.4391
▁nocturno	-12.4391
▁occidental	-12.4391
▁penicil	-12.4391
▁préstame	-12.4391
▁shark	-12.4391
▁titanic	-12.4391
▁tromb	-12.4391
▁técnica	-12.4391
▁valiosa	-12.4391
▁aburrimiento	-12.4391
▁alemanes	-12.4391
▁almorcé	-12.4391
▁arrancó	-12.4391
▁atascado	-12.4391
▁beethoven	-12.4391
▁berlín	-12.4391
▁bikini	-12.4391
▁cafeteria	-12.4391
▁calcetín	-12.4391
▁cementerio	-12.4391
▁champú	-12.4391
▁chatarra	-12.4391
▁cintura	-12.4391
▁comprueb	-12.4391
▁conversando	-12.4391
▁cotton	-12.4391
▁crítico	-12.4391
▁cycling	-12.4391
▁december	-12.4391
▁departure	-12.4391
▁desnuda	-12.4391
▁despistado	-12.4391
▁destruida	-12.4391
▁diciembre	-12.4391
▁diplomática	-12.4391
▁doorknob	-12.4391
▁dutch	-12.4391
▁ecuador	-12.4391
▁encaja	-12.4391
▁enormous	-12.4391
▁esclavitud	-12.4391
▁escuchá	-12.4391
▁exhilarat	-12.4391
▁flies	-12.4391
▁forbidden	-12.4391
▁fractur	-12.4391
▁francamente	-12.4391
▁gloomy	-12.4391
▁gramatical	-12.4391
▁guiso	-12.4391
▁haunted	-12.4391
▁impresionar	-12.4391
▁incurable	-12.4391
▁industry	-12.4391
▁irresponsable	-12.4391
▁jarrón	-12.4391
▁jueves	-12.4391
▁juventud	-12.4391
▁lloré	-12.4391
▁llovía	-12.4391
▁madrid	-12.4391
▁mariposa	-12.4391
▁monedero	-12.4391
▁monster	-12.4391
▁monstruo	-12.4391
▁muelle	-12.4391
▁muñeco	-12.4391
▁nagano	-12.4391
▁nagoya	-12.4391
▁narices	-12.4391
▁naughty	-12.4391
▁negativo	-12.4391
▁neglect	-12.4391
▁nixon	-12.4391
▁niñita	-12.4391
▁noviembre	-12.4391
▁obama	-12.4391
▁origen	-12.4391
▁pathetic	-12.4391
▁peluquero	-12.4391
▁pertenencias	-12.4391
▁pilchas	-12.4391
▁policies	-12.4391
▁probabilidad	-12.4391
▁proceso	-12.4391
▁pruebe	-12.4391
▁renuncié	-12.4391
▁repite	-12.4391
▁respetuoso	-12.4391
▁ribbon	-12.4391
▁ridícula	-12.4391
▁rumbo	-12.4391
▁satellite	-12.4391
▁shadow	-12.4391
▁shibuya	-12.4391
▁shinano	-12.4391
▁sidewalk	-12.4391
▁snuggle	-12.4391
▁sobresaliente	-12.4391
▁sobrina	-12.4391
▁stroke	-12.4391
▁supply	-12.4391
▁surface	-12.4391
▁temporal	-12.4391
▁testamento	-12.4391
▁thursday	-12.4391
▁tobacco	-12.4391
▁tuviese	-12.4391
▁título	-12.4391
▁uneasy	-12.4391
▁universitaria	-12.4391
▁unnecessary	-12.4391
▁vanidoso	-12.4391
▁vaqueros	-12.4391
▁virtud	-12.4391
▁virtue	-12.4391
▁wisdom	-12.4391
▁withdrew	-12.4391
▁automático	-12.4391
▁blink	-12.4391
▁cacahu	-12.4391
▁context	-12.4391
▁entorno	-12.4391
▁holanda	-12.4391
▁nasty	-12.4391
▁sauce	-12.4391
▁sharing	-12.4391
▁watermelon	-12.4391
▁culpó	-12.4391
▁cántaros	-12.4391
▁profundidad	-12.4391
▁sector	-12.4391
▁setenta	-12.4391
▁waist	-12.4391
▁accurate	-12.4391
▁amenazó	-12.4391
▁delicate	-12.4391
▁explotó	-12.4391
▁manteca	-12.4391
▁palillos	-12.4391
▁apagué	-12.4391
▁jewelry	-12.4391
▁máscara	-12.4391
▁rational	-12.4391
▁repetí	-12.4391
▁basic	-12.4391
▁calculadora	-12.4391
▁delfines	-12.4391
▁northern	-12.4391
▁pateó	-12.4391
▁quote	-12.4391
▁recibo	-12.4391
▁rutina	-12.4391
▁tejiendo	-12.4391
órale	-12.4391
▁juzgue	-12.4391
▁nintendo	-12.4391
▁refugiados	-12.4391
▁desconcertado	-12.4391
▁enfrí	-12.4391
▁ficción	-12.4391
▁loving	-12.4391
▁thailand	-12.4391
▁youtube	-12.4391
▁algodón	-12.4391
▁connection	-12.4391
▁enlace	-12.4391
▁fiction	-12.4391
▁steam	-12.4391
▁firewood	-12.4391
▁limón	-12.4391
▁unwilling	-12.4391
▁clue	-12.4391
▁griega	-12.4391
▁huracán	-12.4391
▁natación	-12.4391
▁consciencia	-12.4391
▁creative	-12.4391
▁tailandia	-12.4391
▁memories	-12.4391
▁tradición	-12.4391
▁dinosaurio	-12.4391
▁flojo	-12.4391
▁escondas	-12.4391
▁activa	-12.4391
▁invención	-12.4391
▁versión	-12.4391
▁encontremos	-12.4391
▁almorzado	-12.4391
▁interrumpió	-12.4391
▁partner	-12.4391
▁community	-12.4392
▁fuéramos	-12.4392
▁compass	-12.4392
▁guitarrista	-12.4392
▁carelessness	-12.4392
▁formula	-12.4392
▁agosto	-12.4392
▁ocurriendo	-12.4392
▁calculator	-12.4392
▁nacionalidad	-12.4392
▁crane	-12.4392
▁quédese	-12.4392
▁cupboard	-12.4392
▁consciousness	-12.4392
▁sunlight	-12.4392
▁agradecimiento	-12.4392
▁knitting	-12.4392
▁exhibition	-12.4392
▁parallel	-12.4392
▁ballet	-12.4392
▁estallar	-12.4392
▁previous	-12.4392
▁tremble	-12.4392
▁bombones	-12.4392
▁suertudo	-12.4392
▁curb	-12.4392
▁salesman	-12.4392
▁ipod	-12.4392
▁govern	-12.4392
▁escondí	-12.4392
▁deadline	-12.4392
▁reap	-12.4392
▁preocupo	-12.4392
▁aplicación	-12.4392
▁descuidado	-12.4392
▁existence	-12.4392
▁instalar	-12.4393
▁murmurando	-12.4393
▁agradecería	-12.4393
▁costosa	-12.4393
▁preocupaciones	-12.4393
▁liado	-12.4393
▁relajarse	-12.4393
▁arco	-12.4393
▁pronunciation	-12.4393
▁pulsar	-12.4393
▁espantoso	-12.4393
▁critical	-12.4393
▁prediction	-12.4393
▁tempt	-12.4393
▁disparado	-12.4393
▁fundamental	-12.4393
▁fracasado	-12.4393
semeja	-12.4393
▁váyase	-12.4393
▁daily	-12.4393
▁cepillo	-12.4394
▁title	-12.4394
▁motion	-12.4394
▁chairman	-12.4394
▁disfrazado	-12.4394
▁llamá	-12.4394
▁motivado	-12.4394
hower	-12.4394
▁feriado	-12.4394
▁rebelde	-12.4394
▁perlas	-12.4395
▁carné	-12.4395
▁policemen	-12.4395
▁poli	-12.4395
▁fuss	-12.4395
▁alfabeto	-12.4395
▁distingue	-12.4395
▁dental	-12.4395
▁trasera	-12.4395
▁bañando	-12.4395
▁luchando	-12.4395
▁temporary	-12.4395
▁fry	-12.4395
▁indignado	-12.4395
▁flock	-12.4396
▁querrá	-12.4396
▁dependable	-12.4396
▁pues	-12.4396
▁cardíaco	-12.4396
stén	-12.4396
inició	-12.4396
▁furiosa	-12.4396
dney	-12.4396
icked	-12.4396
▁ruego	-12.4397
▁version	-12.4397
▁desprecio	-12.4398
▁fantástico	-12.4398
▁pescando	-12.4398
▁rodeos	-12.4398
▁helada	-12.4398
hablá	-12.4399
▁artificiales	-12.4399
legó	-12.4399
▁mandado	-12.4399
▁viking	-12.44
▁superficial	-12.44
▁fabricado	-12.44
▁firmemente	-12.44
▁confront	-12.44
▁print	-12.4401
▁destinad	-12.4401
▁gay	-12.4401
▁lazie	-12.4401
▁makeup	-12.4401
▁signal	-12.4401
▁toneladas	-12.4402
▁llámalo	-12.4402
▁costaría	-12.4402
▁gata	-12.4402
▁feder	-12.4402
▁preso	-12.4403
▁croa	-12.4403
▁voyage	-12.4403
▁duck	-12.4404
▁ileso	-12.4405
▁pensamos	-12.4405
▁periodo	-12.4405
▁abandonaron	-12.4405
▁logic	-12.4406
▁corporal	-12.4406
going	-12.4406
▁fastest	-12.4407
▁somehow	-12.4407
▁exacto	-12.4407
▁focused	-12.4407
▁perdonaré	-12.4407
▁tape	-12.4408
▁caída	-12.4408
▁counter	-12.4408
▁molestado	-12.4408
▁freak	-12.4408
▁ju	-12.4408
▁enfadarse	-12.4409
▁abrazo	-12.4409
▁violento	-12.441
▁gray	-12.4411
▁accomplished	-12.4411
▁cuba	-12.4411
▁navegar	-12.4411
▁absurda	-12.4412
▁apostar	-12.4413
▁delgada	-12.4413
▁ruta	-12.4413
▁visitarnos	-12.4413
▁create	-12.4413
▁criticized	-12.4414
▁presentarme	-12.4414
▁moverse	-12.4414
▁nik	-12.4415
▁funcionando	-12.4416
▁americana	-12.4416
▁guardaré	-12.4416
▁niece	-12.4418
▁acostarte	-12.4418
▁costado	-12.4418
▁visado	-12.4419
▁intentaron	-12.442
▁evitarlo	-12.442
bérmelo	-12.442
▁flute	-12.442
▁attic	-12.442
▁reserved	-12.4421
▁racista	-12.4421
▁vuelan	-12.4422
▁entramos	-12.4422
▁darker	-12.4423
▁pacientemente	-12.4424
▁conflicto	-12.4425
▁sillón	-12.4426
▁hail	-12.4426
▁maintain	-12.4427
▁bay	-12.4427
▁quedaste	-12.443
▁besarte	-12.4431
vives	-12.4431
▁ironing	-12.4434
hea	-12.4434
▁protegerte	-12.4434
▁salty	-12.4435
▁lifted	-12.4436
▁nadador	-12.4438
▁cacahuetes	-12.4438
▁encontraremos	-12.4438
▁cogeré	-12.4438
▁diferenciar	-12.4439
isen	-12.4439
▁destaca	-12.444
▁picky	-12.4441
▁pasteles	-12.4442
▁contradict	-12.4442
▁ganaron	-12.4444
▁eliminar	-12.4444
▁apretar	-12.4447
▁farther	-12.4447
▁intercambiar	-12.4448
▁familiares	-12.4448
▁terriblemente	-12.4449
▁visitamos	-12.4453
▁hip	-12.4453
▁relaxing	-12.4455
▁comporta	-12.4456
▁galletitas	-12.4457
▁dolphins	-12.4457
▁sábanas	-12.4457
▁colegas	-12.4457
▁mudo	-12.4457
▁obeyed	-12.4457
▁usarlo	-12.446
pensás	-12.4463
▁ganamos	-12.4464
▁payment	-12.4467
▁goma	-12.4467
▁admito	-12.4468
▁islam	-12.4468
▁sn	-12.4469
▁llamarlo	-12.4469
▁gotea	-12.4473
▁terroristas	-12.4476
rado	-12.4477
▁stays	-12.4478
▁libras	-12.4479
▁cuidarte	-12.4479
▁arreglo	-12.448
▁creés	-12.4483
▁obedece	-12.4484
▁bridges	-12.4485
▁runner	-12.4486
▁esperaron	-12.4487
▁armada	-12.4489
▁recupere	-12.4492
▁deba	-12.4493
▁ganará	-12.4494
▁dormi	-12.4498
▁mienten	-12.4499
▁confundid	-12.45
owed	-12.4505
▁hacés	-12.4513
▁parientes	-12.4513
▁bones	-12.4515
▁pandas	-12.4525
▁pararme	-12.4528
▁disparos	-12.4531
▁ajo	-12.4531
▁ayudaron	-12.4533
comes	-12.4536
▁vean	-12.4536
▁encontraría	-12.4538
▁llamarte	-12.4538
▁mini	-12.4539
▁voices	-12.4539
▁vini	-12.4549
queda	-12.4551
term	-12.4552
▁rights	-12.4557
▁reported	-12.4564
▁realiza	-12.4565
nic	-12.4566
▁víctimas	-12.4569
▁pap	-12.4569
▁limits	-12.457
▁cri	-12.4573
▁bob	-12.4574
▁faults	-12.4576
▁triple	-12.4576
▁male	-12.4581
▁enseñe	-12.4582
▁entiendas	-12.4587
cos	-12.4602
▁archivos	-12.4607
▁blankets	-12.4607
▁cables	-12.4607
▁ganaría	-12.461
▁dejarle	-12.4614
▁intent	-12.4618
▁diamantes	-12.4625
▁pigs	-12.4625
▁fáciles	-12.4626
▁sabrás	-12.4626
▁dejamos	-12.4629
▁vencer	-12.4629
▁dejarme	-12.4632
▁competente	-12.4632
▁aproxima	-12.4633
▁acompañar	-12.4634
▁ending	-12.4636
▁descansa	-12.4641
▁vuelvan	-12.4643
▁goats	-12.4644
▁chocolates	-12.4648
▁olvid	-12.4655
▁marks	-12.4657
ríamos	-12.466
▁mosquitos	-12.4664
▁mol	-12.4665
dura	-12.4665
▁afueras	-12.4666
▁mensajes	-12.4667
▁wa	-12.4667
▁varía	-12.4671
ino	-12.4673
▁arroj	-12.4683
▁roman	-12.4684
ache	-12.4688
▁vidas	-12.4697
▁ayudase	-12.4704
▁tin	-12.4704
dico	-12.4704
▁aterroriza	-12.4705
▁consulta	-12.4708
▁pelos	-12.471
▁cuentos	-12.472
▁casara	-12.4728
▁hoteles	-12.473
▁dejad	-12.4736
▁parecidos	-12.4739
▁fingir	-12.4747
▁forth	-12.4751
sería	-12.4751
▁sordos	-12.4758
▁disponibles	-12.4758
értelo	-12.476
▁ayuden	-12.4771
▁debts	-12.4776
▁altas	-12.4776
▁aprendes	-12.4781
▁copas	-12.4794
▁morirá	-12.4795
devuélveme	-12.4803
▁conseguirá	-12.4809
▁costar	-12.4814
▁actions	-12.4816
▁sostiene	-12.4817
▁tube	-12.4819
▁pastor	-12.4827
▁lé	-12.4828
▁apt	-12.4828
▁weekends	-12.4832
▁tocas	-12.4833
▁produces	-12.4848
▁serlo	-12.4851
ight	-12.4851
▁mejore	-12.4856
▁aterrizar	-12.4857
▁represent	-12.4859
▁calcul	-12.4872
awa	-12.4872
▁ships	-12.4873
▁aspectos	-12.4874
▁condena	-12.4876
▁negociar	-12.4882
aid	-12.4895
▁training	-12.4905
▁pes	-12.4905
▁materials	-12.4912
▁goals	-12.4912
▁ordenar	-12.4913
▁interests	-12.4913
▁castiga	-12.4924
▁kn	-12.4927
▁besado	-12.4928
▁procur	-12.4934
jones	-12.4939
▁preocupar	-12.4956
▁skip	-12.4966
▁fo	-12.498
▁limpiara	-12.4988
▁abiertos	-12.499
▁recort	-12.4997
▁barcos	-12.5019
▁patients	-12.5019
▁aguard	-12.5028
▁coste	-12.504
▁presum	-12.5046
▁echas	-12.5068
preció	-12.5076
▁tr	-12.508
▁exige	-12.508
▁recompensa	-12.5088
▁busque	-12.5099
▁holes	-12.5107
▁cumpl	-12.5108
▁bombs	-12.5116
▁despe	-12.5117
▁casos	-12.5121
▁acaban	-12.5122
▁fondos	-12.5122
▁rooms	-12.5126
▁salva	-12.5129
▁caballeros	-12.513
vando	-12.5132
▁entres	-12.5132
▁chup	-12.5133
▁ache	-12.5138
naciones	-12.514
▁poné	-12.5143
▁chi	-12.5156
ah	-12.5162
▁remo	-12.5163
ú	-12.5165
▁opens	-12.5189
tenía	-12.5191
ura	-12.5194
▁pint	-12.5195
▁exists	-12.5206
pagando	-12.5209
▁forms	-12.5215
▁dolls	-12.5222
▁blancas	-12.5225
▁levantan	-12.5234
▁esperan	-12.5244
▁detesta	-12.5245
▁flights	-12.5245
▁restaurants	-12.5254
ondas	-12.5262
▁indicate	-12.527
ain	-12.5274
bel	-12.5275
▁contesta	-12.5281
tely	-12.5288
▁mile	-12.5296
▁desorden	-12.5299
▁medias	-12.5301
▁nadaba	-12.5306
ping	-12.5311
▁points	-12.5339
▁cantantes	-12.5345
▁aspir	-12.5359
▁formar	-12.5364
▁singers	-12.5368
gar	-12.537
yendo	-12.5376
▁oje	-12.5377
▁intentas	-12.5385
▁cerradas	-12.5386
▁vestidos	-12.5398
lin	-12.5406
▁raises	-12.541
▁barri	-12.5421
▁preparados	-12.5426
▁islands	-12.5429
▁realiz	-12.543
▁tomara	-12.5434
▁tí	-12.5453
▁frances	-12.5463
▁monta	-12.5464
▁principios	-12.5466
ensa	-12.5472
▁console	-12.551
▁humillad	-12.5514
▁vendid	-12.5515
▁abr	-12.5515
▁gr	-12.5516
▁desear	-12.5517
escrib	-12.5517
ps	-12.5521
seguro	-12.5525
▁uniform	-12.5525
bul	-12.5537
toca	-12.5539
ona	-12.5539
vie	-12.5542
▁encarg	-12.5556
▁includ	-12.5564
itos	-12.5569
▁enterrar	-12.558
▁unir	-12.5592
▁remark	-12.5609
▁gua	-12.561
pó	-12.5613
▁instant	-12.5614
desea	-12.5619
wed	-12.562
▁atra	-12.5624
pensá	-12.5627
▁carreras	-12.5628
▁invadi	-12.5634
▁arriesga	-12.5648
▁atender	-12.5648
eight	-12.5651
sador	-12.5656
▁volverás	-12.5662
▁cheer	-12.5663
▁permít	-12.567
▁restos	-12.5671
▁stir	-12.5671
▁apuesta	-12.5672
▁capítulo	-12.5672
▁kitten	-12.5672
▁minifalda	-12.5672
▁aliado	-12.5672
▁pendiente	-12.5673
▁crí	-12.5674
▁confirmar	-12.5676
▁bacteria	-12.5676
▁maravilla	-12.5676
▁recuperará	-12.5676
▁anuncio	-12.5677
▁liberado	-12.5678
▁candidate	-12.5678
▁evita	-12.5678
▁transporte	-12.5679
▁graciosa	-12.5679
▁lavarropa	-12.568
▁clavo	-12.5681
▁pariente	-12.5682
▁huella	-12.5684
▁brake	-12.5684
▁mueva	-12.5684
▁estampilla	-12.5685
▁británico	-12.5685
▁crop	-12.5686
▁lip	-12.5687
▁peanut	-12.5687
▁marc	-12.5688
▁mueble	-12.5689
▁panda	-12.5701
▁ch	-12.5702
▁hacé	-12.5703
▁arranca	-12.5706
▁errors	-12.5711
▁ayudan	-12.5711
▁charges	-12.5713
▁exhibi	-12.5722
▁milla	-12.5722
▁aprendi	-12.5729
▁sigh	-12.5731
▁cl	-12.5732
▁encontrará	-12.5738
▁irrelevant	-12.5741
▁resfri	-12.5742
▁reí	-12.5745
▁sets	-12.5745
▁cojo	-12.5748
▁corro	-12.576
ciento	-12.5764
▁escabull	-12.5766
ulated	-12.5768
bló	-12.5768
rang	-12.5768
flexible	-12.5769
▁supus	-12.5771
water	-12.5772
successful	-12.5772
▁crear	-12.5772
podrá	-12.5773
minute	-12.5773
ojal	-12.5773
había	-12.5773
saw	-12.5774
▁temía	-12.5775
▁admiraba	-12.5778
▁rellen	-12.5786
estuviste	-12.5788
sois	-12.5789
hablaste	-12.5792
▁abro	-12.5803
juegas	-12.5804
▁involve	-12.5805
▁disguise	-12.5805
▁resuelv	-12.5805
▁struggle	-12.5805
▁stress	-12.5807
▁interrumpir	-12.581
▁compulsiv	-12.5811
▁fascina	-12.5811
▁rega	-12.5812
▁wink	-12.5812
▁cristal	-12.5812
▁traductor	-12.5812
▁mona	-12.5813
▁afila	-12.5813
▁volcano	-12.5813
▁contribute	-12.5814
▁indigna	-12.5815
ple	-12.5816
▁necessar	-12.5816
hand	-12.5817
▁chase	-12.5817
▁adecuada	-12.5817
▁valle	-12.5817
▁numb	-12.5818
▁observa	-12.5818
▁tomato	-12.5818
▁vestir	-12.5819
▁gasoline	-12.5819
cript	-12.5819
▁futbol	-12.5819
▁previo	-12.5819
▁significant	-12.5819
▁insiste	-12.5819
▁casual	-12.582
▁calendar	-12.582
▁opone	-12.582
▁sentís	-12.582
▁pickpocket	-12.582
▁romántica	-12.582
▁survivor	-12.582
óxido	-12.582
▁acertijo	-12.582
▁agriculture	-12.582
▁alexand	-12.582
▁ambiente	-12.582
▁ambition	-12.582
▁amistosa	-12.582
▁archaeologist	-12.582
▁asesinó	-12.582
▁astronomía	-12.582
▁attribute	-12.582
▁babysitter	-12.582
▁banquero	-12.582
▁bargain	-12.582
▁batteries	-12.582
▁belief	-12.582
▁benefit	-12.582
▁bulb	-12.582
▁calefacción	-12.582
▁calurosa	-12.582
▁camiseta	-12.582
▁carpenter	-12.582
▁catálogo	-12.582
▁cenizas	-12.582
▁cirugía	-12.582
▁comestibles	-12.582
▁conducción	-12.582
▁confidencial	-12.582
▁cradle	-12.582
▁democracia	-12.582
▁democracy	-12.582
▁despierte	-12.582
▁destruido	-12.582
▁devorado	-12.582
▁dictionaries	-12.582
▁dishonest	-12.582
▁divertiste	-12.582
▁drastic	-12.582
▁duties	-12.582
▁edge	-12.582
▁efficient	-12.582
▁elevó	-12.582
▁embajador	-12.582
▁encantó	-12.582
▁encerrado	-12.582
▁entusiasmo	-12.582
▁errand	-12.582
▁especie	-12.582
▁esperándote	-12.582
▁estrelló	-12.582
▁estupideces	-12.582
▁exactitud	-12.582
▁expliqué	-12.582
▁fabuloso	-12.582
▁farmacia	-12.582
▁fountain	-12.582
▁fregadero	-12.582
▁harbor	-12.582
▁hiciéramos	-12.582
▁hidrógeno	-12.582
▁hobbies	-12.582
▁hígado	-12.582
▁infarto	-12.582
▁inhabitants	-12.582
▁injury	-12.582
▁intenso	-12.582
▁inversión	-12.582
▁irresponsible	-12.582
▁jungle	-12.582
▁lastimé	-12.582
▁lechuga	-12.582
▁magician	-12.582
▁mammal	-12.582
▁nacido	-12.582
▁netherlands	-12.582
▁nocturna	-12.582
▁ofender	-12.582
▁padrastro	-12.582
▁palideció	-12.582
▁palomitas	-12.582
▁panadería	-12.582
▁peculiar	-12.582
▁perfección	-12.582
▁portugués	-12.582
▁positivo	-12.582
▁promising	-12.582
▁psiquiatra	-12.582
▁pulmón	-12.582
▁quebrado	-12.582
▁questionnaire	-12.582
▁receipt	-12.582
▁refiero	-12.582
▁relájate	-12.582
▁repisa	-12.582
▁routine	-12.582
▁rudo	-12.582
▁sartén	-12.582
▁satisfacer	-12.582
▁satélite	-12.582
▁signature	-12.582
▁slim	-12.582
▁slump	-12.582
▁snoring	-12.582
▁sorrow	-12.582
▁souvenir	-12.582
▁squirrel	-12.582
▁stadium	-12.582
▁stranded	-12.582
▁stream	-12.582
▁sunbathing	-12.582
▁sólida	-12.582
▁sótano	-12.582
▁tabla	-12.582
▁telescope	-12.582
▁telescopio	-12.582
▁tournament	-12.582
▁tripulación	-12.582
▁troops	-12.582
▁tropez	-12.582
▁unattended	-12.582
▁vacuum	-12.582
▁valentín	-12.582
▁veinticinco	-12.582
▁venecia	-12.582
▁vergonzoso	-12.582
▁voces	-12.582
▁widow	-12.582
▁yield	-12.582
▁accidentalmente	-12.582
▁contigu	-12.582
▁conversamos	-12.582
▁debiera	-12.582
▁instinto	-12.582
▁intersection	-12.582
▁masculine	-12.582
▁nochebuena	-12.582
▁pochoclo	-12.582
▁recoja	-12.582
▁rural	-12.582
▁scandal	-12.582
▁simpatía	-12.582
▁spouse	-12.582
▁torneo	-12.582
▁afición	-12.582
▁apuñala	-12.582
▁blend	-12.582
▁chantaje	-12.582
▁contagiosa	-12.582
▁criticism	-12.582
▁descifr	-12.582
▁lettuce	-12.582
▁picó	-12.582
▁precisa	-12.582
▁representative	-12.582
▁communication	-12.582
▁sequía	-12.582
▁automatically	-12.582
▁aéreo	-12.582
▁proposición	-12.582
▁quédense	-12.582
▁rebaja	-12.582
▁silenciosamente	-12.582
▁cuídate	-12.582
▁foul	-12.582
▁separó	-12.582
▁chofer	-12.582
▁compasión	-12.582
▁distraído	-12.582
▁espinacas	-12.582
▁folk	-12.582
▁quíte	-12.582
▁specific	-12.582
▁wreck	-12.582
▁cooperation	-12.582
▁estrés	-12.582
▁basis	-12.582
▁diplomatic	-12.582
▁estadio	-12.582
▁dominio	-12.582
▁doorbell	-12.582
▁psychiatrist	-12.582
▁reemplazar	-12.582
▁disputa	-12.582
▁emoción	-12.582
▁pecado	-12.582
▁rompiste	-12.582
irás	-12.582
▁britain	-12.582
▁reflection	-12.582
▁salmon	-12.582
rupción	-12.582
▁vestía	-12.582
▁calendario	-12.582
▁dispers	-12.582
▁mommy	-12.582
▁sorda	-12.582
▁calificaciones	-12.582
▁cafe	-12.582
▁exceso	-12.582
▁grueso	-12.582
▁haciéndolo	-12.582
▁sacudirse	-12.582
▁huelo	-12.582
▁proverbio	-12.582
▁categoría	-12.582
▁torpe	-12.582
▁meditating	-12.582
▁humid	-12.582
▁entendiera	-12.582
▁reflexionar	-12.582
▁dudé	-12.582
▁factories	-12.582
▁fiddle	-12.582
▁identificar	-12.582
▁sacudi	-12.582
▁bakery	-12.582
▁pesimista	-12.582
▁carcajada	-12.582
▁objective	-12.582
▁secure	-12.582
▁cartero	-12.582
▁unbearable	-12.582
▁nationality	-12.582
▁temblando	-12.582
▁díganme	-12.582
▁enseñanza	-12.582
▁disappointment	-12.582
▁skeptic	-12.582
▁villagers	-12.582
▁accountant	-12.582
▁handbag	-12.582
▁pudiéramos	-12.582
▁ojeada	-12.582
▁rainbow	-12.582
▁regañado	-12.582
▁luckily	-12.582
▁automáticamente	-12.582
▁gravedad	-12.5821
▁apresurado	-12.5821
▁hormigas	-12.5821
▁defectuoso	-12.5821
▁dentífrico	-12.5821
▁temperamento	-12.5821
▁function	-12.5821
▁aparcado	-12.5821
▁descuido	-12.5821
▁tasty	-12.5821
▁regalado	-12.5821
▁podrido	-12.5821
▁reflect	-12.5821
▁fulfill	-12.5821
▁espina	-12.5821
▁fatter	-12.5821
▁mostrame	-12.5821
▁pulsera	-12.5821
▁actuación	-12.5821
▁perdóneme	-12.5821
▁realistic	-12.5821
▁mankind	-12.5821
▁pronunciación	-12.5821
▁alpes	-12.5821
▁caramelo	-12.5821
▁destrozado	-12.5821
▁opuesto	-12.5821
▁desempleado	-12.5821
▁fíe	-12.5821
▁tóme	-12.5821
▁entregué	-12.5821
▁existir	-12.5821
▁humanity	-12.5821
▁venice	-12.5821
▁avísame	-12.5821
▁arduamente	-12.5821
▁regardless	-12.5821
▁alcoholic	-12.5822
▁spin	-12.5822
▁comic	-12.5822
▁vanished	-12.5822
▁gesto	-12.5822
▁airmail	-12.5822
▁passage	-12.5822
▁contaste	-12.5822
▁cocido	-12.5822
▁jardinero	-12.5822
▁caminé	-12.5822
▁gris	-12.5822
▁cesta	-12.5822
▁elija	-12.5822
▁centr	-12.5822
▁dimitir	-12.5822
▁deshonesto	-12.5822
▁maleducado	-12.5822
▁pospondr	-12.5822
▁ahogando	-12.5823
▁cockroaches	-12.5823
▁aventón	-12.5823
▁hotter	-12.5823
▁extraordinario	-12.5823
▁shortage	-12.5823
▁contratado	-12.5823
▁termino	-12.5823
▁crecido	-12.5823
▁bailarín	-12.5823
▁sociable	-12.5823
▁graduarse	-12.5823
▁minerales	-12.5823
▁salsa	-12.5823
▁fist	-12.5823
▁mataste	-12.5823
▁desayuné	-12.5823
▁alcance	-12.5823
▁vigilando	-12.5823
▁valley	-12.5823
▁desarrollo	-12.5823
▁especialidad	-12.5824
▁escondiste	-12.5824
bebes	-12.5824
▁global	-12.5824
▁compleja	-12.5824
▁innecesario	-12.5824
▁vestirse	-12.5824
▁educated	-12.5824
▁ligeramente	-12.5824
▁instantly	-12.5824
▁recovery	-12.5824
▁resfrío	-12.5825
▁entretenido	-12.5825
▁speechless	-12.5825
▁súbe	-12.5825
▁estupendamente	-12.5825
▁chile	-12.5825
employment	-12.5825
▁recordado	-12.5825
▁prepárate	-12.5825
▁lamentable	-12.5825
▁obligaron	-12.5825
▁snowman	-12.5825
▁damp	-12.5826
▁implicado	-12.5826
▁examinar	-12.5826
▁evitando	-12.5826
▁tender	-12.5827
▁worthless	-12.5827
sterna	-12.5827
▁reímos	-12.5827
▁indefenso	-12.5827
▁traduzca	-12.5827
▁misteriosa	-12.5827
▁childish	-12.5827
▁sickness	-12.5828
▁retirarse	-12.5828
▁untied	-12.5828
▁perdonará	-12.5828
▁barra	-12.5828
▁barrer	-12.5828
▁conquer	-12.5828
▁sailing	-12.5828
▁sucederá	-12.5829
▁anticipated	-12.5829
▁manejando	-12.5829
▁dispararon	-12.5829
▁fama	-12.5829
▁déjelo	-12.5829
▁tiny	-12.5829
▁interferir	-12.583
▁repetirlo	-12.583
▁nacionales	-12.583
▁conocerla	-12.583
▁commander	-12.583
▁wax	-12.5831
▁entraste	-12.5831
▁fade	-12.5831
▁decepción	-12.5831
▁conveniente	-12.5832
▁racional	-12.5832
▁dímelo	-12.5832
▁necesitáis	-12.5832
▁chopsticks	-12.5832
▁suelta	-12.5832
▁estribos	-12.5832
▁villancicos	-12.5832
▁secuestrado	-12.5833
▁agitó	-12.5833
▁trajiste	-12.5833
▁cantemos	-12.5833
▁perd	-12.5834
▁orilla	-12.5834
▁spying	-12.5835
010.	-12.5835
▁socio	-12.5835
▁prestada	-12.5835
▁presté	-12.5836
▁despedirse	-12.5836
▁liberal	-12.5837
▁lejano	-12.5838
▁arrestada	-12.5838
▁quemando	-12.5838
▁dna	-12.5838
▁competed	-12.5838
▁moriría	-12.5838
▁cansando	-12.5839
▁captured	-12.5839
▁dull	-12.5839
▁ripe	-12.5839
▁apunté	-12.5839
▁investiga	-12.5839
▁outcome	-12.5839
▁phrase	-12.5839
▁bandage	-12.584
▁triunfará	-12.584
▁atraviesa	-12.584
prendieron	-12.584
▁esconderse	-12.584
▁alley	-12.5841
▁capacidades	-12.5841
▁subimos	-12.5841
▁apretado	-12.5841
▁amigable	-12.5842
▁shaving	-12.5843
▁barked	-12.5843
▁preparé	-12.5844
▁witnesses	-12.5844
▁reírse	-12.5845
▁gardener	-12.5845
▁alps	-12.5845
▁reporter	-12.5846
▁leíste	-12.5846
▁sandía	-12.5846
cakes	-12.5847
▁packing	-12.5847
▁envío	-12.5848
gave	-12.5848
▁envíame	-12.5848
▁subieron	-12.5849
▁paseando	-12.5849
▁easter	-12.585
▁consideraría	-12.5851
▁amará	-12.5851
▁sello	-12.5851
▁débiles	-12.5852
▁viajero	-12.5852
▁mariscos	-12.5853
▁refugees	-12.5853
▁siembras	-12.5853
▁apoyes	-12.5853
▁fled	-12.5857
▁flipp	-12.5859
▁exponer	-12.586
▁mejorará	-12.586
▁sección	-12.586
▁cenando	-12.5862
▁conocés	-12.5863
▁permitiré	-12.5864
▁pony	-12.5864
cidimos	-12.5865
▁enfrente	-12.5865
▁cured	-12.5865
▁invenci	-12.5866
▁limpiado	-12.5867
▁callada	-12.5869
▁flexible	-12.5871
▁canceló	-12.5873
▁descubrirá	-12.5874
▁intentamos	-12.5874
▁inseguro	-12.5874
▁indios	-12.5874
▁muelas	-12.5874
▁hamburgers	-12.5874
▁freezes	-12.5874
▁disturbed	-12.5874
▁llamarle	-12.5875
▁visitantes	-12.5876
▁comparta	-12.5876
▁patas	-12.5877
▁fasten	-12.5878
▁increased	-12.5879
▁dais	-12.5882
▁ironed	-12.5883
▁lamentar	-12.5883
▁italiana	-12.5884
▁escucharon	-12.5886
▁bate	-12.5886
▁visitarle	-12.5887
▁completar	-12.5889
▁conocerlo	-12.5889
▁planeamos	-12.5889
▁sáca	-12.5891
▁terminarlo	-12.5891
▁salada	-12.5892
cendió	-12.5893
▁cruzado	-12.5894
▁boasts	-12.5896
▁stinks	-12.5896
▁owls	-12.5896
▁cucarachas	-12.5896
▁asians	-12.5896
▁cultivos	-12.5896
▁helados	-12.5897
▁travelers	-12.5899
▁planchar	-12.59
▁pensaría	-12.59
▁detente	-12.59
▁conducía	-12.59
▁irrelevante	-12.59
▁poorly	-12.59
▁creerlo	-12.5902
▁echarme	-12.5902
▁conocerle	-12.5903
▁toser	-12.5903
▁anchor	-12.5904
▁armado	-12.5904
vivieron	-12.5906
▁strongly	-12.5908
▁strangely	-12.5911
▁employed	-12.5917
▁cebollas	-12.5918
▁colleagues	-12.5918
▁pigeons	-12.5918
▁terrorists	-12.5918
▁stores	-12.5918
▁signs	-12.5919
▁examin	-12.5921
▁decirnos	-12.5922
▁cambiarme	-12.5924
fit	-12.5925
▁gaze	-12.5928
vendrás	-12.5933
tivos	-12.5934
▁extraordinaria	-12.5935
▁relaje	-12.5936
▁fumes	-12.5938
▁leaks	-12.5939
▁scraps	-12.5939
▁mueras	-12.594
▁prefieren	-12.5941
▁flota	-12.5941
▁cría	-12.5943
▁preguntaría	-12.5943
▁hum	-12.5944
▁calculat	-12.5945
▁doblar	-12.5948
▁delight	-12.5949
▁bathing	-12.5949
▁extinct	-12.595
▁rías	-12.595
▁alrededores	-12.595
▁puño	-12.595
estaría	-12.5952
▁plantar	-12.5953
▁descubra	-12.5954
▁footing	-12.5955
▁presione	-12.5958
▁anti	-12.596
▁lavarropas	-12.5961
▁cantes	-12.5962
▁haríamos	-12.5962
cula	-12.5964
▁encontrarla	-12.5975
▁islas	-12.5976
▁formed	-12.5976
▁seller	-12.5976
illos	-12.5979
▁culpado	-12.5979
▁codos	-12.5983
▁docenas	-12.5983
▁surf	-12.5983
▁christians	-12.5987
▁lidiar	-12.5988
▁reales	-12.599
▁spie	-12.5992
▁modernos	-12.5994
cera	-12.5996
▁creerá	-12.5997
▁abejas	-12.6005
▁pisos	-12.6006
▁dolores	-12.6009
▁salgan	-12.6014
▁peaceful	-12.6016
▁abiertas	-12.6023
▁argumento	-12.6023
▁atrac	-12.6024
▁noel	-12.6024
▁disfrutan	-12.6024
ack	-12.6027
▁comenzará	-12.6028
▁temen	-12.6033
sant	-12.6035
coming	-12.6037
▁relojes	-12.6043
▁cámaras	-12.6046
▁ping	-12.6046
▁slices	-12.6049
▁kites	-12.6049
alizado	-12.6052
▁union	-12.6053
▁hablaban	-12.6054
▁exceptions	-12.606
xed	-12.6065
irse	-12.6066
▁ingresar	-12.6066
▁estimate	-12.6069
▁importado	-12.607
adores	-12.6072
jaba	-12.6075
▁pila	-12.6084
▁smoked	-12.6087
▁debían	-12.6087
▁violenta	-12.6087
▁últimas	-12.6089
▁compensar	-12.6092
▁expres	-12.6092
▁límites	-12.6093
▁boils	-12.6093
▁ordena	-12.6095
▁decida	-12.6095
▁economics	-12.6095
▁mejoró	-12.6096
▁proven	-12.6101
▁ayudarlos	-12.6104
▁tierras	-12.6107
▁secos	-12.6111
ridad	-12.6113
▁characters	-12.6115
▁preguntaste	-12.6117
right	-12.6123
▁suspendi	-12.6129
▁adivine	-12.6143
▁cometas	-12.6143
▁aceptara	-12.6147
vida	-12.615
▁armar	-12.6151
▁cro	-12.6154
▁desp	-12.6154
sitting	-12.6154
▁brains	-12.6159
▁pesadillas	-12.6159
▁favorable	-12.6161
▁cantan	-12.6168
▁ants	-12.6171
▁probe	-12.6174
▁compraré	-12.6177
▁gal	-12.6192
▁diseñ	-12.6197
▁decepcione	-12.6201
▁pidas	-12.6201
▁guardias	-12.6204
▁eater	-12.6206
▁oscuras	-12.6207
▁amables	-12.6211
▁quedate	-12.6212
▁za	-12.6213
▁machines	-12.6213
▁dejaba	-12.6216
▁amado	-12.6217
▁extrañas	-12.6224
uta	-12.6235
▁librar	-12.6236
▁hatch	-12.6238
▁demandas	-12.6241
af	-12.6241
▁acostumbra	-12.6245
▁enterr	-12.6248
▁photographs	-12.6248
bieron	-12.6255
▁matará	-12.6262
mamente	-12.6263
▁consumi	-12.6268
▁regreses	-12.6269
▁cosechas	-12.6271
urged	-12.6271
▁imitar	-12.6272
▁percat	-12.6272
ana	-12.6274
▁falt	-12.6275
▁ji	-12.6283
▁tardar	-12.6284
▁obligar	-12.6285
▁pierdes	-12.6293
▁testigos	-12.6293
▁veían	-12.6296
▁estudian	-12.6309
▁envi	-12.6322
▁expertos	-12.6324
▁flo	-12.6325
▁comerse	-12.6325
▁recibier	-12.6333
▁manifestan	-12.6338
▁medidas	-12.6338
▁francesas	-12.6341
▁recorte	-12.6349
▁questioned	-12.6355
▁apariencias	-12.6361
▁impacientes	-12.6361
▁pato	-12.6361
▁mencionar	-12.6364
▁finja	-12.6377
▁maravillosas	-12.638
▁tests	-12.6399
▁confies	-12.6401
▁causas	-12.641
▁misa	-12.641
▁ro	-12.6413
nzaron	-12.6417
▁experts	-12.6427
▁lindos	-12.643
▁permití	-12.6431
▁desayunas	-12.6435
▁hicieran	-12.6453
hei	-12.6456
▁coc	-12.6456
▁vivirá	-12.646
▁cam	-12.6466
▁ceder	-12.6478
▁decor	-12.648
▁pisa	-12.6483
▁cubr	-12.649
▁sujeta	-12.6495
tomas	-12.6497
tales	-12.6505
▁tear	-12.6515
imiento	-12.6516
table	-12.6528
avo	-12.653
▁shoulders	-12.6531
▁quedaras	-12.6538
hu	-12.6547
▁sopla	-12.6547
uf	-12.6552
▁bajos	-12.6552
▁llenar	-12.6564
▁motivos	-12.6566
▁pil	-12.6568
▁vendrán	-12.6572
▁quitas	-12.6574
aped	-12.6576
▁host	-12.6588
▁encantar	-12.6589
▁artículos	-12.6612
▁dormitorios	-12.6612
▁choices	-12.6625
▁nu	-12.6626
▁costumbres	-12.6635
riendo	-12.6643
cubre	-12.6646
▁arriesgar	-12.6648
▁computadoras	-12.6652
▁chu	-12.6666
▁founded	-12.667
▁pagas	-12.6677
▁ganara	-12.6679
lder	-12.6682
▁enamorar	-12.6693
▁tag	-12.6694
▁miran	-12.6694
▁comerla	-12.6695
▁corresponde	-12.6696
▁invade	-12.6698
worthy	-12.6699
irte	-12.6709
▁dies	-12.6714
▁consola	-12.6714
▁peleas	-12.6715
▁presenta	-12.6715
▁seasons	-12.6727
▁fábricas	-12.6727
▁alza	-12.6736
cito	-12.6738
aremos	-12.6743
▁banne	-12.6748
▁renta	-12.6752
jera	-12.676
▁mari	-12.6764
▁preste	-12.6785
▁aconseja	-12.6786
▁favoritos	-12.679
▁hats	-12.6793
idos	-12.6794
▁lana	-12.6796
▁bord	-12.6805
▁award	-12.6822
▁descanse	-12.6826
▁corri	-12.6833
▁representa	-12.6836
▁gustos	-12.6844
▁cerra	-12.6845
cena	-12.6845
▁provoca	-12.6845
▁écha	-12.6858
gle	-12.687
ori	-12.6872
mina	-12.689
▁modos	-12.6894
▁limita	-12.6913
érgico	-12.6932
▁exercises	-12.6934
▁recost	-12.695
▁emp	-12.6957
▁speakers	-12.6958
▁entendi	-12.6961
▁cantara	-12.6976
▁raras	-12.6986
día	-12.6987
▁trans	-12.6995
▁enterar	-12.7
▁bells	-12.7004
▁agit	-12.701
ili	-12.7021
▁escal	-12.7022
▁burla	-12.7023
▁rings	-12.703
▁chin	-12.704
▁reun	-12.705
▁propus	-12.705
▁mondays	-12.7072
▁cuestion	-12.7073
▁escapa	-12.7088
▁captura	-12.7088
ap	-12.7093
▁banks	-12.7095
▁golpea	-12.7102
▁fij	-12.7104
cción	-12.7112
▁gi	-12.7114
volverá	-12.7118
▁equivoc	-12.7138
▁recuper	-12.7142
ivo	-12.7144
tiva	-12.7156
▁conocías	-12.7157
puso	-12.7167
▁leap	-12.717
▁portar	-12.717
▁envejec	-12.7174
tiles	-12.7196
▁choca	-12.7198
▁pelotas	-12.7205
▁pónga	-12.7209
▁lees	-12.7218
▁pospus	-12.722
ssured	-12.7232
▁retrasa	-12.7232
acción	-12.7235
fer	-12.7238
▁chatte	-12.7241
▁pose	-12.7248
nero	-12.7255
▁pun	-12.7261
jó	-12.7262
▁elegi	-12.7265
▁tratas	-12.7272
ddling	-12.7277
leading	-12.7282
pón	-12.7284
▁felicitar	-12.7288
gué	-12.7292
ence	-12.7292
▁sudar	-12.7293
light	-12.7296
▁reza	-12.731
dir	-12.7319
▁serie	-12.7323
▁telefone	-12.7329
▁consulte	-12.733
▁instrument	-12.7331
▁comience	-12.7339
▁órgano	-12.7339
▁conduzca	-12.7343
▁ninja	-12.7343
▁esclavo	-12.7344
▁acud	-12.7344
▁expire	-12.7344
▁channel	-12.7345
▁voto	-12.7345
▁films	-12.7346
▁lung	-12.7346
▁brace	-12.7346
▁pein	-12.7346
▁fruits	-12.7346
ario	-12.7348
▁muera	-12.7349
▁hueso	-12.7351
▁instrumento	-12.7352
▁wave	-12.7352
▁labio	-12.7353
▁herramienta	-12.7353
▁pulga	-12.7354
▁option	-12.7354
▁impuesto	-12.7355
▁galleta	-12.7355
▁guest	-12.7357
▁bone	-12.736
▁european	-12.736
▁bombero	-12.7362
ended	-12.7364
▁aparc	-12.7365
▁vegetariano	-12.7366
▁ahorr	-12.7371
▁freno	-12.7375
▁scrap	-12.7375
▁continu	-12.7383
▁pal	-12.7384
▁fume	-12.7384
▁mezcl	-12.7388
▁rescat	-12.7391
▁incompetent	-12.7394
▁conform	-12.7394
▁añadi	-12.7407
▁sentimiento	-12.7408
▁leak	-12.7408
▁cobrar	-12.741
iar	-12.7413
▁despreci	-12.7414
▁fund	-12.7414
sible	-12.7415
▁urban	-12.7418
irme	-12.7418
▁natives	-12.742
▁aparecer	-12.7427
▁pensá	-12.7427
fashioned	-12.743
creéis	-12.743
▁eleva	-12.7432
▁tribu	-12.7432
▁bars	-12.7433
room	-12.7434
¡	-12.7435
conocés	-12.7436
down	-12.7438
lloverá	-12.7438
ayuda	-12.7438
capable	-12.7439
viniste	-12.7439
américa	-12.7439
vosotros	-12.7439
judge	-12.7439
box	-12.7439
hiciste	-12.7439
together	-12.7439
great	-12.7439
sentimiento	-12.744
ged	-12.744
▁conflict	-12.7441
comer	-12.7442
▁sueña	-12.7442
▁enfadados	-12.7445
▁vuela	-12.7445
▁froze	-12.7446
ley	-12.7447
hold	-12.745
▁describir	-12.745
▁persuadi	-12.7452
▁envía	-12.7453
▁arrogant	-12.7454
▁comedia	-12.7458
struyó	-12.7459
▁consent	-12.7459
▁elect	-12.7461
aleja	-12.7462
torio	-12.7462
▁frighten	-12.7463
▁approach	-12.7464
solo	-12.7467
▁revise	-12.7468
▁wi	-12.7469
▁bolsas	-12.7469
▁release	-12.7471
▁cuénta	-12.7471
▁amuse	-12.7472
▁relie	-12.7474
▁scold	-12.7474
away	-12.7475
▁desconocid	-12.7476
▁sail	-12.7476
▁appeti	-12.7477
▁espacial	-12.7478
▁separar	-12.7478
▁mantel	-12.7479
▁obsolet	-12.748
▁inund	-12.7481
▁ronca	-12.7481
▁attentive	-12.7481
▁escoge	-12.7482
▁proper	-12.7482
brieron	-12.7482
▁pregúnta	-12.7483
▁guilt	-12.7483
▁murmur	-12.7483
▁imprudente	-12.7483
▁quinient	-12.7484
▁enséñ	-12.7485
▁identi	-12.7485
ollywood	-12.7485
▁scienti	-12.7485
▁aboli	-12.7486
icycle	-12.7486
▁inferior	-12.7486
▁ingenio	-12.7486
▁territor	-12.7486
▁mug	-12.7486
▁tahit	-12.7486
▁backward	-12.7486
▁carpintero	-12.7486
▁escéptic	-12.7486
▁incorr	-12.7486
▁sweden	-12.7486
▁técnico	-12.7486
oportuno	-12.7486
zhou	-12.7486
ófono	-12.7486
▁acantilado	-12.7486
▁acarici	-12.7486
▁alemana	-12.7486
▁ambición	-12.7486
▁amplia	-12.7486
▁approval	-12.7486
▁aprendizaje	-12.7486
▁astronomy	-12.7486
▁background	-12.7486
▁birome	-12.7486
▁blackmailed	-12.7486
▁básica	-12.7486
▁cachorrito	-12.7486
▁caigo	-12.7486
▁callejón	-12.7486
▁campesino	-12.7486
▁campeón	-12.7486
▁carretilla	-12.7486
▁catástrofe	-12.7486
▁cayera	-12.7486
▁celsius	-12.7486
▁centímetros	-12.7486
▁certeza	-12.7486
▁chicle	-12.7486
▁circo	-12.7486
▁cocodrilo	-12.7486
▁comandante	-12.7486
▁compromise	-12.7486
▁comunican	-12.7486
▁comunidad	-12.7486
▁conclude	-12.7486
▁conexión	-12.7486
▁consecutiv	-12.7486
▁construí	-12.7486
▁cricket	-12.7486
▁crocodile	-12.7486
▁cuenco	-12.7486
▁cuervo	-12.7486
▁cuñado	-12.7486
▁cólera	-12.7486
▁dañó	-12.7486
▁deceased	-12.7486
▁decírtelo	-12.7486
▁derribó	-12.7486
▁desacuerdo	-12.7486
▁descompuesto	-12.7486
▁desilusionado	-12.7486
▁desperdicie	-12.7486
▁despidió	-12.7486
▁destruir	-12.7486
▁detroit	-12.7486
▁devuelto	-12.7486
▁diabetic	-12.7486
▁diligent	-12.7486
▁disorder	-12.7486
▁distraiga	-12.7486
▁divierte	-12.7486
▁divulg	-12.7486
▁dreadful	-12.7486
▁dripping	-12.7486
▁duplicado	-12.7486
▁ebriedad	-12.7486
▁eclipse	-12.7486
▁eficaz	-12.7486
▁eficiente	-12.7486
▁eiffel	-12.7486
▁elogió	-12.7486
▁embrujada	-12.7486
▁enthusiasm	-12.7486
▁equivoqué	-12.7486
▁escúchame	-12.7486
▁estrecho	-12.7486
▁estresante	-12.7486
▁evacuate	-12.7486
▁eventualmente	-12.7486
▁exceed	-12.7486
▁expedition	-12.7486
▁eyebrows	-12.7486
▁ferrocarril	-12.7486
▁financieros	-12.7486
▁fingerprints	-12.7486
▁flavor	-12.7486
▁fortalece	-12.7486
▁giraffe	-12.7486
▁gramática	-12.7486
▁gratuita	-12.7486
▁greedy	-12.7486
▁gunshot	-12.7486
▁hairdresser	-12.7486
▁hakone	-12.7486
▁happily	-12.7486
▁helsinki	-12.7486
▁hesitation	-12.7486
▁hiciese	-12.7486
▁himalaya	-12.7486
▁honshu	-12.7486
▁hyogo	-12.7486
▁immature	-12.7486
▁immigrants	-12.7486
▁impolite	-12.7486
▁inaceptable	-12.7486
▁ingleses	-12.7486
▁inmaduro	-12.7486
▁inmigrantes	-12.7486
▁insensible	-12.7486
▁intrigued	-12.7486
▁invasores	-12.7486
▁janeiro	-12.7486
▁jirafa	-12.7486
▁jodiendo	-12.7486
▁jubiló	-12.7486
▁karaoke	-12.7486
▁kennedy	-12.7486
▁knives	-12.7486
▁liquid	-12.7486
▁llanto	-12.7486
▁medication	-12.7486
▁mercurio	-12.7486
▁mercury	-12.7486
▁microscope	-12.7486
▁montgomery	-12.7486
▁muerda	-12.7486
▁murciélago	-12.7486
▁mysteries	-12.7486
▁neblina	-12.7486
▁neutral	-12.7486
▁nitrógeno	-12.7486
▁niñera	-12.7486
▁ofendido	-12.7486
▁offensive	-12.7486
▁olfato	-12.7486
▁ordeña	-12.7486
▁orientación	-12.7486
▁otorg	-12.7486
▁pascua	-12.7486
▁patinaje	-12.7486
▁peasant	-12.7486
▁permanezca	-12.7486
▁perspectiva	-12.7486
▁pioneer	-12.7486
▁plague	-12.7486
▁plumber	-12.7486
▁poesía	-12.7486
▁polonia	-12.7486
▁potential	-12.7486
▁privacidad	-12.7486
▁proceed	-12.7486
▁profile	-12.7486
▁protección	-12.7486
▁quisquilloso	-12.7486
▁racial	-12.7486
▁rascacielo	-12.7486
▁recesión	-12.7486
▁reflejo	-12.7486
▁reggae	-12.7486
▁rehús	-12.7486
▁rubber	-12.7486
▁salvavidas	-12.7486
▁sample	-12.7486
▁señas	-12.7486
▁shiegal	-12.7486
▁shikoku	-12.7486
▁sigilosamente	-12.7486
▁singapore	-12.7486
▁singapur	-12.7486
▁skyscraper	-12.7486
▁sloppy	-12.7486
▁sobrepeso	-12.7486
▁solitaria	-12.7486
▁species	-12.7486
▁splendid	-12.7486
▁subsidi	-12.7486
▁suburbs	-12.7486
▁sulfamid	-12.7486
▁sunscreen	-12.7486
[...]
