<pad>	0
<s>	0
</s>	0
<unk>	0
<usr>	0
<sys>	0
▁	-1.31308
▁.	-2.68945
요	-4.05876
가	-4.57241
▁?	-4.7123
도	-4.71564
을	-4.75436
게	-4.91518
이	-5.04728
는	-5.13935
세요	-5.15243
지	-5.18584
고	-5.23096
은	-5.29964
▁거예요	-5.31633
를	-5.3496
네	-5.57823
보세요	-5.62223
죠	-5.63912
다	-5.65929
▁수	-5.6675
의	-5.71418
▁너무	-5.74296
▁것	-5.76713
서	-5.78362
한	-5.81012
▁좋아하는	-5.85845
해보세요	-5.87052
▁더	-5.90281
▁거	-5.91332
에	-5.94827
▁잘	-5.96613
▁사람	-5.99775
▁안	-6.01921
면	-6.05025
▁나	-6.11931
나	-6.17393
▁좋은	-6.1859
▁많이	-6.21669
만	-6.21844
▁사랑	-6.22137
데	-6.27205
히	-6.30624
길	-6.3068
는데	-6.32166
좀	-6.3338
어	-6.33463
봐요	-6.34878
니다	-6.36717
▁그	-6.38407
으면	-6.38802
▁같아요	-6.39491
▁!	-6.39935
랑	-6.4099
으로	-6.41868
▁있을	-6.42357
야	-6.42837
▁싶어	-6.45302
▁있어요	-6.45369
하고	-6.45454
▁사람이	-6.45839
▁이별	-6.48406
▁생각	-6.48618
▁마음	-6.48822
▁없어	-6.50123
로	-6.50791
▁내	-6.56027
▁썸	-6.5621
할	-6.58405
▁같아	-6.5873
▁때	-6.62208
▁있는	-6.69395
▁뭐	-6.7014
▁있	-6.73806
▁말	-6.74424
▁이제	-6.74681
▁마세요	-6.75956
습니	-6.77246
▁오늘	-6.77287
까	-6.79345
주세요	-6.80005
▁건	-6.80403
해	-6.8137
▁마음이	-6.81622
▁내가	-6.82668
일	-6.84708
이에요	-6.84837
하는	-6.84988
▁왜	-6.87729
하지	-6.88968
어요	-6.89285
▁어떻게	-6.90151
▁다른	-6.90593
▁연락	-6.92212
에서	-6.92852
▁남자친구	-6.93293
▁여자친구	-6.93307
▁싶다	-6.961
▁시간이	-6.97745
기	-6.98039
▁다시	-7.0138
거	-7.04326
▁돼	-7.04527
▁생각해	-7.0503
▁정말	-7.05587
▁있어	-7.05981
▁연애	-7.07928
▁또	-7.08167
거예요	-7.08884
▁않아	-7.09227
▁저	-7.0931
▁좋을	-7.09446
▁못	-7.11034
▁수도	-7.13018
해요	-7.13487
▁친구	-7.14665
▁아니	-7.14777
▁좋아	-7.17388
▁하	-7.19009
▁조금	-7.19317
▁자신	-7.19423
인데	-7.19617
합	-7.20621
▁같이	-7.20672
▁지금	-7.20747
니	-7.20975
▁그런	-7.21809
▁해	-7.23165
▁남자	-7.23526
▁걸	-7.24253
▁여자	-7.24456
▁될	-7.27302
▁당신	-7.2789
했어	-7.2857
▁자꾸	-7.29597
▁좋겠어	-7.30328
년	-7.30853
과	-7.31142
▁바	-7.31228
가봐요	-7.31568
지만	-7.31891
▁저도	-7.32199
에요	-7.32399
▁시간	-7.33008
든	-7.34077
▁없는	-7.34634
한테	-7.34706
인	-7.35608
▁진짜	-7.3582
하면	-7.359
▁혼자	-7.36052
▁바랄게요	-7.36315
▁먼저	-7.37728
▁힘든	-7.38762
▁제가	-7.40257
▁헤어진지	-7.40585
▁있을까	-7.41562
라	-7.4245
▁하는	-7.42899
▁될까	-7.42969
▁일이	-7.44471
▁하나	-7.45197
▁힘들	-7.45383
라고	-7.45961
▁아무	-7.46038
하게	-7.46337
▁일	-7.46557
해도	-7.46773
▁만나	-7.47131
▁사	-7.47336
▁계속	-7.47722
겠네	-7.48323
▁선물	-7.48668
할까	-7.48875
상	-7.49145
▁살	-7.49504
▁싶은	-7.4986
보다	-7.50972
▁좋아요	-7.51873
▁다	-7.51997
▁그럴	-7.52032
니까	-7.52765
▁힘들어	-7.53603
▁짝녀	-7.54868
랍	-7.54933
와	-7.5532
▁사랑이	-7.55914
▁오	-7.5626
▁먹고	-7.57184
▁좋겠	-7.5741
▁서로	-7.57652
봅니다	-7.57723
▁많은	-7.584
▁드세요	-7.58727
운	-7.59553
▁좋죠	-7.59817
수	-7.6051
에게	-7.6079
▁술	-7.6124
것	-7.61748
▁방법	-7.62617
▁짝사랑	-7.63352
던	-7.63586
▁전	-7.63827
겠어	-7.64721
▁할	-7.64768
대	-7.6491
씩	-7.65728
▁아직	-7.6587
▁모르겠어	-7.66275
나봐	-7.66349
▁결혼	-7.66896
▁참	-7.67684
▁눈	-7.67923
▁그래	-7.68418
▁되	-7.69633
▁몰라	-7.69968
▁이야기	-7.70119
▁애	-7.7079
▁,	-7.71048
래	-7.72192
▁말해보세요	-7.73028
▁그렇	-7.73061
▁있나	-7.73408
▁보고	-7.75408
▁충분	-7.75519
▁준비	-7.75754
입니다	-7.76474
▁데이트	-7.76697
▁무슨	-7.77443
▁하고	-7.77545
▁짝남이	-7.77828
구	-7.78269
질	-7.78399
▁어떤	-7.78894
▁그냥	-7.79014
▁들어	-7.80516
▁너	-7.80808
▁날	-7.81203
자	-7.81266
려	-7.8151
▁이렇게	-7.82131
▁사랑하는	-7.82599
건	-7.82978
▁힘드네	-7.8303
다고	-7.83125
▁안돼	-7.8365
▁대화	-7.84335
▁친구가	-7.84429
▁나만	-7.84645
▁싫어	-7.84874
▁중	-7.84928
까지	-7.84968
▁고민	-7.85157
▁없	-7.85173
예요	-7.85431
▁돈	-7.86178
▁하루	-7.86447
▁카톡	-7.87501
▁1	-7.87639
사람은	-7.87641
대로	-7.87838
▁타는	-7.88067
자고	-7.88083
▁줄	-7.881
진	-7.8817
▁머리	-7.88829
애	-7.89462
해서	-7.89508
▁않	-7.89558
▁함께	-7.89906
봐	-7.90093
▁이유	-7.90113
▁새로운	-7.90276
▁내일	-7.90498
▁2	-7.90522
걸	-7.90631
▁관심	-7.90975
▁오래	-7.91348
▁짝남	-7.91541
▁어떨까요	-7.91781
거라	-7.92252
리	-7.92717
▁후	-7.93232
심	-7.94357
▁공부	-7.94753
▁많아	-7.95
▁누구	-7.9567
▁헤어진	-7.9584
▁여행	-7.96369
▁아닌	-7.96578
차	-7.97118
▁감정	-7.97201
돼	-7.97248
▁고백	-7.98075
▁3	-7.98148
▁않는	-7.985
점	-7.98635
▁해야	-7.99223
하네	-7.99877
는게	-8.00208
함	-8.00786
걸까	-8.01017
▁생각이	-8.01085
긴	-8.01107
▁연락이	-8.01359
하	-8.01964
여	-8.02185
장	-8.02479
간	-8.02832
항	-8.02962
▁같	-8.03503
아	-8.03592
▁올	-8.03695
른	-8.0402
시	-8.04049
록	-8.04451
▁알	-8.04684
겠지	-8.05547
▁없네	-8.05977
▁이젠	-8.06019
하죠	-8.06272
▁마음에	-8.06597
인지	-8.06739
▁후회	-8.07246
▁말고	-8.0751
만큼	-8.08329
부터	-8.08438
▁도움	-8.08545
▁그녀	-8.08636
▁만날	-8.08818
▁우리	-8.09037
▁같은데	-8.09346
▁쉽지	-8.09441
▁나한테	-8.09543
사람을	-8.09815
했는데	-8.09997
▁가고	-8.10293
겠	-8.10446
▁제	-8.10536
▁좋겠다	-8.1055
▁스트레스	-8.10778
해볼까	-8.11166
▁따라	-8.11489
▁시작	-8.11696
▁열	-8.11755
▁이별을	-8.1196
▁기억	-8.12498
▁맘	-8.12694
▁바라요	-8.12723
볼까	-8.12794
▁않을	-8.12866
▁쉬	-8.13991
▁끝	-8.14106
▁꿈	-8.14161
▁기분	-8.14209
하는데	-8.14444
려고	-8.14663
▁할까	-8.14707
▁곳	-8.1492
자기	-8.15108
▁듯	-8.15131
주	-8.15195
▁않았	-8.15375
▁어때	-8.15822
들	-8.16588
▁운동	-8.16701
텐데	-8.17903
▁직접	-8.18511
▁얼	-8.18796
듯	-8.19186
▁어디	-8.19623
▁꼭	-8.19706
▁보	-8.19851
▁언제	-8.19898
▁만들어	-8.19987
▁아	-8.20274
▁벌	-8.20279
▁한달	-8.20309
천	-8.2035
▁남	-8.20369
▁되는	-8.20439
이라	-8.20728
▁전화	-8.20886
▁결국	-8.21044
▁좋을까	-8.21174
▁기대	-8.21409
야지	-8.21644
▁반	-8.22256
▁찾아	-8.23155
▁괜찮아요	-8.23509
▁걱정	-8.23687
▁타	-8.23926
▁때문	-8.24077
거나	-8.24651
▁변화	-8.24719
▁요즘	-8.24735
드	-8.25142
▁정리	-8.2569
▁볼	-8.26747
▁문제	-8.27768
방	-8.27997
하기	-8.28092
처럼	-8.28419
▁필요해	-8.2848
▁않은	-8.28507
▁말아	-8.28564
▁여자애	-8.28631
▁만큼	-8.29381
▁물어보	-8.29456
▁집	-8.29646
때	-8.29656
적인	-8.29853
▁좋아해	-8.30014
적	-8.30455
다면	-8.30524
▁있죠	-8.30876
▁맞는	-8.30998
했던	-8.31009
▁같은	-8.31024
대한	-8.31231
▁아직도	-8.32224
▁나는	-8.32484
▁마음의	-8.32553
날	-8.32702
음	-8.32785
▁고민이	-8.33
▁중요한	-8.33093
발	-8.33213
▁가는	-8.33305
줄	-8.33318
이야	-8.33462
임	-8.33718
기도	-8.33743
▁연락을	-8.33971
▁모르는	-8.34029
▁없다	-8.34397
▁큰	-8.3456
▁어제	-8.34601
▁비	-8.34738
냐	-8.34951
▁아파	-8.34954
달라고	-8.35538
▁집에	-8.35996
▁노래	-8.36536
▁나이	-8.36748
달	-8.36959
써	-8.36981
▁시간을	-8.37007
▁하지	-8.37108
▁믿어	-8.37179
개월	-8.3761
▁중요해	-8.37809
▁아니라	-8.3824
일까	-8.38671
▁완전	-8.38736
▁맛있	-8.38829
금	-8.38843
▁남자애	-8.38857
▁오늘도	-8.38982
된	-8.39085
▁가장	-8.39136
마다	-8.3919
제일	-8.39332
▁마지막	-8.39389
찍	-8.39392
져	-8.39704
▁인생	-8.39798
군요	-8.40125
면서	-8.40386
정	-8.40584
▁알아	-8.40659
▁늦	-8.40808
더	-8.40871
▁상처	-8.40931
▁현실	-8.40967
▁매일	-8.41169
▁커피	-8.41481
이네	-8.41728
▁갈	-8.41899
마세요	-8.42161
▁나쁜	-8.42286
▁이런	-8.42297
▁갑	-8.42338
줘	-8.42782
며	-8.43132
▁썸남	-8.4362
었어	-8.43745
▁미련	-8.4455
제	-8.44624
▁여친	-8.44819
▁가지	-8.44989
▁모든	-8.45444
▁살고	-8.45619
▁헤어짐	-8.45715
▁재회	-8.45923
▁얼마	-8.4651
▁딱	-8.46801
▁하면	-8.46848
▁만나는	-8.47069
▁결정	-8.47085
▁관계	-8.47115
하면서	-8.47605
▁사랑에	-8.47635
▁헤어지고	-8.47639
▁핸드폰	-8.4773
▁어느	-8.47731
▁용기	-8.47852
▁뭘	-8.48063
▁기다려	-8.48605
▁잘할	-8.48621
▁조심하	-8.48713
▁헤어졌	-8.49021
▁마	-8.49045
왔어	-8.49444
▁보내	-8.49579
▁알았는데	-8.50783
러	-8.51022
해야	-8.51045
했나봐	-8.51089
▁밥	-8.51858
▁회사	-8.52383
▁스스로	-8.5255
▁가끔	-8.52555
▁사진	-8.52604
▁덜	-8.52607
▁되나	-8.5269
▁뭘까	-8.52756
▁몸	-8.53006
▁아침	-8.53036
▁예의	-8.53169
▁모두	-8.53184
▁많	-8.53358
▁해도	-8.53368
▁필요	-8.53395
▁피	-8.53444
▁상대방	-8.53892
▁사람들이	-8.54083
이나	-8.54189
▁엄청	-8.54777
▁기분이	-8.54879
▁입	-8.55036
▁당신이	-8.55064
▁자주	-8.55091
▁어떡해	-8.55137
▁인연이	-8.55148
▁잘하는	-8.55259
▁남친	-8.55272
▁보는	-8.55304
▁놀	-8.55617
▁있었나	-8.55619
▁날씨	-8.55696
▁짝남한테	-8.5584
번	-8.5592
▁정리가	-8.56447
치	-8.56756
릴게요	-8.57261
▁엄마	-8.57614
▁확신	-8.57629
▁쉬운	-8.57678
▁사는	-8.57965
실	-8.58084
▁연락해	-8.58142
통	-8.58214
▁사람한테	-8.58484
▁점	-8.58862
▁진심	-8.59011
▁소개팅	-8.59199
▁사이	-8.59694
▁없을	-8.59792
▁많았	-8.60236
까요	-8.60332
다니	-8.60475
만에	-8.60484
▁있다면	-8.60486
▁의미	-8.60697
▁그만	-8.60827
▁5	-8.61163
▁처음	-8.61196
▁필요한	-8.61298
▁잠	-8.61302
▁싶네	-8.6145
▁앞에	-8.61741
있는	-8.61862
▁좋아할	-8.62017
▁난	-8.62024
▁눈물	-8.62198
▁물	-8.6221
▁한번	-8.62246
건가	-8.62952
인가	-8.62957
없이	-8.63126
신	-8.64022
▁몇	-8.644
▁후폭풍	-8.64705
▁추억	-8.64966
▁있겠	-8.65152
▁영화	-8.6538
▁선택	-8.65564
▁나와	-8.65788
▁연습	-8.66097
▁신경	-8.66349
▁빨리	-8.66429
▁손	-8.66548
▁정도	-8.66657
용	-8.67082
▁추천	-8.67097
▁아픈	-8.67203
▁가능	-8.67465
▁상대	-8.67703
▁막	-8.67962
▁잘하고	-8.68076
트	-8.68191
▁새	-8.68653
줬	-8.68692
▁같네	-8.68737
▁먹어야	-8.68945
▁싶	-8.69088
▁꽃	-8.69291
▁이별이	-8.69463
▁잔	-8.69569
▁와	-8.69623
▁받아	-8.69626
▁부모님	-8.69627
▁상황	-8.70128
▁언젠	-8.70191
▁느낌	-8.70328
▁6	-8.70329
▁만나고	-8.70566
▁모습	-8.70691
▁가져	-8.7089
▁날이	-8.70895
▁사람들	-8.71013
▁기다리	-8.714
내	-8.71554
▁만들	-8.71593
▁화	-8.71697
▁4	-8.71721
▁바람	-8.71792
▁힘이	-8.7213
▁귀	-8.72299
▁괜찮은	-8.72591
▁만난	-8.72725
졌어	-8.73007
▁넘	-8.73151
▁먹을	-8.73319
▁쓰	-8.73362
답	-8.73475
▁얼굴	-8.73483
▁예뻐	-8.73609
▁무	-8.7381
▁것이	-8.73885
▁생각나	-8.74242
▁자신이	-8.74254
▁감기	-8.74263
디	-8.74282
▁안해	-8.74446
▁잠시	-8.74592
▁신경쓰지	-8.74907
▁끝나	-8.75434
일째	-8.7545
갈	-8.75633
째	-8.75717
▁갖	-8.7588
▁거라	-8.75926
▁행복	-8.76044
▁정	-8.76148
지는	-8.76326
▁아는	-8.77275
▁아픔	-8.77586
▁말이	-8.77839
▁힘들겠지	-8.77887
▁힘내세요	-8.78038
▁이상	-8.78219
▁싶어요	-8.78283
▁번	-8.78606
▁사귀고	-8.78702
▁약	-8.78924
▁예쁘	-8.79078
▁다가가	-8.79159
▁왔어	-8.79457
소	-8.79523
▁했	-8.79639
▁힘	-8.79722
▁만남	-8.79741
▁소리	-8.79776
▁힘들지	-8.80734
▁슬픈	-8.80906
▁어려워	-8.80908
이랑	-8.80957
▁자	-8.8118
▁궁금해	-8.81339
▁남편이	-8.81467
▁직장	-8.81607
▁않죠	-8.81856
보면	-8.82244
▁여친이	-8.82559
▁되지	-8.82796
▁왔	-8.82981
▁힘들다	-8.83023
▁뭐라	-8.83123
▁먹	-8.83205
▁생겼	-8.83697
▁바쁘	-8.83815
▁주무	-8.84243
집	-8.84296
▁원하는	-8.84482
▁됐	-8.84583
▁좋	-8.85053
린	-8.85127
▁놀아	-8.85588
▁재미	-8.85779
을까	-8.85779
▁사귀는	-8.86042
▁알바	-8.86497
▁찾아보	-8.86768
▁호감	-8.86869
▁썸남이	-8.87001
▁학교	-8.87055
릴	-8.87113
▁힘들게	-8.87202
▁잘못	-8.87436
림	-8.87673
▁삶	-8.87687
▁자체	-8.87742
▁화장	-8.87764
보	-8.87929
▁연락하고	-8.88122
▁아닐까	-8.88271
▁위해	-8.88295
▁곧	-8.885
▁여유	-8.88537
▁말하	-8.88745
▁맞	-8.88755
▁일어나	-8.88778
▁두	-8.8881
▁봐	-8.8884
▁천	-8.88885
▁된	-8.89055
건지	-8.89215
▁괜찮	-8.89336
▁안되는	-8.89554
▁자기	-8.89556
▁있네	-8.89674
▁티	-8.90018
인가봐	-8.90038
▁말씀해	-8.90155
울	-8.90243
▁꿈에	-8.90444
▁실수	-8.90926
▁나중에	-8.91272
▁귀찮아	-8.91277
▁즐거	-8.91303
▁소중	-8.91337
▁다음에	-8.91409
중	-8.91434
▁물어보는	-8.91675
▁사랑했던	-8.91814
▁받고	-8.92003
▁나서	-8.92262
▁건강	-8.92327
야겠다	-8.92943
▁그분	-8.9312
▁차	-8.93295
▁않을까	-8.9331
▁쉽	-8.93843
란	-8.94062
▁뭔	-8.94392
▁떠나	-8.94598
다가	-8.94724
▁당	-8.94843
▁부	-8.94844
▁전에	-8.9496
▁비싸	-8.94965
▁보통	-8.95011
▁만났어	-8.95065
▁괜찮을까	-8.951
▁좋아하면	-8.9511
▁확실한	-8.95164
▁옷	-8.95507
▁사랑해	-8.95575
두	-8.95764
사	-8.95804
▁좋아하게	-8.9589
으	-8.95945
▁별로	-8.96055
▁받았	-8.96097
▁그녀를	-8.96115
이별한	-8.96159
전	-8.96234
▁했는데	-8.96314
선	-8.96321
▁모	-8.96404
▁마시	-8.96456
▁먹으면	-8.9669
▁싫다	-8.96811
같은	-8.96915
▁깨	-8.96919
▁중에	-8.97176
▁차이	-8.97322
▁설레	-8.97433
▁따뜻	-8.97466
▁표현	-8.97691
▁가기	-8.97866
▁행복해	-8.98113
▁게임	-8.98298
▁끝이	-8.98311
라면	-8.98515
▁우산	-8.98813
▁작은	-8.98881
▁짝녀한테	-8.99086
▁중요하지	-8.99103
▁못하는	-8.99308
▁보이	-8.9936
▁누	-8.99416
▁맛있는	-8.99596
▁모르	-8.99694
▁잠이	-8.99766
▁드는	-8.99979
▁말씀	-9.00013
▁위로	-9.00061
▁말해	-9.00235
단	-9.00291
▁연인	-9.00293
▁못하겠	-9.00439
▁챙겨	-9.00499
▁알게	-9.00752
▁다를	-9.00928
▁첫사랑	-9.01141
▁맨날	-9.01205
▁미리	-9.01219
스	-9.0125
▁느낌이	-9.01372
▁헤어지	-9.01484
▁편이	-9.02116
▁이별후	-9.024
▁종교	-9.02809
▁바쁜	-9.02813
▁기회	-9.02813
▁생길	-9.02882
가면	-9.02913
▁곳이	-9.02934
▁자신감	-9.02937
▁나가	-9.02978
▁이별의	-9.03043
▁끝났	-9.03074
▁됐어	-9.03164
▁친구한테	-9.03245
▁받을	-9.03273
감	-9.03275
되	-9.03377
비	-9.0339
▁시험	-9.03777
▁잠깐	-9.0378
▁하늘	-9.03788
▁많아요	-9.03883
▁가슴	-9.04023
▁글	-9.04112
▁되었	-9.04286
▁걸까	-9.04295
후	-9.04363
살	-9.04411
▁카페	-9.04527
▁연락해도	-9.04723
▁있지	-9.04871
▁정신	-9.04873
▁법	-9.05144
▁안녕	-9.05282
▁서로에	-9.05323
했	-9.05394
럽	-9.05427
▁좋다	-9.05436
▁목	-9.05617
▁뿐	-9.06011
▁코	-9.06038
▁만나지	-9.0656
▁전여친	-9.06728
▁책	-9.06891
난	-9.06942
덧	-9.06975
▁분위기	-9.06976
▁부러워	-9.06979
▁약속	-9.06982
▁멋진	-9.06984
▁세상	-9.07114
▁대해	-9.072
▁이해	-9.07345
그리고	-9.07359
▁동	-9.07407
▁알고	-9.07417
었는데	-9.07449
▁절대	-9.07473
▁받는	-9.07485
▁좋아하는데	-9.07602
▁도전	-9.0761
▁좋지	-9.07614
▁돈이	-9.07628
같습니	-9.08157
▁타고	-9.08325
▁확인해	-9.08348
▁보지	-9.08867
▁간다	-9.09117
동안	-9.09437
▁일을	-9.09531
▁생각할	-9.09576
▁사랑해주	-9.09643
▁생각만	-9.09665
▁거짓말	-9.09714
▁상관	-9.09941
▁남자들	-9.10125
▁자연스러	-9.10214
▁물어	-9.10595
▁남친이	-9.10947
마	-9.10967
▁드디어	-9.11323
▁자존감	-9.11323
▁괜	-9.11323
▁어쩌	-9.11326
▁알려줘	-9.11332
▁헷갈리	-9.11345
고생	-9.11457
▁받아들이는	-9.11599
▁아프네	-9.11688
▁죽을	-9.11736
▁행동	-9.11745
▁뭔지	-9.11999
오	-9.12013
▁되어	-9.12374
▁살아	-9.12877
▁아닌지	-9.1313
▁나을	-9.13147
▁오는	-9.13162
▁조	-9.13477
▁지켜	-9.13727
가슴이	-9.13839
▁나오	-9.14011
▁차단	-9.14018
낼	-9.1425
▁맛	-9.14263
▁위	-9.1427
▁좋았	-9.14416
▁방법이	-9.14428
▁줘	-9.14594
▁미련이	-9.1489
▁친구들이	-9.15617
▁아프	-9.15702
이라면	-9.15743
짝	-9.15753
▁월급	-9.15809
혀	-9.15838
▁진정	-9.1585
▁첫	-9.15858
엔	-9.15869
▁예쁜	-9.15869
▁자책하지	-9.15881
▁밤	-9.15897
▁떨려	-9.15905
▁않는다면	-9.15963
▁가야	-9.1601
▁인기	-9.16107
▁사랑한다	-9.16174
▁봄	-9.16238
▁그러면	-9.16421
▁잊혀지	-9.16463
▁세상에	-9.16767
▁보면	-9.16808
▁프사	-9.16856
▁들	-9.1694
▁적	-9.17123
▁내려	-9.172
되면	-9.17284
▁시기	-9.17332
▁주는	-9.17443
▁되네	-9.17563
▁순간	-9.17731
▁이제는	-9.1787
▁사랑하면	-9.17914
▁정리하는	-9.18322
▁잊는	-9.18525
▁사랑하고	-9.18575
오네	-9.18712
▁금	-9.18961
▁보여	-9.19099
▁능력이	-9.19114
▁시켜	-9.1912
크	-9.19162
▁필요하겠	-9.19206
들을	-9.19296
▁노력하	-9.193
▁사귀	-9.19395
▁힘들었	-9.19396
▁물어봐	-9.19422
▁배	-9.19739
▁둘	-9.19813
▁기다리는	-9.19913
▁노력	-9.19961
▁편하	-9.19982
▁환승	-9.2021
▁습관	-9.20327
같아	-9.20488
▁무서워	-9.20631
▁파	-9.20677
▁썸녀	-9.20691
하니까	-9.20698
들이	-9.20714
▁모르겠네	-9.20833
더라	-9.20876
▁축하해요	-9.20971
▁주변	-9.21193
▁사람에	-9.21614
▁못해	-9.21635
▁있었	-9.21871
▁두려워	-9.21985
▁괜찮을	-9.2203
▁먹는	-9.2221
우	-9.22276
▁사람이네	-9.22338
▁괜찮아	-9.22393
▁복	-9.22516
▁가세요	-9.22725
▁이상형	-9.23042
▁두달	-9.23072
▁신경쓰	-9.23218
식	-9.2351
▁성격이	-9.23546
놓고	-9.23586
▁말하는	-9.24166
짐	-9.24214
▁앞	-9.24218
▁세	-9.24354
▁어떡하	-9.2437
▁즐기	-9.24531
성	-9.24547
하려고	-9.24606
▁행복하	-9.2474
▁이별에	-9.24776
▁사랑할	-9.24994
▁문자	-9.25091
겨	-9.25213
▁꾸준	-9.25298
말	-9.25307
▁나랑	-9.25355
▁그러	-9.25427
▁고생	-9.25537
▁비밀	-9.25628
▁적당히	-9.25636
▁어려운	-9.25647
▁있잖아	-9.25675
▁생기	-9.2576
▁살펴보	-9.25763
▁최선	-9.25767
▁알면	-9.25891
하다	-9.25963
▁헤어졌어	-9.26034
▁편지	-9.26035
▁짜증나	-9.26071
▁이상한	-9.26145
▁믿	-9.26192
▁후회하지	-9.26204
▁잊을	-9.26299
더라고요	-9.26797
▁잊지	-9.26829
▁지났네	-9.26922
▁폰	-9.26951
▁로맨틱	-9.27241
▁되고	-9.27401
▁보러	-9.27613
▁잊고	-9.27791
▁해보는	-9.27826
▁전남친	-9.27834
▁주면	-9.27871
▁욕	-9.28014
▁보고싶어	-9.281
▁경우	-9.28422
▁먹어	-9.28702
▁쇼핑	-9.28751
▁안되	-9.28962
▁가족	-9.29156
▁생각하	-9.29494
▁상황이	-9.29864
밖에	-9.30018
▁주	-9.30247
셔	-9.30281
분	-9.30332
▁개	-9.30424
▁힘들겠어	-9.3048
▁알아보	-9.3063
▁별	-9.30656
▁상담	-9.30781
▁여러	-9.30805
증	-9.30828
돈	-9.30892
▁샀	-9.30894
땐	-9.30894
▁병원	-9.30896
▁오빠	-9.30896
▁질투	-9.30896
▁원래	-9.30935
▁제대로	-9.31048
▁쉬어	-9.31089
▁하는데	-9.3109
▁답장	-9.31126
▁저에게	-9.31414
▁중인	-9.31426
▁척	-9.31522
▁그대로	-9.31614
▁자신에게	-9.31718
▁탈	-9.31836
▁감정이	-9.31993
▁조언	-9.32043
▁준비하	-9.32629
▁행복한	-9.32632
▁옆에	-9.3273
▁이번	-9.3274
▁것보다	-9.32942
▁답	-9.32973
▁뿐이	-9.33017
▁눈에	-9.33075
리는	-9.33217
▁끝을	-9.3382
▁친구들	-9.33916
꺼	-9.33974
▁인연	-9.34147
▁매	-9.34151
▁부담	-9.34203
▁군대	-9.34206
▁싶지	-9.34433
▁그녀가	-9.3453
▁속이	-9.34766
▁사랑한	-9.34865
▁사람과	-9.34916
▁시작이	-9.35432
▁온	-9.35451
▁좋아하	-9.35463
▁피하	-9.35509
▁성공	-9.35673
▁확인	-9.36101
▁10	-9.36449
▁버텨	-9.36449
▁연예인	-9.36449
▁발표	-9.3645
▁담배	-9.36452
▁스킨십	-9.36478
▁어플	-9.36479
▁감사	-9.36481
▁용기내	-9.36491
▁싸	-9.36561
년째	-9.36575
▁안들어	-9.36616
▁눈치	-9.36687
▁없이	-9.36777
렸	-9.36804
▁후회할	-9.36879
▁받지	-9.37017
▁일상	-9.37038
▁있으니까	-9.37136
▁좋아하나	-9.37158
▁이야기해	-9.37199
▁확실	-9.37227
잠을	-9.37244
▁좋아할까	-9.37599
됐어	-9.37644
▁힘내	-9.37644
▁달라지는	-9.37647
▁현상	-9.37774
▁놓아주	-9.38067
말고	-9.3823
갑	-9.38267
▁건지	-9.38452
▁연락하는	-9.38473
원	-9.38538
보는	-9.38581
▁없나	-9.38674
▁주말	-9.38826
피	-9.38834
종	-9.39002
한다면	-9.39004
▁얘기	-9.39477
▁보냈	-9.39637
▁지내	-9.39858
조	-9.39929
▁감	-9.40078
▁짝사랑하는	-9.40079
▁사람에게	-9.40137
▁받	-9.40261
▁짧	-9.40288
▁정리하	-9.40629
▁미치겠	-9.40952
▁안하고	-9.40998
▁아이	-9.41164
▁아닐	-9.41331
▁인사	-9.41345
시군요	-9.41418
▁유	-9.41859
보고	-9.41904
런	-9.41975
칠	-9.41989
▁편	-9.42034
론	-9.42077
▁기다릴	-9.42312
케	-9.42323
됨	-9.42332
▁새벽	-9.42333
▁축하드려요	-9.42334
▁화장실	-9.42365
▁부담스럽	-9.4237
▁최고	-9.42411
▁한동안	-9.42443
▁발전	-9.42528
▁속	-9.42595
▁헤아리	-9.42689
▁의사	-9.42718
▁무엇이	-9.42731
어서	-9.42794
▁숨	-9.42851
시다	-9.43421
▁이사	-9.43572
▁장난	-9.43591
별	-9.43638
▁등	-9.43714
▁호감이	-9.43765
겠다	-9.43772
▁썸이	-9.4454
▁생각나네	-9.44555
할때	-9.44597
▁낫	-9.4468
▁바빠	-9.44898
이란	-9.44916
동	-9.4497
주는	-9.44978
▁강	-9.44983
▁언젠가	-9.45094
▁드시	-9.45123
▁끝내	-9.45148
▁생겼어	-9.45157
▁되기	-9.45196
워	-9.45374
저	-9.45391
▁응원	-9.45488
약	-9.45673
는건	-9.45676
▁못하고	-9.45825
될	-9.45851
▁연락하면	-9.46098
▁자연스	-9.46214
▁생각하는	-9.46335
▁웃	-9.46412
▁만나자	-9.47053
새	-9.47126
▁톡	-9.47172
▁영	-9.47342
▁하다보	-9.47409
▁해결	-9.47453
라는	-9.47574
▁다행	-9.47587
▁생일	-9.47781
먹기	-9.47857
준	-9.48123
당	-9.48203
해줬	-9.48316
▁다음	-9.48324
병	-9.48354
▁본인	-9.48375
▁커플	-9.48384
▁바보	-9.48484
메	-9.48484
끼	-9.48516
▁어쩔	-9.48517
▁다르겠지	-9.48537
박	-9.48557
▁7	-9.48582
▁SNS	-9.48582
▁그럼	-9.48582
▁다이어트	-9.48582
▁저녁	-9.48582
▁괴롭	-9.48582
▁목소리	-9.48584
▁버스	-9.48589
예	-9.4859
▁안경	-9.48595
▁지나갈	-9.48605
▁집안일	-9.48617
▁떠난	-9.4862
▁오랜만에	-9.48634
▁괜찮아질	-9.48637
▁상사	-9.48655
▁음식	-9.48669
▁우연	-9.48679
다는	-9.48711
▁궁금하네	-9.48728
하겠	-9.48815
▁이상해	-9.48844
▁좋을텐데	-9.48902
▁만나면	-9.49027
▁여자친구와	-9.49275
▁선	-9.49347
아요	-9.49373
▁적극적	-9.49392
▁살까	-9.49481
▁칭찬	-9.49601
▁무시하	-9.4962
▁따	-9.49631
▁재밌	-9.49744
▁필요할	-9.49875
▁졸	-9.4989
▁취미	-9.50065
▁한잔	-9.5012
▁극복	-9.50178
▁잊어버리	-9.50181
▁흘렀네	-9.5023
▁스타일	-9.50232
▁혼자만	-9.5034
▁우울	-9.50888
▁마련이	-9.50933
▁선택일	-9.50936
▁만남이	-9.51077
▁아는데	-9.51171
▁존재	-9.51203
나면	-9.51428
▁시원	-9.51527
▁소식이	-9.5153
▁긴	-9.51552
하시	-9.5177
▁행복할	-9.51812
▁부분	-9.51909
▁싫은	-9.52534
▁솔직하	-9.52649
▁마련	-9.52803
▁고민하	-9.52956
▁떨	-9.52996
▁추억이	-9.53053
▁차분	-9.53233
▁변하	-9.53354
쳐	-9.53403
▁상처받	-9.53527
▁주고	-9.53545
▁인생이	-9.53549
왔	-9.53598
▁그리워	-9.53849
▁위로해	-9.53921
재	-9.54052
▁썸타는	-9.54278
▁그렇지	-9.54445
▁우	-9.54494
됩니다	-9.54529
가봅니다	-9.54642
▁생각나는	-9.54649
▁이해해	-9.5476
▁귀엽	-9.54825
남	-9.54876
▁선물이	-9.54887
▁가능해	-9.54895
연	-9.54903
부	-9.54915
▁운명	-9.54955
▁이러	-9.55007
▁쓰레기	-9.55203
락	-9.55206
김	-9.55218
휴	-9.55231
▁따로	-9.55236
▁졸업	-9.55239
션	-9.55239
▁8	-9.55248
▁바뀔	-9.55248
듭	-9.55248
▁취업	-9.55249
▁외로워	-9.55255
▁연락처	-9.55266
▁분	-9.55276
▁미래	-9.5529
▁소화	-9.55299
▁사야	-9.55315
▁망	-9.5532
▁휴식	-9.5532
하겠어	-9.55366
▁만났는데	-9.55426
▁곳에	-9.55438
▁앞으로	-9.5548
▁지쳤나	-9.55551
한다	-9.5585
매	-9.55927
▁마셔	-9.55946
양	-9.56015
▁울어	-9.56033
될까	-9.5619
▁안나	-9.56255
▁않으면	-9.56417
초	-9.5642
▁그것	-9.56463
거리	-9.56476
▁없으면	-9.56701
▁상처를	-9.56801
있나봐	-9.56833
하던	-9.56858
이라는	-9.56861
▁붙잡고	-9.56956
▁없애	-9.57034
▁안와	-9.57065
▁꿈이	-9.57065
▁가능성	-9.57114
▁있고	-9.57485
▁않겠	-9.57646
▁올려	-9.57747
▁공부하	-9.5776
▁쉬는	-9.57775
때도	-9.57787
버리	-9.57805
글	-9.57876
▁당당하	-9.57966
▁미워	-9.58053
잡고	-9.58053
▁피해	-9.58331
못한	-9.58489
▁보기	-9.58521
▁좋겠지	-9.58584
었	-9.58624
▁괜찮아졌	-9.58645
▁뜻	-9.58726
▁추천해	-9.58894
▁여기	-9.58975
▁종	-9.5903
▁안됐	-9.5904
르	-9.59212
▁빌려	-9.59448
▁빼	-9.59457
▁커	-9.5948
▁없지	-9.59533
▁이거	-9.59565
▁지나	-9.59782
▁키우	-9.5993
▁여자들	-9.59968
▁대	-9.59994
으니까	-9.60108
▁심해	-9.60251
는거	-9.60263
주가	-9.60287
▁과정	-9.6048
▁키	-9.60518
▁다녀	-9.6083
전에	-9.60833
▁청소	-9.61083
하거나	-9.61466
갔어	-9.61581
▁최	-9.61631
왔네	-9.61657
▁연락하지	-9.61701
▁뒤	-9.61708
▁있을지	-9.61741
하셨	-9.61926
작	-9.62193
립	-9.62205
▁살펴	-9.62205
료	-9.62324
기만	-9.62324
▁불편	-9.62351
▁자격	-9.62381
께	-9.62382
▁무섭	-9.62391
▁기념일	-9.62391
▁면접	-9.62391
▁사귈	-9.62391
옴	-9.62391
▁마스크	-9.62391
▁추워	-9.62392
▁미친	-9.62396
▁느려	-9.62396
▁대학	-9.62399
▁무서운	-9.62401
▁관리	-9.62418
▁결과	-9.62432
▁누군가	-9.62436
▁치과	-9.62444
▁벗어나	-9.62462
▁해주세	-9.62475
▁친구들과	-9.62484
▁배우	-9.62496
▁꿨어	-9.62532
▁실감	-9.62559
▁멋있	-9.62575
▁걱정하지	-9.62846
▁시작하	-9.62866
▁쓰는	-9.62903
▁크게	-9.63006
했네	-9.63033
▁버리	-9.63078
▁생겼네	-9.63235
▁상관없	-9.63427
▁편한	-9.63485
▁꿈에서	-9.63505
▁걸어	-9.63573
▁못할	-9.63686
▁어디서	-9.63706
▁피곤해	-9.64037
▁쐬	-9.64056
▁장거리	-9.64101
▁동거	-9.64162
▁만드	-9.64171
▁사랑해서	-9.64181
달째	-9.64317
▁챙겨드	-9.6436
느라	-9.64392
▁공	-9.64429
▁도서관	-9.6452
▁있겠지	-9.64548
▁들어가	-9.64552
▁맞춰	-9.64585
▁똑같	-9.64646
한데	-9.64988
향	-9.65017
▁휴가	-9.65161
두고	-9.65381
▁안하는	-9.65391
▁달라	-9.65403
▁주지	-9.65504
▁사랑하	-9.65558
이라고	-9.65616
탈	-9.65654
법	-9.65694
▁하셨	-9.66009
▁않네	-9.66435
▁풀	-9.66472
허	-9.66668
하다가	-9.66683
▁후련하	-9.66774
▁결혼식	-9.66922
▁반대	-9.67112
▁소개	-9.67135
기는	-9.67435
▁단	-9.67463
이면	-9.67495
▁않으니	-9.67801
▁왔다	-9.67944
▁거절	-9.68072
▁양	-9.68094
▁적응	-9.68233
▁인정	-9.68289
▁만났	-9.68405
▁드	-9.68495
▁집에서	-9.68538
게요	-9.68663
▁어렵	-9.6868
년이	-9.68718
▁싸우	-9.68751
▁배려	-9.69167
▁적어	-9.6924
▁떠	-9.69334
▁편할	-9.69733
▁생각하지	-9.69873
팅	-9.7005
▁멍	-9.70079
▁계획	-9.70081
▁권태기	-9.70083
▁심호흡	-9.70083
▁춥	-9.70083
▁푹	-9.70083
▁안타깝	-9.70083
▁시계	-9.70085
▁선톡	-9.70087
▁분명	-9.7009
▁평소	-9.70093
▁인형	-9.70096
▁온전	-9.70103
▁찾아올	-9.70104
▁피부	-9.70108
▁은근	-9.7014
▁역시	-9.70158
▁관심사	-9.70164
▁떨어졌어	-9.70174
▁통보	-9.70199
▁그랬	-9.70218
하러	-9.70272
사람	-9.70365
▁필요하죠	-9.70377
▁학	-9.70395
▁그동안	-9.70402
▁어울리	-9.70512
▁말할	-9.70559
▁헤어졌는데	-9.70748
▁미	-9.70765
했다	-9.70816
▁결정이었을	-9.70888
▁처음에	-9.70891
▁보고싶다	-9.7095
▁저한테	-9.71018
봤어	-9.71021
▁친한	-9.71043
▁사귀기	-9.71187
▁이건	-9.71221
창	-9.71272
▁힘들겠	-9.71328
었던	-9.71457
▁잊	-9.71595
▁감정에	-9.71626
▁하루에	-9.71786
▁잤	-9.71796
▁방학이	-9.71812
▁놀고	-9.71859
▁자세	-9.71885
▁희망	-9.71928
▁미세먼지	-9.71954
▁원	-9.72005
▁듣고	-9.7204
버렸	-9.72075
▁까먹었	-9.72094
▁고통	-9.72172
움	-9.72346
었길	-9.72564
▁자신만	-9.72626
지내고	-9.72758
▁거울	-9.72835
▁답답해	-9.72921
해줘	-9.72962
▁이럴	-9.72967
▁살아야	-9.73192
▁증거	-9.73248
▁죽	-9.73403
▁해봐	-9.73529
▁내리	-9.73538
▁말해주	-9.73706
▁집중	-9.73879
지지	-9.74043
▁존중	-9.74049
▁이해해주	-9.74074
▁기운	-9.74118
▁차별	-9.7415
바	-9.74455
었나봐	-9.74606
▁꾸	-9.74702
▁않게	-9.74944
반	-9.74966
▁다르	-9.75062
터	-9.75098
해야할지	-9.75205
▁해줘	-9.75234
▁부모님이	-9.75353
▁학원	-9.75361
▁포기	-9.75369
▁놓	-9.75536
거같아	-9.75864
▁사이에	-9.75895
급	-9.75966
혼자	-9.76008
학	-9.76161
폰	-9.76217
▁초	-9.76367
▁부탁	-9.76421
웠	-9.76558
▁한달이	-9.76566
▁방학	-9.76579
하니	-9.76611
따라	-9.76685
2	-9.76729
산	-9.76755
▁듣	-9.76777
▁걷	-9.7686
▁친구로	-9.77056
배	-9.77155
▁모아	-9.77367
▁그사람	-9.77398
▁주변에	-9.77423
▁슬퍼	-9.77567
하나	-9.77622
▁관리하	-9.77773
▁돌	-9.77915
▁고백하는	-9.78089
▁중요하	-9.78114
결	-9.78182
▁사실	-9.78233
▁문득	-9.78241
▁오해	-9.78335
▁완벽	-9.78359
▁걔	-9.78417
곰	-9.78417
콩	-9.78417
▁드라마	-9.78417
넌	-9.78417
링	-9.78417
▁이겨낼	-9.78418
▁멈추	-9.78418
▁혹시	-9.78419
▁식	-9.78419
▁귀여워	-9.7842
▁스키	-9.78421
▁축구	-9.78422
▁불러	-9.78425
▁진급	-9.78427
▁다녀오	-9.7843
▁언제쯤	-9.78433
▁이겨내	-9.78433
▁부럽네	-9.78436
차근	-9.78445
▁이성으로	-9.78504
▁채워	-9.78553
▁같다	-9.78584
▁사소	-9.78585
▁끝난	-9.7859
▁막말	-9.78624
▁지난	-9.78741
▁지금처럼	-9.78764
▁인상	-9.78815
▁깊은	-9.78855
▁헤어지자고	-9.78873
▁지쳐	-9.78929
▁최고죠	-9.78952
▁똑같은	-9.79014
▁나올	-9.79015
▁회사에서	-9.79043
▁좋지만	-9.79052
▁잊어	-9.79099
▁맞았	-9.791
▁풀어	-9.79132
▁짧은	-9.79186
▁성공하	-9.79348
▁것들	-9.794
▁사귀어	-9.79624
▁돌아가	-9.79651
▁명	-9.79714
▁조심	-9.7983
▁행복하게	-9.79874
▁다행이	-9.79882
였어	-9.80055
▁안전	-9.80055
▁크리스마스	-9.80152
▁그러게	-9.80275
▁어린	-9.80389
▁시어머니	-9.80448
▁번호	-9.80459
▁말투	-9.80465
있	-9.80509
▁더워	-9.80814
▁과정이	-9.80833
▁헤어져야	-9.80842
▁드네	-9.81249
▁통해	-9.8125
▁순	-9.81357
▁걱정이	-9.81488
▁부족한	-9.81664
▁남기	-9.81984
▁성격	-9.82052
▁직접적	-9.82166
▁참아	-9.82333
▁일주일	-9.82337
▁흐르	-9.82433
▁남을	-9.82476
▁않나	-9.82488
인듯	-9.82614
▁준	-9.82641
냈어	-9.82801
드리	-9.82873
▁알려주	-9.82976
▁심하	-9.82985
먹고	-9.83023
▁표현해	-9.8312
▁싫	-9.83431
▁신	-9.83442
▁나왔	-9.83494
▁싸우면	-9.83547
▁조절	-9.83844
▁바꿔	-9.8385
▁타이밍이	-9.83995
▁남들	-9.84033
▁웃어	-9.84079
였	-9.8424
▁짝사랑이	-9.84243
▁기본	-9.8442
▁비교하	-9.84514
▁썸인	-9.84551
▁이혼	-9.84592
▁하기	-9.84769
▁개인	-9.84838
▁순간이	-9.84947
안	-9.85088
▁마무리	-9.85127
▁내는	-9.85134
▁마주치	-9.85261
형	-9.85349
시간	-9.85789
▁썼	-9.85967
▁바뀌	-9.86073
▁놀러	-9.8633
▁봄이	-9.86369
▁데려다	-9.8643
▁절	-9.8664
▁힘들었을	-9.86672
이별	-9.86724
▁독	-9.86839
타	-9.87055
▁짜증	-9.87156
▁없어서	-9.87238
플	-9.87313
▁원망	-9.87439
▁가능할	-9.87453
▁전부	-9.87462
숙	-9.87467
▁아름다	-9.87499
▁가벼	-9.87506
토	-9.87507
▁기분전환	-9.87508
▁설렘	-9.87508
▁페북	-9.87508
▁하루하루	-9.87508
▁냉장고	-9.87508
▁이별통보	-9.87508
▁평생	-9.87508
▁맥주	-9.87509
▁아빠	-9.87511
▁전환	-9.87517
▁각자	-9.87519
▁그리움	-9.8752
짓	-9.8752
▁멋져	-9.8752
▁골라	-9.87523
▁여전	-9.87532
▁잊혀질	-9.87535
▁달달	-9.87537
▁진실	-9.87546
▁잡아	-9.87553
▁떨어져	-9.87554
▁남겨	-9.87567
▁집들이	-9.87571
▁예민한	-9.87588
▁잘해줘	-9.8761
▁다르겠	-9.87647
▁상상	-9.87678
▁인간	-9.87704
▁걸릴	-9.87743
만나기로	-9.87778
▁차라	-9.87794
▁습관이에요	-9.87799
▁없겠지	-9.87811
▁외로	-9.87819
▁과거	-9.87849
일지	-9.8787
▁과일	-9.87886
▁새로	-9.88034
▁습관이	-9.88039
▁없겠네	-9.88049
▁잠수	-9.88083
▁고백해도	-9.88194
또	-9.88434
▁건가	-9.8848
하고싶어	-9.88582
▁복잡하겠	-9.88596
▁취	-9.8864
남자	-9.88698
▁사고	-9.88703
▁믿음이	-9.88738
▁둘이	-9.88962
▁밖에	-9.89048
위	-9.89119
해줄	-9.89146
▁중간	-9.8915
▁헤어지는	-9.89216
▁썸인가	-9.89223
▁의심	-9.89244
▁괜찮아지	-9.89256
코	-9.89281
티	-9.89444
속에서	-9.89531
▁살기	-9.89541
맛	-9.89645
▁전공	-9.89722
▁배우는	-9.8975
▁두번	-9.89755
▁바꾸	-9.89763
▁쉬어가	-9.8987
만한	-9.89975
▁있다는	-9.90146
▁많을	-9.90172
일이	-9.90232
▁찾아가	-9.90248
▁맞아	-9.90274
▁틀	-9.90528
▁생각하면	-9.9053
▁유지하	-9.90618
▁선택이	-9.90624
▁됐네	-9.90913
봤	-9.90991
▁야근	-9.91051
▁환승이별	-9.91113
각	-9.91243
▁입을	-9.91446
▁차리	-9.91629
▁건강에	-9.91773
▁비가	-9.91774
만으로	-9.91782
▁재미있	-9.91793
▁반지	-9.92047
셨나봐	-9.92161
▁맘에	-9.92319
▁부분이	-9.9235
▁무엇	-9.92493
▁자리	-9.93011
▁계	-9.93018
▁거겠	-9.93039
▁결심	-9.93293
▁철	-9.93422
치고	-9.93494
▁아니네	-9.9355
▁답답한	-9.93743
▁바라	-9.93751
▁몰랐	-9.9381
▁잊으	-9.93815
▁집착	-9.93898
▁타다	-9.94019
▁잡	-9.94203
▁긍정적	-9.94335
▁배워	-9.94591
▁생각에	-9.94901
▁표현이	-9.94932
▁선생님	-9.94988
▁높	-9.95053
▁중요	-9.9514
되는	-9.95175
▁분이	-9.95223
▁알려	-9.95399
▁써	-9.95473
▁답이	-9.95601
▁해주는	-9.9587
▁사람들에	-9.95978
체	-9.95992
▁클럽	-9.96129
▁이어	-9.96165
▁입어	-9.96212
▁연애에	-9.96214
▁몸에	-9.96264
할수	-9.9638
▁읽	-9.96414
▁있으니	-9.9659
▁음악	-9.96665
년간	-9.96685
▁재	-9.96779
▁맘이	-9.96798
▁몰	-9.96899
보여	-9.97113
▁지나갔	-9.97132
▁먹었	-9.97186
▁이별했	-9.97218
거겠	-9.97235
레	-9.97252
▁돌려	-9.97295
▁바다	-9.97327
▁거니	-9.9734
▁남았	-9.97362
▁판단	-9.97372
▁노력하는	-9.97454
량	-9.97458
곤	-9.9748
극	-9.97492
염	-9.97507
▁컨	-9.97507
▁공무원	-9.97508
▁벚꽃	-9.97508
▁보험	-9.97508
▁아무렇지	-9.97508
▁오랫	-9.97508
▁청첩장	-9.97508
▁파혼	-9.97508
▁휴대폰	-9.97508
닉	-9.97508
▁아까워	-9.97508
▁조급해	-9.97508
▁현재	-9.97508
▁달콤	-9.97508
▁억지로	-9.97508
▁외롭	-9.97509
▁목표	-9.9751
▁고마워	-9.97511
▁회식	-9.97511
▁배고파	-9.97512
▁앞머리	-9.97512
▁빠르	-9.97512
▁딸기	-9.97513
▁태어난	-9.97514
▁필요하다면	-9.97552
▁향수	-9.97557
▁행운	-9.97601
▁마실	-9.97607
▁헤어질	-9.97626
▁부자	-9.97643
▁허리	-9.97645
▁떨리	-9.97681
▁긴장	-9.97708
▁좋아해주는	-9.97729
▁곁에	-9.97731
▁슬프네	-9.97736
▁괜찮다	-9.97742
▁생각해보세	-9.97781
▁지칠	-9.97782
▁먼지	-9.97787
▁솔직한	-9.97813
▁많지	-9.97835
고싶어	-9.97846
친	-9.97892
▁되겠	-9.97942
▁들어와	-9.97978
▁챙겨주	-9.97995
▁주말에	-9.98001
▁갔	-9.98067
▁인정받	-9.98125
드려	-9.98173
▁아프다	-9.98318
▁회사에	-9.98359
▁잊기	-9.98577
▁맛난	-9.98593
▁받으면	-9.98636
친구	-9.98665
▁당연	-9.98672
▁생각했나봐	-9.98765
▁상대에	-9.98901
▁빌어	-9.98906
▁나을까	-9.99115
▁당황	-9.99278
▁신나	-9.99344
▁극복할	-9.99348
▁쓴	-9.99362
▁있었을	-9.99435
▁옷이	-9.99477
▁신고하	-9.99605
▁애들	-9.99624
▁기다리지	-9.99672
▁일이네	-9.99687
▁느끼는	-9.99697
▁잘해주	-9.99843
▁9	-9.99891
▁남사친이	-9.99909
▁이불	-9.99913
▁근처	-9.99935
▁sns	-9.99957
▁소비	-9.99985
▁선생님이	-10.0009
▁늘어	-10.0015
▁헤어지면	-10.002
▁남자랑	-10.0028
▁가사	-10.0032
싶어	-10.0032
▁접	-10.0052
본	-10.007
난다	-10.0081
▁깊	-10.0082
▁지우	-10.0082
▁했나	-10.0092
화	-10.0095
▁나에게	-10.0096
▁기본이	-10.0106
▁바라는	-10.0123
▁자신에	-10.0124
▁인정하	-10.0127
▁보니	-10.0139
▁빠지	-10.0151
▁갔다	-10.0152
▁답답하	-10.0153
문	-10.0156
복	-10.0156
올	-10.0163
▁시작해	-10.0163
▁생각하세	-10.0169
▁다리	-10.0177
▁걱정되겠	-10.0187
꾸	-10.0203
▁후에	-10.0221
▁사귄	-10.0228
▁재미있어	-10.0229
▁편해	-10.0232
어보세요	-10.0248
▁생	-10.0265
놈	-10.027
스러운	-10.0272
척	-10.0274
▁응원해	-10.0277
▁놀이	-10.0281
방법	-10.0293
▁어장	-10.0298
▁이름이	-10.0303
개	-10.0313
▁계절이	-10.0321
▁뿌	-10.033
번호	-10.0332
▁능력	-10.0334
밥	-10.0337
선이	-10.0343
르고	-10.0345
▁충전하	-10.035
▁지나가	-10.0352
▁주말이	-10.0352
야하나	-10.0358
▁담	-10.0367
▁기다리면	-10.0368
▁휴	-10.0392
도시	-10.0416
▁노래방	-10.0428
▁잘못이	-10.0438
했더	-10.0444
▁운동하	-10.0455
▁불행	-10.0489
▁출근	-10.0504
▁서운	-10.0515
하는거	-10.0516
▁재밌는	-10.0521
▁들었어	-10.053
추	-10.0534
▁싫어하는	-10.054
▁소원	-10.0545
▁그럴까	-10.0557
▁생각한	-10.0562
▁없나봐	-10.0568
▁좋아했	-10.0572
▁해야겠	-10.0583
▁놀러가	-10.0586
하나봐	-10.0587
▁축하	-10.0602
▁넘었	-10.0618
▁사과	-10.0619
▁삼	-10.0653
▁남편	-10.0664
녀	-10.067
▁될지	-10.0695
보내는	-10.0699
▁나온	-10.0709
▁소	-10.0717
정리를	-10.0718
할거	-10.0728
▁냄새	-10.0731
▁매력	-10.0732
▁취향	-10.0735
하지만	-10.0747
▁고백하	-10.0762
▁최악	-10.0777
▁흐	-10.0783
▁자유	-10.0793
▁끄	-10.0797
▁공감	-10.0821
▁피곤한	-10.0831
▁아프지	-10.0838
역	-10.084
빛	-10.0856
콜	-10.0858
▁딴	-10.0861
▁공통	-10.0861
릿	-10.0862
▁30	-10.0862
▁넓	-10.0862
▁땀	-10.0862
▁띄	-10.0862
▁빼빼로	-10.0862
▁싱숭생숭	-10.0862
▁콩깍지	-10.0862
껏	-10.0862
잼	-10.0862
팍	-10.0862
▁핑계	-10.0862
▁외모	-10.0862
▁염색	-10.0862
▁위로봇	-10.0862
▁심경	-10.0862
▁밝혀	-10.0862
▁깨끗	-10.0862
▁명절	-10.0862
▁일하는	-10.0863
▁생겨	-10.0863
▁노후	-10.0863
▁간접적	-10.0863
▁일어났	-10.0863
▁버릴	-10.0864
▁싸워	-10.0864
▁대출	-10.0864
▁언니	-10.0865
▁배울	-10.0866
▁꿀	-10.0866
▁맛집	-10.0866
▁이미	-10.0866
▁기원	-10.0867
▁다음부터	-10.0868
▁달라진	-10.0868
▁여름	-10.0869
▁인내	-10.0869
▁외로움	-10.0871
▁경쟁	-10.0873
▁고맙다	-10.0883
▁거기까지인	-10.0886
▁별거	-10.0886
▁빠를	-10.0896
▁도와줘	-10.0898
▁줄여	-10.0899
▁그녀에게	-10.0907
▁좋으면	-10.0908
▁지울	-10.0912
▁궁금	-10.0913
▁어렵네	-10.092
▁사람만	-10.0938
테니	-10.0942
▁밀당	-10.0948
은연	-10.0949
▁가능할까	-10.095
▁글로	-10.0955
▁결혼하면	-10.0955
▁썸타	-10.0957
▁말해볼까	-10.0964
▁사랑했나봐	-10.0966
▁허	-10.0973
▁거의	-10.0976
▁허전하	-10.0987
파	-10.0988
▁발	-10.0992
▁나가기	-10.1008
▁청	-10.1019
▁표현하는	-10.1024
▁떨어지	-10.1038
▁생긴	-10.1042
▁경험이	-10.1047
▁그대	-10.1048
▁간절	-10.1083
▁사람이니까	-10.1085
▁짐	-10.1087
▁끝났어	-10.1102
마시면	-10.1119
▁온다	-10.112
▁고쳐	-10.1123
▁흔적	-10.1125
▁잘못인	-10.1138
▁맞을	-10.1149
▁늦은	-10.1153
▁어찌	-10.1163
▁찾기	-10.1164
▁이해가	-10.1174
▁미안해	-10.1188
▁찍어	-10.1199
▁흔들리지	-10.1204
▁사정	-10.1209
▁안되겠지	-10.122
세	-10.1225
▁재미없	-10.1232
▁소심	-10.1242
▁가족이	-10.1244
▁나갈	-10.126
▁고치	-10.126
▁나보다	-10.126
▁여사친이	-10.1273
▁따뜻하	-10.1276
▁문	-10.1298
▁산책	-10.1317
▁교회	-10.1335
▁되었나	-10.134
줘야	-10.1344
▁올라	-10.1366
▁혼자서	-10.1374
▁존중해	-10.1409
가는	-10.1423
▁상대방에	-10.1429
년의	-10.1439
▁마셔야	-10.1444
개월이	-10.1447
로부터	-10.1448
▁길어	-10.1466
▁있기	-10.1471
▁이상형이	-10.1485
▁못해요	-10.1487
▁술이	-10.149
▁우울해	-10.1491
▁가져보	-10.15
▁버	-10.1509
▁찾아오	-10.1513
▁동물	-10.152
▁운명이	-10.1522
▁봤	-10.153
▁실망	-10.154
뿐	-10.1582
▁준비하는	-10.1624
나의	-10.1633
▁있다	-10.1634
군	-10.1637
하려	-10.1639
▁심리	-10.1646
학기	-10.1648
▁부족	-10.1677
▁지치	-10.1689
▁도와주	-10.1704
▁연	-10.1707
▁돌아오	-10.1718
나서	-10.172
▁지워	-10.1724
▁슬	-10.1731
을텐데	-10.1737
▁흔들리	-10.1744
지마	-10.1748
▁받은	-10.1748
했겠	-10.1759
▁후회하	-10.177
▁두고	-10.1779
줄게	-10.178
▁살면	-10.1787
▁상태	-10.1804
버려	-10.1806
봐야	-10.1817
우면	-10.1821
간다	-10.1828
▁세상이	-10.1832
▁생활	-10.184
▁과식	-10.1858
생활	-10.1859
▁불	-10.1861
▁기억이	-10.1874
청	-10.1874
불	-10.1879
▁지켜보	-10.188
▁노	-10.1891
명	-10.1891
대체	-10.1894
강	-10.1897
시간이	-10.1898
주지	-10.1906
▁놓아	-10.1909
▁나타	-10.1912
행	-10.1915
름	-10.1916
▁의지	-10.1919
판	-10.1925
▁착	-10.1928
▁어떨까	-10.1945
▁믿음	-10.195
▁끝일	-10.1959
▁않겠지	-10.1983
▁본	-10.1984
▁태도	-10.199
죄	-10.1994
▁평	-10.1995
이길	-10.2004
매일	-10.2006
▁넣	-10.2006
둘	-10.2013
독	-10.2015
몸	-10.2021
4	-10.2025
▁헤어지자	-10.2026
▁짓	-10.2033
▁달라지	-10.2037
능	-10.2042
▁혼	-10.2045
출	-10.205
▁싸웠	-10.2066
▁되려	-10.2071
▁팔	-10.2073
▁견뎌	-10.2077
▁여기까지	-10.2082
▁오랜	-10.2086
고싶다	-10.209
▁퇴근	-10.2091
▁속에	-10.2099
▁우선	-10.2101
언	-10.2103
님	-10.2104
▁씻	-10.2104
▁갚	-10.2108
궁	-10.2111
▁신혼	-10.2112
▁단단	-10.2112
▁땡	-10.2112
▁자괴감	-10.2112
▁느낄	-10.2112
▁다닐	-10.2112
▁삼겹살	-10.2112
▁신뢰	-10.2112
▁에너지	-10.2112
▁웬수	-10.2112
▁의미부여	-10.2112
▁충격	-10.2112
뻑	-10.2112
왤	-10.2112
킁	-10.2112
푼	-10.2112
▁악몽	-10.2112
▁잇몸	-10.2112
▁택배	-10.2112
▁맡	-10.2112
▁메모	-10.2112
▁우선순위	-10.2112
▁인턴	-10.2112
▁나아졌	-10.2112
▁업무	-10.2112
▁매너	-10.2112
▁특별	-10.2112
▁떠오르	-10.2112
▁통화	-10.2113
▁애교	-10.2113
카드	-10.2113
▁한숨	-10.2113
▁정신차리	-10.2113
해졌	-10.2113
테리	-10.2113
▁영화관	-10.2113
▁멀리	-10.2113
꼬박	-10.2113
▁보일러	-10.2113
교통	-10.2113
▁느껴져	-10.2113
▁붙여	-10.2114
▁사업	-10.2114
▁실내	-10.2114
▁여우	-10.2114
▁이기적인	-10.2115
▁성향	-10.2115
▁신중	-10.2116
▁천재	-10.2116
▁기준	-10.2117
▁이직	-10.2118
▁의욕	-10.2118
▁받아들이기	-10.2119
▁배우자	-10.2119
▁비난	-10.2121
참고	-10.2121
▁알아차	-10.2122
개월째	-10.2122
더라구	-10.2125
▁이용해	-10.2125
▁주식	-10.2125
▁찾는	-10.2126
▁잘못된	-10.2126
▁잊는다는	-10.213
▁들여	-10.213
▁가족들	-10.2132
▁움직이	-10.2135
▁길러	-10.2141
▁성공할	-10.2146
▁지갑	-10.2148
▁맞을까	-10.2148
▁속상해	-10.2149
▁버려	-10.2149
제가	-10.2151
▁두근거리겠	-10.2151
▁나쁘지	-10.2156
▁시선	-10.2157
▁끊겼	-10.2159
▁나아질	-10.216
▁차가워	-10.2161
▁누구에게	-10.2167
▁새해	-10.2171
▁영원	-10.2179
되겠	-10.2181
▁멋지	-10.2185
외	-10.2186
▁놓치	-10.219
▁친해지는	-10.2194
▁바라지	-10.2197
▁알기	-10.2201
▁참견	-10.2207
거려	-10.2208
취	-10.221
▁느껴지	-10.221
▁먹어보세요	-10.2217
할게	-10.2218
▁공부해야	-10.2219
▁쓰이	-10.2223
▁알다	-10.2224
받고	-10.2239
▁알았어	-10.2241
▁위해서	-10.2248
보고싶네	-10.2252
▁가능한	-10.2259
건데	-10.2266
분이	-10.2267
▁노는	-10.2274
▁지진	-10.2275
▁없었	-10.2276
▁결혼할	-10.2278
▁아기	-10.2287
▁대단하	-10.229
▁가야겠	-10.2298
▁산	-10.2309
지고	-10.2311
▁심한	-10.2315
▁거기까지였	-10.2315
했나	-10.2318
치기	-10.2323
▁속도	-10.233
지면	-10.2334
▁예민해	-10.2335
▁끝에	-10.2336
▁아닌가	-10.2363
▁아니니	-10.2365
났어	-10.237
▁다양하	-10.239
▁하는건	-10.2394
▁파도	-10.2405
▁무시하는	-10.2407
뿐이	-10.2414
▁운전	-10.242
▁센스	-10.2423
▁베터리	-10.2425
번호를	-10.2426
▁프로포즈	-10.2426
▁답답할	-10.2426
▁같지	-10.244
▁경	-10.2441
▁잡으	-10.2455
▁착한	-10.2456
▁물리적	-10.2465
▁놔	-10.2501
▁타이밍	-10.2503
▁없을까	-10.2507
▁사과하	-10.2515
수도	-10.254
▁위기	-10.254
드려요	-10.2546
해보고	-10.2549
▁먹으	-10.2556
해질	-10.2577
린다	-10.2591
아지	-10.2597
▁잊으려	-10.2603
물	-10.2605
▁신경쓰이	-10.2606
▁거면	-10.2608
▁아침이	-10.2614
▁성장	-10.2616
▁선배	-10.263
▁일에	-10.2643
▁생긴다	-10.2666
▁생일이	-10.2684
되네	-10.2704
▁시원하	-10.2708
함이	-10.2717
▁올해	-10.2735
▁행복해지	-10.2739
▁착각	-10.2742
력	-10.2743
▁신청	-10.2756
▁오늘이	-10.2763
▁잘해	-10.2764
▁어서	-10.2765
나게	-10.2769
▁취해	-10.2779
▁끝인	-10.2806
▁좋아하는거	-10.282
▁소문	-10.283
지네	-10.2836
잖아	-10.2858
하긴	-10.286
▁집중하	-10.2861
▁애매하	-10.2872
▁지내는	-10.2883
▁동생	-10.2893
▁받아보	-10.29
▁전남친이	-10.2908
▁보낼	-10.2915
▁놀러가고	-10.2946
▁찌	-10.2969
▁아플	-10.297
▁자격증	-10.2972
▁남은	-10.2973
▁귀찮	-10.2977
▁사람인가	-10.2982
▁다가가는	-10.3
▁직	-10.3013
▁집착하	-10.3017
▁터	-10.3123
말이네	-10.3136
▁안오	-10.3138
▁잘했	-10.3153
▁보여주	-10.3167
백	-10.3167
있을까	-10.3212
▁시키	-10.3222
▁많다	-10.3227
▁시작해보	-10.3231
▁당연하	-10.324
▁참는	-10.3253
해야할까	-10.3254
▁나눠보	-10.3269
▁전화가	-10.327
았는데	-10.3283
▁부담스러워하	-10.3286
리기	-10.3304
▁연락하	-10.3307
▁복잡한	-10.3322
▁후회해	-10.3322
▁죽고	-10.3343
있어	-10.3352
▁비슷	-10.3364
▁받아들	-10.3374
일만	-10.3379
▁뭐하는	-10.3389
▁헤어	-10.3396
▁좋아하지	-10.34
려나	-10.3413
▁해야할까	-10.342
▁깔끔	-10.3422
▁같아서	-10.3426
들어	-10.3434
바이	-10.3446
▁안부	-10.3466
▁장소	-10.3467
▁야경	-10.3471
▁지쳤	-10.3481
▁일부	-10.3489
겁	-10.3507
▁죄	-10.3508
그	-10.351
▁스트레칭	-10.3511
▁취직	-10.352
국	-10.3522
▁고백했	-10.3525
쯤	-10.3532
씨	-10.3533
납	-10.3533
▁널	-10.3535
▁찔	-10.3538
▁돌아	-10.3539
▁택시	-10.3539
즈	-10.354
왕	-10.354
▁A	-10.354
▁결혼적령기	-10.354
▁노트북	-10.354
▁동호회	-10.354
▁봉사활동	-10.354
▁비싼	-10.354
▁새출발	-10.354
▁셀카	-10.354
▁아름답	-10.354
▁여드름	-10.354
▁유효기간	-10.354
▁자존심	-10.354
▁쪼	-10.354
▁출퇴근	-10.354
▁트라우마	-10.354
꽤	-10.354
쩍	-10.354
▁마침표	-10.354
▁앉	-10.354
▁단둘이	-10.354
▁발렌타인데이	-10.354
▁강렬	-10.3541
▁두려움	-10.3541
▁고쳐쓰는	-10.3541
▁즐겁	-10.3541
▁사회생활	-10.3541
▁괴로워	-10.3541
▁기울여	-10.3541
▁제주도	-10.3541
▁흘려	-10.3541
▁회원	-10.3541
▁최근	-10.3541
▁데려가	-10.3541
▁성별	-10.3541
▁버티	-10.3541
▁증오	-10.3541
▁취미생활	-10.3541
▁표정	-10.3541
▁태어났	-10.3541
▁발목	-10.3542
▁아름다워	-10.3542
▁두셨	-10.3542
▁어필해	-10.3542
▁축복	-10.3542
▁맞추	-10.3542
▁부담스러운	-10.3542
▁제자리	-10.3542
▁문신	-10.3543
▁15	-10.3544
▁세워	-10.3544
▁안녕하세	-10.3545
▁깨달음	-10.3545
▁치료	-10.3546
▁공허함이	-10.3546
유증	-10.3549
▁깨닫	-10.3549
▁좋을지	-10.3549
▁도전해	-10.355
▁중국어	-10.3551
▁불안해	-10.3553
▁부드	-10.3553
▁집착해	-10.356
▁욕심	-10.3564
▁사라질	-10.3565
▁알아가	-10.3569
▁호의	-10.3571
▁변한	-10.3571
▁일들이	-10.3572
▁점심	-10.3574
▁건조	-10.3574
▁언제까지	-10.3577
▁먹었어	-10.3581
▁지나간	-10.3587
▁뒤에서	-10.3587
▁그저	-10.3588
▁포장	-10.3592
한거	-10.3592
▁언제든	-10.3601
▁떠났	-10.3601
▁변명	-10.3603
▁필요했을	-10.3605
▁표현하	-10.3615
▁포기하는	-10.3619
▁힘드시겠	-10.3621
진다	-10.3621
▁이어나가는	-10.3626
▁무시해	-10.3627
같네	-10.3629
▁행복해질	-10.3631
▁덜할	-10.3631
▁어려	-10.3634
▁결정할	-10.3636
▁영원한	-10.3642
▁좋아했는데	-10.3643
▁걸려	-10.3653
았어	-10.3656
일차	-10.3658
▁생각날	-10.3663
시나	-10.3666
▁나아지	-10.367
▁지금보다	-10.3679
무	-10.3685
▁중요한데	-10.3689
다리	-10.3689
아주	-10.369
▁스	-10.3693
▁웃으면	-10.3698
연애	-10.3698
▁가치	-10.3704
▁상의	-10.3709
▁애기	-10.3713
▁결혼해야	-10.3719
▁꼬	-10.372
키	-10.372
▁잡았	-10.3725
카	-10.3734
▁걸음	-10.3742
▁수다	-10.3746
▁나한테만	-10.3747
▁될거예요	-10.3748
찬	-10.3757
▁떨어	-10.3757
▁좋네	-10.3758
▁기간이	-10.3759
인가봅니다	-10.3763
▁그러는	-10.3763
▁전해	-10.3774
▁잊어야	-10.3789
▁정의	-10.3789
▁짧지	-10.3802
보이네	-10.3807
▁심어	-10.3809
▁노력해	-10.3817
▁받아야	-10.3823
▁가만	-10.3829
곳	-10.3834
▁늦어	-10.384
됐	-10.3844
▁쓰지	-10.385
▁좋아하시	-10.3869
▁모르겠	-10.3871
▁변하는	-10.3882
▁좋으시	-10.3883
▁자야	-10.3888
형이	-10.3889
▁베	-10.3898
▁말해줘	-10.3898
▁빠져	-10.3904
▁정류장	-10.3905
▁예감	-10.3908
▁미치	-10.3908
▁그럴만	-10.3909
있음	-10.3918
머	-10.3924
푸	-10.3926
버	-10.3927
▁가리	-10.3938
▁놓고	-10.3941
넘	-10.3946
하는지	-10.3946
▁삭제하는	-10.3952
설	-10.3953
▁헬스장에	-10.3962
채	-10.3962
관계	-10.3972
▁없어졌	-10.3979
3	-10.3979
슬	-10.3979
모습	-10.398
▁심장	-10.3983
하려는	-10.3984
▁연애하고	-10.3989
▁밤에	-10.4003
▁좋아한다	-10.4008
▁차분하	-10.4011
▁당신만	-10.4012
▁기간	-10.4012
목	-10.4013
깨	-10.402
먹	-10.4028
▁울	-10.403
▁여자와	-10.4032
양해	-10.4045
이야기	-10.4048
▁나아	-10.4048
▁마음인	-10.4062
있지	-10.4071
▁남자한테	-10.4071
친구가	-10.4074
▁돌리	-10.4087
▁얼굴이	-10.4094
▁들었	-10.4097
였나	-10.4109
▁결혼하	-10.411
▁충전	-10.4113
▁고장	-10.4117
▁못하	-10.4132
으려	-10.4139
▁여행가	-10.4166
한번	-10.4166
▁낫겠	-10.4213
▁당황했	-10.4221
▁찍었	-10.4232
▁힘드신가	-10.4251
▁축하해주	-10.4251
▁나가야	-10.4262
▁전화하는	-10.4265
▁때로	-10.4268
▁애매	-10.4271
▁고르	-10.4285
▁의외	-10.4294
▁진심이	-10.4295
는것	-10.4339
▁살아가	-10.4345
▁약이	-10.4348
▁보게	-10.4371
▁싸움	-10.4375
니가	-10.4378
▁가능하	-10.4384
리를	-10.441
▁인정해	-10.4433
▁일주일이	-10.4438
▁라면	-10.4464
▁웃는	-10.4466
▁힘든가	-10.4467
▁참지	-10.4468
▁만나보	-10.4475
▁되겠지	-10.4478
▁미련없	-10.4481
▁쓸	-10.4487
▁이해하	-10.45
▁절약	-10.4513
▁코스	-10.4524
▁있었어	-10.4527
▁피곤	-10.4527
▁끊	-10.453
▁용서	-10.4531
▁땅	-10.4534
▁패턴	-10.4544
이렇게	-10.4555
게임	-10.457
되어	-10.458
▁샤워	-10.4584
▁있어야	-10.4592
해주는	-10.4593
▁마음만	-10.4611
▁정리했	-10.4619
인거	-10.4622
▁붙잡	-10.463
▁자는	-10.4636
▁하지마	-10.4638
▁하고싶	-10.4666
▁여자들이	-10.4667
이래	-10.4688
▁잘해주는	-10.4693
▁별로라	-10.4695
▁나눠	-10.4697
▁잠수이별	-10.4699
▁헤어져	-10.4708
하는건	-10.4731
▁설	-10.4736
▁나온다	-10.4746
▁좋을거	-10.4749
▁푸	-10.4769
월	-10.4774
▁필요하	-10.4797
▁몇일	-10.4797
▁이성	-10.4809
드세요	-10.4821
▁확실하	-10.483
▁나네	-10.4832
▁사람인	-10.4855
▁떠보	-10.4856
▁못하면	-10.4857
▁보이네	-10.4863
▁단계	-10.4887
▁읽어	-10.4887
▁있음	-10.4895
밖	-10.4904
▁받아들여	-10.4916
▁까먹	-10.4921
▁삭제	-10.493
▁성적	-10.4936
▁용	-10.494
▁필	-10.4947
▁남이	-10.4975
▁가치관	-10.4978
▁보고싶	-10.498
▁삭제하	-10.5014
우니까	-10.5028
▁흘렀	-10.5035
일이네	-10.5042
▁이뤄	-10.5048
봅	-10.5053
거니	-10.5062
▁솔로	-10.5063
▁일년	-10.5067
▁흘러	-10.5073
기로	-10.5082
▁포	-10.5107
▁슬프	-10.511
하더	-10.5116
셨나	-10.5118
▁바르	-10.512
▁알았	-10.5121
이었	-10.5125
값	-10.5131
침이	-10.5142
▁짱	-10.5143
▁있으	-10.5143
관	-10.5153
둔	-10.5159
▁빠	-10.5162
▁부담스러워	-10.5169
▁이루어	-10.5183
▁젖	-10.5184
▁벗	-10.5185
련	-10.5188
▁그립	-10.5194
▁돌아올	-10.5197
말은	-10.5198
▁헷갈	-10.5198
▁기다렸	-10.52
스러워	-10.5203
정규직	-10.5204
▁물어보면	-10.5205
우는	-10.5207
뚝	-10.5207
▁메뉴	-10.5207
흥	-10.5207
▁애정표현	-10.5207
▁찜질방	-10.5207
▁가늠	-10.5207
▁기프트콘	-10.5207
▁낚시	-10.5207
▁뒷	-10.5207
▁무릎	-10.5207
▁베풀	-10.5207
▁보이스피싱	-10.5207
▁쉴	-10.5207
▁스터디	-10.5207
▁슬픔	-10.5207
▁쌩얼	-10.5207
▁아이스크림	-10.5207
▁애틋	-10.5207
▁어둠	-10.5207
▁어젯밤	-10.5207
▁이벤트	-10.5207
▁이뻐	-10.5207
▁잠재력	-10.5207
▁지겨워	-10.5207
▁체육대회	-10.5207
▁합격	-10.5207
▁헛	-10.5207
▁현금영수증	-10.5207
▁화이트데이	-10.5207
강습	-10.5207
욱	-10.5207
팸	-10.5207
▁득템	-10.5207
▁짜장면	-10.5207
▁첫인상	-10.5207
▁탈퇴	-10.5207
궈	-10.5207
햇	-10.5207
▁낭비	-10.5207
▁흥미	-10.5207
▁월요일	-10.5207
▁혼술	-10.5207
▁관련	-10.5207
▁추석	-10.5207
▁평온	-10.5207
▁누굴	-10.5207
▁반가워	-10.5207
▁마주쳐	-10.5207
▁신혼여행	-10.5207
▁스테	-10.5207
▁무거워	-10.5207
▁치유	-10.5207
▁안경테	-10.5208
▁로봇	-10.5208
▁실례	-10.5208
▁소개시켜	-10.5208
▁익숙해질	-10.5208
▁소유	-10.5208
▁단호	-10.5208
▁분노	-10.5208
▁교양	-10.5208
▁어떠	-10.5208
구경	-10.5208
▁외국인	-10.5208
▁일어날	-10.5208
▁분담	-10.5208
▁조카	-10.5209
▁어려울	-10.5209
▁모자라	-10.5209
▁시간표	-10.5209
▁추운	-10.5209
▁행복해보여	-10.521
▁걱정된다	-10.521
공원	-10.5211
▁빠른	-10.5211
▁의견	-10.5211
▁부부	-10.5211
▁나누	-10.5212
▁필름	-10.5212
▁이쁜	-10.5212
▁다가오	-10.5212
▁아님	-10.5213
▁달라져	-10.5213
▁자취	-10.5213
지긋	-10.5213
▁동감	-10.5214
▁드라이브	-10.5214
▁생리	-10.5214
▁노려	-10.5214
▁차갑	-10.5215
▁성공적	-10.5215
▁대우	-10.5215
▁정리될	-10.5215
▁조용	-10.5216
▁전역	-10.5216
▁공시	-10.5216
▁챙기	-10.5216
▁바꿀까	-10.5217
▁소주	-10.5217
▁이기적이	-10.5218
▁동성	-10.5218
▁전세	-10.5218
▁책임	-10.5219
▁장점	-10.5219
▁한강	-10.5219
▁꺼내	-10.522
▁정답	-10.5221
위치	-10.5221
▁뭐하냐	-10.5222
▁주제	-10.5222
▁불공평해	-10.5224
▁동안	-10.5224
맥이	-10.5226
▁더러워	-10.5227
▁보답	-10.5228
높이	-10.5229
▁일요일	-10.523
▁쳐다	-10.5231
▁높아	-10.5231
▁수영	-10.5232
▁대답	-10.5232
▁퇴근길	-10.5234
▁방식	-10.5235
▁끝날	-10.5236
▁달리	-10.5239
▁구멍이	-10.5239
▁같음	-10.5239
▁쓸데없	-10.524
▁금연	-10.524
질러	-10.524
▁익숙해지지	-10.5243
▁예전	-10.5243
▁참았어	-10.525
막힌	-10.525
▁먹었는데	-10.5251
▁바디	-10.5251
▁기술이	-10.5252
▁견디고	-10.5255
▁어색해	-10.5255
▁무리	-10.5255
▁돌려보	-10.5256
▁태어나	-10.5258
▁사귀면	-10.5265
▁지웠	-10.5266
▁계기	-10.5267
▁순간이었	-10.5272
▁멀어지	-10.5272
▁생각할수	-10.5278
▁티내	-10.5281
▁주말이네	-10.5285
▁야경이	-10.529
짐에	-10.5306
▁이용	-10.5307
▁썸일	-10.5307
▁간사하	-10.5316
▁마음이라	-10.5317
▁칭찬해주	-10.5319
▁남았나봐	-10.5321
▁크기	-10.5324
▁바지	-10.5326
▁살려	-10.5328
▁받아들이	-10.5332
▁남아	-10.5333
망했어	-10.5335
▁사수	-10.5336
▁식었	-10.5343
▁지하철에	-10.5347
복이	-10.5349
▁충전기	-10.5353
갈수	-10.5353
▁위험해	-10.5358
▁당신에게	-10.5359
▁궁금할	-10.5362
▁울적	-10.5366
▁잃어버	-10.5371
▁당연한	-10.5374
▁속은	-10.5376
▁무시	-10.5376
▁안되나	-10.5379
▁말해봐	-10.5385
▁카드	-10.5397
▁연락해보는	-10.5398
▁전기	-10.5401
▁자신과	-10.541
▁받기	-10.5413
▁맛있어요	-10.5429
▁때려	-10.5437
▁준비중	-10.5438
▁있대	-10.5438
▁사랑하기	-10.545
치는	-10.5452
▁술먹	-10.5452
▁결정이	-10.5454
나가는	-10.5455
▁가치관이	-10.546
▁멋	-10.5464
▁뻔	-10.5472
▁그만하고	-10.5475
▁잘해야	-10.5487
▁한거	-10.5492
였을	-10.5497
▁날이네	-10.5511
버는	-10.5513
▁들으면	-10.5517
▁그만두	-10.5518
▁표현해보	-10.552
받았	-10.5522
▁무기력	-10.5527
었네	-10.5527
▁노력해보	-10.5528
하고싶은	-10.5536
▁걸리겠	-10.5537
망	-10.5539
주고	-10.5542
▁애정	-10.5546
▁편하겠	-10.555
▁빠졌	-10.5552
▁초대	-10.5571
▁연애하는	-10.5571
시간에	-10.5574
들면	-10.5578
같이	-10.558
심해	-10.5586
▁놀까	-10.5588
하냐	-10.559
워질	-10.5592
▁있는거	-10.5605
▁차였	-10.5613
▁연휴	-10.5615
지기	-10.5625
▁해주면	-10.5635
▁반장	-10.5638
▁성형	-10.5641
▁차례	-10.5642
달이	-10.5642
▁기울이	-10.5645
당했	-10.5651
▁좋아한다는	-10.5656
▁재밌다	-10.5658
▁죽겠	-10.566
▁화가	-10.566
▁변	-10.5674
▁비슷한	-10.5675
▁화가나	-10.5675
리고	-10.5682
▁교	-10.5683
▁화나	-10.5684
의하	-10.5686
▁사랑받고	-10.5725
▁읽어보	-10.5736
▁행동이	-10.5743
▁궁금하	-10.5751
▁고기	-10.5755
▁힘드	-10.5762
왔다	-10.5771
▁반응	-10.5771
▁해주고	-10.5779
▁이해할	-10.578
▁끊는	-10.5783
▁듣기	-10.5795
▁인스타	-10.5797
▁되었네	-10.5807
▁극복하	-10.5828
▁몰랐어	-10.5839
▁사내	-10.585
▁사랑한다는	-10.5854
▁간단하	-10.5855
기적	-10.5867
▁하시	-10.588
▁가자	-10.5881
는지	-10.5884
▁보이는	-10.5893
▁받으	-10.5894
근	-10.5909
▁가려	-10.5911
▁해드	-10.5914
▁재밌겠	-10.5933
색	-10.5939
▁탔	-10.5942
▁바꿔야	-10.5948
▁첫사랑이	-10.5948
▁중입니다	-10.5958
▁소식	-10.5968
▁스타일이	-10.5969
받으	-10.5978
▁조건	-10.5983
▁실수한	-10.6008
▁아껴	-10.6008
▁향	-10.6016
망이	-10.6017
▁동생이	-10.602
▁처음이	-10.6023
칼로	-10.6044
▁분들	-10.6046
▁그때	-10.6056
이었나봐	-10.6057
▁지났	-10.6065
발이	-10.6076
▁풀렸	-10.6077
뒀	-10.6079
쪄	-10.6079
▁변해	-10.609
▁다가왔	-10.6102
▁못자	-10.6107
처리	-10.6109
데이트	-10.6133
▁그런가	-10.6133
▁정신없	-10.6137
여자	-10.614
▁사나	-10.6151
담	-10.6154
영상	-10.6155
▁정확하	-10.6172
▁이름	-10.6173
▁중고	-10.6182
▁아닌가봐	-10.6182
▁손해	-10.6186
▁크	-10.6188
▁덜어	-10.6217
▁투자	-10.6226
▁끝냈	-10.6228
되지	-10.6234
▁어장인	-10.6238
▁맞나	-10.6252
▁마음에서	-10.626
없는	-10.627
▁느껴	-10.6279
어머	-10.6282
▁혼자인	-10.6282
특	-10.6287
느냐	-10.6305
회	-10.6306
▁그리운	-10.6316
온다	-10.6316
기를	-10.6316
▁아니라는	-10.6323
참	-10.6327
▁큰일	-10.6341
그래	-10.6353
분들	-10.6353
▁돌아가고	-10.636
클	-10.6362
조건	-10.6368
잔	-10.6374
▁왔나	-10.6376
탔	-10.6377
놓	-10.6381
▁있으신가	-10.6382
순	-10.6391
▁늘	-10.6399
▁맛있을	-10.6404
나는	-10.6406
선배	-10.6406
▁짠	-10.6411
▁쓰면	-10.6412
오래	-10.6415
준비	-10.642
▁어디가	-10.6427
놔	-10.6429
건강에	-10.6432
▁말아야	-10.645
욕	-10.6453
▁육아	-10.6456
▁무너	-10.6465
▁하던	-10.6469
조심하	-10.6471
5	-10.6472
▁필요한가봐	-10.6475
공	-10.6494
옷	-10.6503
셨	-10.6505
▁가능하다	-10.6517
▁사랑하는지	-10.6535
▁살다	-10.655
이겠	-10.6568
▁업	-10.6581
▁경험	-10.6585
▁좋으	-10.6585
▁왔나봐	-10.6613
부지	-10.6632
▁공부할	-10.6637
▁점이	-10.6651
이별이란	-10.6653
▁아닌거	-10.6664
▁사귀자	-10.6671
▁믿으	-10.6674
▁연락했	-10.6675
확	-10.6685
▁함께할	-10.6695
▁드릴	-10.6703
하겠네	-10.6708
하자	-10.6738
▁참다	-10.6741
중입니다	-10.6741
▁힘든거	-10.6763
▁술마시	-10.678
▁거지	-10.6789
▁마셨	-10.6791
▁반복	-10.6835
▁거기까지	-10.6838
▁연애하면	-10.6839
▁선택할	-10.6856
먹지	-10.6862
▁간절하	-10.6864
▁주기	-10.6866
셨어	-10.6866
▁개강이	-10.6886
▁얻	-10.6888
리지	-10.6926
▁않았을	-10.693
▁살거	-10.6945
▁생겼을	-10.6953
▁외	-10.6954
▁맘같	-10.6988
▁보내주	-10.6995
친구와	-10.7046
▁들으	-10.705
▁만족	-10.7073
▁보일	-10.7074
▁헤아	-10.7081
지우	-10.7095
▁나나	-10.7095
운을	-10.7104
▁도네	-10.7109
▁심심	-10.711
시면	-10.7124
▁흔	-10.7127
▁만나러	-10.7129
▁유학	-10.713
야할	-10.7135
▁표시	-10.7137
▁견디	-10.714
▁작아	-10.7143
▁이상하	-10.7145
▁낮	-10.7151
▁결	-10.7152
▁깎	-10.7153
▁화내	-10.7159
▁요리	-10.7161
▁닮	-10.7172
▁위험	-10.7176
▁점심시간	-10.7179
찰	-10.7181
▁침대	-10.7182
▁호	-10.7184
석	-10.7187
랬	-10.7189
투	-10.7191
▁들리	-10.7192
▁어떨	-10.7194
▁챙	-10.7195
▁쓸데	-10.7196
스럽	-10.7196
례	-10.7196
▁드라이	-10.7199
탕	-10.72
▁바꿀	-10.7201
▁회복	-10.7201
▁열어	-10.7201
폭	-10.7202
00	-10.7202
▁녹	-10.7203
▁맨	-10.7205
▁한다	-10.7205
념	-10.7205
력이	-10.7206
롱	-10.7207
S	-10.7207
힐	-10.7207
▁20	-10.7207
▁가볍	-10.7207
▁금수저	-10.7207
▁놀이동산	-10.7207
▁눈썹	-10.7207
▁당분간	-10.7207
▁뒷담화	-10.7207
▁랜선	-10.7207
▁리폼	-10.7207
▁머리카락	-10.7207
▁모쏠	-10.7207
▁부딪혔	-10.7207
▁빚	-10.7207
▁서툴러	-10.7207
▁설렜	-10.7207
▁섬유유연제	-10.7207
▁셀프	-10.7207
▁셀프웨딩	-10.7207
▁스타트업	-10.7207
▁아팠	-10.7207
▁왠	-10.7207
▁유부남	-10.7207
▁축의금	-10.7207
▁층간소음	-10.7207
▁컴퓨터	-10.7207
▁탓	-10.7207
▁특징	-10.7207
▁팀	-10.7207
▁프라이버시	-10.7207
▁한켠	-10.7207
▁형편	-10.7207
▁흑역사	-10.7207
댈	-10.7207
딩	-10.7207
릅	-10.7207
바퀴	-10.7207
벅	-10.7207
쎄	-10.7207
쫌	-10.7207
찐	-10.7207
츠	-10.7207
툰	-10.7207
▁배터리	-10.7207
▁삐	-10.7207
▁염탐하	-10.7207
쌈	-10.7207
▁몸무게	-10.7207
▁무관심	-10.7207
긁	-10.7207
▁비하하지	-10.7207
▁호칭	-10.7207
▁씁쓸	-10.7207
▁무의식	-10.7207
▁편의점	-10.7207
센터	-10.7207
▁배고프	-10.7207
▁갑작스럽	-10.7207
▁농담	-10.7207
▁시골	-10.7208
▁와닿	-10.7208
▁늦잠	-10.7208
▁격려	-10.7208
▁명품	-10.7208
▁맞춤법	-10.7208
▁첫눈	-10.7208
▁구속	-10.7208
▁감싸	-10.7208
▁그리울	-10.7208
▁크시겠	-10.7208
▁개념	-10.7208
▁기다림	-10.7208
▁끓여	-10.7208
▁화장품	-10.7208
▁연락두절	-10.7208
▁서류에서	-10.7208
▁찾아온	-10.7209
▁방문	-10.7209
▁마주쳤	-10.7209
▁택시비	-10.7209
▁인공	-10.7209
▁등산	-10.7209
▁무너져	-10.721
활용	-10.721
▁치매	-10.721
▁변덕스럽	-10.721
▁졸업식	-10.721
▁간식	-10.7211
▁한계	-10.7211
▁고마운	-10.7211
▁찌질한	-10.7211
▁빨래	-10.7212
▁이틀	-10.7212
▁아프겠	-10.7212
▁갚아	-10.7213
▁흘리	-10.7213
▁짜증날	-10.7213
▁사탕	-10.7214
▁줄어들	-10.7215
▁좋더라	-10.7216
▁남자분들	-10.7216
▁부담스러워할까	-10.7216
▁어리게	-10.7216
▁들어올	-10.7216
▁혼내	-10.7216
▁말해보는	-10.7217
▁군인	-10.7217
▁후배	-10.7218
▁다정한	-10.7218
▁사생활	-10.7219
▁통장	-10.7219
▁반갑	-10.7219
으신가	-10.7219
년연애	-10.7219
▁허전한	-10.7219
▁한국	-10.722
▁쌓인	-10.722
▁세월	-10.722
▁정신적	-10.7221
▁없으니까	-10.7222
▁못참고	-10.7222
▁어색한	-10.7222
▁양말	-10.7223
플라	-10.7223
▁끝낼	-10.7223
▁신경써	-10.7227
▁귀여	-10.7227
▁아마	-10.7228
뽑기	-10.7228
▁수업	-10.7228
▁망상	-10.7229
▁친해질	-10.723
▁은행	-10.7231
▁포근	-10.7232
쟁이	-10.7232
▁그분에	-10.7232
▁아무말	-10.7235
▁의미일까	-10.7236
▁점심시간에	-10.7236
▁팔아	-10.7237
▁매력이	-10.7242
▁미워하지	-10.7244
▁들려	-10.7245
▁안좋은	-10.7246
▁좋대	-10.7246
▁목적	-10.725
▁때문일	-10.7255
▁치워	-10.7257
▁사라	-10.7261
▁사겨도	-10.7263
으니	-10.7264
▁견뎌내	-10.7265
▁걸린	-10.7266
▁헤어지기	-10.7266
▁뒤에	-10.7267
▁다르지	-10.7268
▁관리해	-10.7277
코인	-10.7279
▁다짐	-10.7281
없어	-10.7282
▁어른	-10.7285
싶다	-10.7285
여행	-10.7287
▁지낼	-10.7287
▁똑똑해	-10.7289
▁자다가	-10.729
▁갑작스러	-10.7296
▁가능하면	-10.7297
▁어울릴	-10.7299
▁시작하기	-10.7302
▁슬프게	-10.7305
▁반년	-10.7315
▁달려있	-10.7316
▁심심해	-10.7323
▁끄는	-10.733
▁받아들여야	-10.7333
▁후회할까	-10.734
▁고백할	-10.7344
▁되는거	-10.7346
▁확인하는	-10.7346
▁구분	-10.7347
▁연애하는데	-10.7353
했을까	-10.736
▁그렇겠	-10.7362
▁무덤덤해지	-10.7363
▁향기	-10.7366
▁끝인가	-10.7367
▁가스	-10.7371
▁흘러가	-10.7374
▁달라질	-10.7375
▁다되가	-10.7385
▁준비할	-10.7387
▁고백할까	-10.7389
▁보자	-10.7391
▁해줄	-10.7395
▁귀찮은	-10.74
▁알지	-10.7407
감각	-10.7413
▁내려놓	-10.7414
야할까	-10.7423
▁여자에게	-10.7423
▁당한	-10.743
▁기억해	-10.7441
▁가까	-10.7452
▁연락할	-10.7454
▁이러는	-10.7464
▁놀랐겠	-10.7466
▁이어주	-10.747
▁아니었을	-10.7475
▁해보려	-10.7478
▁많았나	-10.7483
▁나타나	-10.7484
▁남길	-10.7489
▁질리	-10.7504
▁높겠	-10.7515
▁그걸	-10.7519
▁우리집	-10.7525
▁해봤	-10.7529
▁편안하	-10.7535
▁편하고	-10.754
▁바뀌어	-10.7549
▁한순간	-10.7554
▁내일이	-10.7555
▁복잡한가	-10.7564
▁사랑하나	-10.7568
▁멀었	-10.7572
들까	-10.7596
못했던	-10.7599
▁남는	-10.7603
음이	-10.7612
▁이것	-10.7612
▁학교에	-10.7613
▁망가	-10.7614
할래	-10.7615
▁영화보	-10.7616
▁복잡	-10.7618
▁인연이었	-10.7624
▁이루	-10.7627
▁일정	-10.763
▁아이돌이	-10.7641
▁사랑했	-10.7643
▁모아야	-10.7669
신이	-10.7673
▁군	-10.7678
▁만들기	-10.7683
▁흐르는	-10.7685
▁늦는	-10.7689
▁어떡	-10.7693
▁짝사랑만	-10.7694
▁문제네	-10.7695
▁얘기해	-10.7701
▁적응해야	-10.7703
▁바보같	-10.7708
▁고민이네	-10.7713
▁즐기면	-10.7715
▁지났어	-10.7723
▁잘자	-10.7724
하는걸	-10.773
▁부탁드	-10.7734
▁낳	-10.7743
▁밟	-10.7743
▁찼	-10.7743
다니는	-10.7747
해져	-10.7748
▁주택	-10.775
▁설명	-10.775
▁다툼	-10.775
▁축제	-10.7751
▁프로필	-10.7753
▁키울	-10.7753
▁미안하	-10.7755
▁바늘	-10.7755
▁아파트	-10.7775
▁짜	-10.7794
▁공부하면	-10.7794
▁봤네	-10.78
사람에게	-10.7803
▁할줄	-10.7804
▁덕	-10.7806
▁아픔이	-10.7817
있나	-10.7819
▁아니지	-10.782
▁결혼에	-10.7826
▁기억에	-10.783
▁커지	-10.7832
▁무너졌	-10.7832
▁어머	-10.7842
▁연속	-10.7859
▁울적해	-10.7861
해주지	-10.7869
▁망했	-10.7877
▁배워보	-10.7879
▁활	-10.7887
▁벽	-10.7889
▁한다는	-10.789
▁내기	-10.7906
▁결혼한	-10.7911
▁없는거	-10.7912
긴다	-10.7915
▁설레는	-10.7924
▁버리는	-10.7943
하기로	-10.7965
▁의지해	-10.7966
▁머릿속	-10.7968
▁운명인가	-10.7981
▁맞춰가	-10.7983
▁행복했	-10.8003
돌	-10.8022
정이	-10.8026
▁포기해야	-10.8039
▁들어왔	-10.804
▁느껴보	-10.8041
▁거짓말이	-10.8051
였나봐	-10.8058
▁이별하는	-10.8061
▁친구라	-10.8061
▁후회없	-10.8064
▁정리해	-10.8068
▁켜	-10.8076
▁살았	-10.8078
▁갖자	-10.8082
▁되시	-10.8086
▁중요하겠	-10.8094
거지	-10.8095
▁불면증	-10.8097
▁창업	-10.8108
▁위험하	-10.8112
탈이	-10.8112
▁힘들까	-10.8121
▁클	-10.8129
▁말로	-10.8138
▁정확	-10.8141
▁오려나	-10.8169
▁재미있는	-10.8174
▁당했	-10.8189
▁드려	-10.8194
끄러워	-10.8201
▁그럴수	-10.8201
받아	-10.821
▁죽어	-10.8221
▁답답하다	-10.8224
▁놈	-10.8233
▁적어보	-10.8238
▁꿈같	-10.8253
▁먹은	-10.8261
▁모으	-10.8279
▁상태인	-10.8291
▁나눠보는	-10.83
▁잘하	-10.8303
▁따지	-10.8305
▁청소하	-10.8316
▁크겠	-10.8323
▁답답	-10.8323
▁소문이	-10.8332
렸나봐	-10.8333
볼	-10.8339
▁너무나	-10.834
▁재밌을	-10.8346
▁오지	-10.8354
▁안주	-10.8371
▁선물해	-10.84
사는	-10.8404
▁연애였	-10.841
▁괜찮지	-10.843
▁근	-10.8443
▁마주하	-10.8466
기한	-10.8468
▁일인	-10.8468
▁깊었	-10.8482
▁많아지	-10.8486
▁좋았겠	-10.8489
▁어울	-10.8497
▁보았	-10.8509
▁해야할	-10.8514
내고	-10.8532
▁말해야	-10.8551
▁끌	-10.8564
▁뭐하	-10.8567
▁아껴주	-10.8572
장이	-10.8581
▁태	-10.8592
▁은퇴	-10.8596
▁연락오	-10.8612
▁착각이	-10.862
▁먼	-10.8621
▁예뻐지	-10.8645
▁헤	-10.867
▁하셨나	-10.8674
▁검색	-10.8677
▁대화하는	-10.8688
가봐	-10.8689
▁자연	-10.8696
▁성장하	-10.8716
▁욕해	-10.8721
▁고치고	-10.8722
▁밀어	-10.8729
▁읽씹	-10.8749
▁소모	-10.8749
▁놓으	-10.8755
▁반에	-10.8755
▁케이스	-10.8756
▁부족한가	-10.8776
▁차단하	-10.8777
▁여사친	-10.8778
졌	-10.8779
▁걸렸	-10.878
▁옆	-10.8794
▁알겠	-10.8803
▁중독	-10.8806
▁참을	-10.8811
▁없는걸	-10.8837
▁퍼	-10.887
어가네	-10.8898
년만	-10.8902
좋아하는	-10.8902
▁헛헛	-10.8919
▁세달	-10.892
▁이야기하	-10.8941
▁미안	-10.8943
▁따듯	-10.8945
▁고고	-10.8963
있어요	-10.8995
▁겨울	-10.8996
▁우울하	-10.8998
▁못난	-10.9012
침	-10.9014
▁속상	-10.9052
▁생각하기	-10.9057
▁말한	-10.9075
페	-10.9075
▁접어두	-10.9078
을때	-10.9086
▁아니었나	-10.9087
▁않지	-10.9113
▁고백한	-10.9118
해줘서	-10.9132
▁어떻	-10.9152
▁걱정되	-10.9171
▁떡	-10.9183
리면	-10.9184
▁차가	-10.9193
▁카페에	-10.9206
이상	-10.9212
▁돌아보	-10.9213
▁지키	-10.9217
악	-10.9226
▁뭐하면	-10.9226
▁나빠	-10.9231
▁감으	-10.9232
▁못했	-10.9243
프	-10.9246
▁제안	-10.9249
식하는	-10.9253
▁빌	-10.9259
▁신기	-10.9262
볶	-10.9266
품	-10.9275
팩	-10.9303
▁안되겠	-10.9303
▁게임하	-10.9333
빈	-10.9334
▁연습해	-10.9341
▁왕따	-10.9352
입	-10.9366
▁맞춰주	-10.9372
톡	-10.9381
드네	-10.9381
▁키워	-10.9388
갔네	-10.9406
▁부르	-10.9426
▁타나	-10.9435
계절	-10.9439
▁닫	-10.9443
유	-10.9447
콕	-10.9458
▁단순	-10.9462
▁접는	-10.9462
▁생각지	-10.9471
엉	-10.9495
선물	-10.9513
▁입으	-10.9515
기네	-10.9515
▁축하해	-10.9518
끈	-10.9531
절	-10.9539
▁갔는	-10.9546
▁취직할	-10.9548
▁안될	-10.9552
러워	-10.9563
얘	-10.9571
보니	-10.9574
▁아깝	-10.9574
호	-10.9583
빵	-10.9583
평가	-10.9591
일수	-10.9595
앞이	-10.9597
뜨	-10.9601
롭	-10.9603
빨	-10.9604
머리	-10.9605
▁마지막이	-10.9606
안할	-10.9608
수건	-10.9613
▁듣는	-10.9617
릴까	-10.9624
▁기술	-10.9639
힌	-10.964
▁잘지내	-10.964
맘	-10.9646
▁태어	-10.965
육	-10.9651
▁올랐	-10.9658
▁시작할	-10.9659
▁무뎌지	-10.9663
▁막히	-10.9665
들었나봐	-10.9665
속에	-10.9666
시켜	-10.9671
족	-10.9672
맞나	-10.9685
싸움	-10.9688
꿀	-10.9689
다른	-10.969
냥	-10.969
압	-10.969
부를	-10.969
▁아물	-10.9692
류	-10.9693
▁두근거	-10.9693
▁중국	-10.9697
룩	-10.9699
신청	-10.97
때문	-10.97
꿔	-10.97
렵	-10.97
꿈	-10.9701
포	-10.9702
▁변덕	-10.9703
닝	-10.9704
1	-10.9704
깐	-10.9705
치료	-10.9706
▁진행	-10.9706
▁광	-10.9706
▁멈	-10.9706
▁휘	-10.9706
▁슈퍼	-10.9707
완	-10.9707
꼈	-10.9707
▁사춘기	-10.9707
앨	-10.9707
B	-10.9707
▁각질제거	-10.9707
▁건강습관이	-10.9707
▁겪	-10.9707
▁교양수업	-10.9707
▁꼰대	-10.9707
▁꾹꾹	-10.9707
▁대기업	-10.9707
▁뒷감당	-10.9707
▁레시피	-10.9707
▁멘	-10.9707
▁무한리필	-10.9707
▁버릇	-10.9707
▁베트남	-10.9707
▁비정상이	-10.9707
▁선풍기	-10.9707
▁설득	-10.9707
▁소액결제	-10.9707
▁식습관	-10.9707
▁아울렛	-10.9707
▁애프터	-10.9707
▁원동력이	-10.9707
▁웹툰	-10.9707
▁유부녀	-10.9707
▁이모티콘	-10.9707
▁인터넷	-10.9707
▁입냄새	-10.9707
▁지저분해	-10.9707
▁하우스웨딩	-10.9707
▁핫	-10.9707
▁훔쳐보	-10.9707
눅	-10.9707
덥	-10.9707
맷	-10.9707
샌	-10.9707
엠	-10.9707
율	-10.9707
줌	-10.9707
짚	-10.9707
째깍	-10.9707
팁	-10.9707
팬	-10.9707
펑	-10.9707
풋	-10.9707
흠	-10.9707
▁객관적	-10.9707
▁고시원	-10.9707
▁뚫	-10.9707
▁브랜드	-10.9707
▁수면양말	-10.9707
▁좌절	-10.9707
▁컸	-10.9707
껄	-10.9707
놨	-10.9707
▁곱	-10.9707
▁굳	-10.9707
▁그린라이트	-10.9707
▁맺	-10.9707
▁몫	-10.9707
▁탁	-10.9707
▁현타	-10.9707
▁확률	-10.9707
쭤	-10.9707
▁맴	-10.9707
▁뒹굴	-10.9707
▁침묵	-10.9707
▁무언가	-10.9707
▁비행기표	-10.9707
▁어리석	-10.9707
▁케익	-10.9707
▁메뉴얼	-10.9707
▁바꿨어	-10.9707
▁손가락	-10.9707
▁외출하	-10.9707
▁제정신	-10.9707
▁골프	-10.9707
▁초기화	-10.9707
▁뱃살	-10.9707
▁낭만적	-10.9707
▁알뜰폰	-10.9707
▁월세	-10.9707
▁친절한	-10.9707
▁컴터	-10.9707
▁탈모	-10.9707
▁패션	-10.9707
▁뛰어넘	-10.9707
▁베프	-10.9707
▁희생양	-10.9707
▁미용실	-10.9707
▁실패	-10.9707
▁뜨겁	-10.9707
▁감정기복	-10.9708
▁무모	-10.9708
▁어렸을때	-10.9708
▁원인이	-10.9708
폭력	-10.9708
▁예능	-10.9708
▁똥차	-10.9708
▁놓쳤	-10.9708
▁상종하지	-10.9708
▁학벌	-10.9708
▁주름살	-10.9708
▁자장가	-10.9708
▁증명	-10.9708
▁찢어지	-10.9708
▁롱디	-10.9708
▁대청소	-10.9708
▁조급하	-10.9708
▁승진	-10.9708
▁피부관리	-10.9708
▁당첨	-10.9708
▁블록	-10.9708
▁잡념	-10.9708
▁발견	-10.9708
▁열흘	-10.9708
▁부담스러울	-10.9708
▁친척	-10.9708
▁공유	-10.9708
▁작동	-10.9708
▁빈자리	-10.9708
▁알바생	-10.9708
▁종지부	-10.9708
▁태연	-10.9708
▁접어야	-10.9708
▁실행	-10.9708
▁바쁠	-10.9708
▁환기	-10.9708
▁미칠	-10.9708
▁출발	-10.9709
▁외부	-10.9709
▁심심하다	-10.9709
▁예비	-10.9709
직하	-10.9709
▁청결	-10.9709
▁참석하는	-10.9709
▁손편지	-10.9709
▁선택이었을	-10.9709
▁유행	-10.9709
▁나이테	-10.9709
▁비밀연애	-10.9709
▁어느정도	-10.971
▁끊으	-10.971
▁깨달았	-10.971
▁음료	-10.971
▁감출	-10.971
▁쌓여	-10.971
▁많으시	-10.971
▁변화시켜	-10.971
▁사표	-10.971
▁먹먹	-10.971
▁정해져	-10.971
▁변신	-10.9711
▁속박	-10.9711
▁아쉬운	-10.9711
▁알아볼	-10.9712
▁다듬	-10.9712
스타일	-10.9712
식물	-10.9712
▁비정규직	-10.9712
▁녹여	-10.9712
▁장갑	-10.9712
차곡	-10.9712
▁실수했나	-10.9712
▁솔직	-10.9712
▁웃겨	-10.9712
▁전여자친구	-10.9712
▁한번쯤	-10.9713
잔하네	-10.9713
▁주량	-10.9713
▁놓아줄	-10.9713
▁감동	-10.9713
▁두근거려	-10.9713
▁연애세포	-10.9713
▁무뎌질	-10.9714
추적	-10.9714
▁본받	-10.9714
▁졸린	-10.9714
▁입학	-10.9715
▁지루	-10.9715
▁프로	-10.9715
▁예상	-10.9715
▁싸울	-10.9715
▁익숙해져	-10.9715
▁허전할	-10.9715
생각이	-10.9715
▁이겨야	-10.9715
▁좋아한대	-10.9716
콜록	-10.9716
▁들이대	-10.9716
▁구두	-10.9716
▁구워	-10.9716
▁허전함	-10.9716
종료	-10.9716
▁심해지는	-10.9717
▁역할	-10.9717
▁방금	-10.9717
널	-10.9718
▁숙제	-10.9718
▁필수	-10.9718
주물	-10.9718
▁도와줄	-10.9718
▁돌아와	-10.9718
▁따져	-10.9719
디오	-10.9719
▁면도기	-10.9719
▁강제	-10.972
▁몰려	-10.972
스트	-10.972
▁배신	-10.972
▁기다릴게요	-10.9721
▁미화되기	-10.9721
▁12	-10.9722
▁실천	-10.9722
▁불편하겠	-10.9722
▁리드	-10.9723
▁방심	-10.9723
▁습관처럼	-10.9724
▁지압	-10.9724
▁아부	-10.9724
▁무리하지	-10.9724
책	-10.9724
▁허무하네	-10.9726
▁메리	-10.9726
▁겁나	-10.9726
▁필기	-10.9727
▁난방	-10.9728
▁오바	-10.9729
▁연상	-10.9729
노래	-10.9729
▁중요하니까	-10.973
▁진리	-10.9731
▁진정하	-10.9731
▁이별준비	-10.9732
▁옳은	-10.9732
▁티나나	-10.9733
▁냉면	-10.9734
▁알아내	-10.9734
동물	-10.9734
▁떠나간	-10.9735
▁받아줄	-10.9735
▁일방적	-10.9735
▁보란	-10.9735
▁싸운	-10.9736
▁잊어가는	-10.9737
체인	-10.9739
▁아쉬움이	-10.9739
▁단수	-10.974
▁겨울에	-10.9741
▁글자	-10.9743
▁좋긴	-10.9743
▁사랑이었으	-10.9743
영	-10.9743
▁달력	-10.9744
▁월급날	-10.9744
초록	-10.9745
▁불만	-10.9745
▁표현하기	-10.9747
▁한약	-10.9748
▁지친	-10.9751
팔	-10.9751
재인가	-10.9752
▁닮아	-10.9752
▁오셨	-10.9753
필	-10.9753
▁끈을	-10.9754
▁미안하다	-10.9755
▁지낸	-10.9755
두통	-10.9755
▁지각	-10.9755
▁물질	-10.9758
▁도망가	-10.9758
▁생각난다	-10.9759
▁의심해	-10.9759
▁늙어가	-10.976
▁시도해	-10.9762
편지	-10.9763
▁어이없	-10.9764
▁여러명	-10.9764
문득	-10.9765
상담	-10.9766
▁실력	-10.9766
잡는	-10.9767
▁풀리	-10.9767
그만	-10.9768
▁죽을거	-10.977
이너	-10.9771
▁돌아서	-10.9776
▁운동화	-10.9776
▁낮잠	-10.9779
▁대수	-10.9781
▁고백해야	-10.9785
▁이해못	-10.9787
개시	-10.9789
▁붙이	-10.9789
▁감성적이	-10.9789
▁맛있어	-10.979
따로	-10.979
▁위로해줄	-10.979
▁다칠	-10.9791
시려	-10.9791
▁사줘	-10.9795
▁수능	-10.9795
같은데	-10.9795
▁떠날	-10.9796
▁빨	-10.9797
▁인지시켜	-10.9798
▁배정	-10.98
노	-10.9801
▁결혼하기	-10.9801
▁터질	-10.9803
▁영어	-10.9804
▁크리스마스에	-10.9804
▁좋아지고	-10.9805
▁차인	-10.9806
사진	-10.9806
▁고마	-10.9807
▁사줄	-10.9807
뒤	-10.9808
▁받으시	-10.9808
▁손톱이	-10.9809
커플	-10.9809
▁현금이	-10.981
▁비오는	-10.9817
▁찾아오네	-10.9822
▁일시적	-10.9824
봄	-10.9824
▁많은걸	-10.9828
커	-10.9829
▁자르	-10.9829
볼때	-10.9829
▁빵	-10.9832
▁독서	-10.9833
까운	-10.9834
▁없대	-10.9837
관리	-10.9838
▁보내지	-10.9845
▁너와	-10.9845
▁정성	-10.985
▁결정하는	-10.9853
▁입장	-10.9854
▁친해	-10.9855
▁봤나	-10.9861
▁후련하네	-10.9862
▁깔끔하	-10.9862
▁상대적	-10.9864
나오	-10.9864
▁잘생겼어	-10.9874
만남	-10.9877
▁누나	-10.9879
▁기침	-10.9879
▁아니겠지	-10.988
▁피곤하겠	-10.988
▁하아	-10.9884
▁다하	-10.9885
▁사랑이라는	-10.9887
주일	-10.9889
▁사이로	-10.9895
▁꾸준한	-10.9897
▁전하	-10.9898
▁대하는	-10.9901
▁쌓였	-10.9902
▁사전	-10.9903
▁정리되	-10.9905
안보여	-10.9912
▁성덕이	-10.9914
▁필요한가	-10.9917
▁피로	-10.9926
자마	-10.9927
▁넣어	-10.9936
▁일기	-10.9936
▁의자	-10.994
▁치맥이	-10.9944
▁짧아	-10.995
▁필요하지	-10.9953
▁뜨는	-10.9954
▁들어줄	-10.9956
막히는	-10.9958
▁이뤄지	-10.9962
▁착잡하	-10.9963
▁만들었어	-10.9964
▁걷다	-10.9966
▁좋아졌어	-10.997
▁남자에게	-10.9975
안한다	-10.9987
▁반복되	-10.9987
그런건가	-10.9997
▁했을	-10.9999
▁결혼하고	-11.001
▁뒤숭숭하	-11.0014
▁돌아오지	-11.0017
▁냄새나	-11.0021
▁척하는	-11.0022
▁괜찮다가	-11.0026
안됐네	-11.0028
▁좋으니	-11.0031
문이	-11.0033
▁여지	-11.0037
▁이어가	-11.0038
▁좋아졌	-11.0039
▁복잡해	-11.0041
오겠	-11.0042
▁끝내는	-11.0049
▁화해	-11.0052
▁약간	-11.0064
▁바쁘네	-11.0069
▁헤어짐에	-11.0081
▁정리해야	-11.0081
하셔야	-11.0082
▁알겠어	-11.0101
▁불안하	-11.0104
▁기다려야	-11.0105
▁끊기	-11.0106
▁잘못한	-11.0114
▁건들	-11.0117
이크	-11.0131
▁개강	-11.0138
연이	-11.0138
▁뻔했	-11.0144
▁적이	-11.0147
성적이	-11.015
뻔	-11.0157
▁말보다	-11.0159
▁좋은점	-11.0169
▁애석하	-11.0177
▁서운하	-11.0181
▁지쳐가	-11.0189
▁모르겠다	-11.0192
▁도와	-11.0196
▁대체	-11.0204
한다는	-11.0209
▁그렇다	-11.0217
▁학생이	-11.0219
▁아프게	-11.0219
▁기다	-11.0219
▁순수하	-11.022
▁공개	-11.0222
▁정리하려	-11.023
비가	-11.0231
▁쓰일	-11.0234
이었으	-11.0242
▁인연인	-11.0254
▁서운하겠	-11.0261
▁당당해	-11.0269
▁감당	-11.0272
▁된다	-11.028
▁알아봐	-11.028
▁차단하는	-11.0287
▁봐주	-11.0288
▁운이	-11.029
져서	-11.029
▁효	-11.0296
▁버려야겠	-11.0317
▁질린	-11.0319
▁진도	-11.0321
▁않기	-11.0333
되었길	-11.0341
못	-11.0349
▁귀찮다	-11.037
했던거	-11.0381
▁냉	-11.0386
▁매력있	-11.0391
▁보인	-11.0392
정기	-11.0399
감기	-11.0404
▁행복이	-11.0406
▁농	-11.0413
▁칼	-11.0418
어보고	-11.0424
▁쫄	-11.0425
▁윗	-11.0425
▁마주치면	-11.0432
▁예약	-11.0436
▁오르	-11.0439
▁웃음	-11.0439
▁응	-11.0439
▁술한잔	-11.044
▁외국어	-11.0442
고싶은	-11.0449
▁이성이	-11.0452
▁견디기	-11.0454
▁동생한테	-11.0459
▁다녀와	-11.046
▁공간	-11.0465
▁생각하나	-11.0468
▁뛰어	-11.047
▁지식	-11.0472
▁사람이었나	-11.0472
시겠	-11.0478
▁관심있	-11.0478
▁물어보고	-11.0479
자랑	-11.0488
▁많은가	-11.049
▁싶다는	-11.0494
▁별로인	-11.0508
▁넘었는데	-11.0513
▁정상	-11.052
▁쓰게	-11.0523
▁해준	-11.0525
▁친	-11.0532
▁생각했	-11.0535
▁많겠지	-11.054
▁비오	-11.0545
▁잊지못	-11.0545
▁때문이	-11.055
만나자는	-11.0553
▁붙잡아	-11.0554
▁헛헛하	-11.0562
▁많겠	-11.0565
▁고백해	-11.0566
▁붙	-11.0575
▁취직하	-11.0625
물이	-11.0626
▁믿었	-11.0631
▁붙잡는	-11.0656
▁비교	-11.0658
▁익숙해지	-11.0659
▁났나봐	-11.0697
▁잡는	-11.0704
심이	-11.071
▁가져가	-11.0728
▁굴	-11.074
▁든든하	-11.0748
▁솔직해	-11.075
▁좋은거	-11.0762
▁키우는	-11.0773
▁지켜보는	-11.0774
▁모른척하	-11.079
▁기억해주	-11.079
것만	-11.0793
▁그사람이	-11.0797
한대	-11.0809
▁밥이	-11.084
▁면도	-11.0848
▁떠올	-11.0852
▁싫은가봐	-11.0854
▁사귀다	-11.0858
▁친구인데	-11.0867
▁부담되	-11.0879
정도	-11.0881
▁생각하게	-11.0883
▁지금이	-11.0884
▁꺼	-11.089
되니까	-11.09
▁절약해	-11.0903
▁끝인가봐	-11.0919
▁맞는거	-11.0927
▁하는거	-11.0932
▁그런거	-11.0939
민	-11.0945
해야겠	-11.0946
▁무엇인	-11.0986
▁사주	-11.1012
▁결심이	-11.1013
▁말라	-11.1018
▁부리	-11.1024
▁원해	-11.1026
▁안에	-11.1037
▁용서하	-11.1043
▁나약	-11.1046
▁들어오	-11.105
▁모르겠지	-11.1055
▁타인	-11.1074
▁떨쳐	-11.112
너무	-11.1156
▁출근하	-11.1159
▁나니	-11.1168
▁지적	-11.1176
▁당당	-11.1176
겟	-11.1178
차이	-11.1194
▁풀려	-11.1196
▁먹자	-11.1201
▁감성	-11.1202
▁다치	-11.1207
▁학생	-11.1226
▁동물이	-11.1227
▁올리	-11.1255
▁찾아가는	-11.126
이었을까	-11.1265
▁가네	-11.1278
▁착하	-11.1315
▁나쁘	-11.1327
나보네	-11.1346
▁맞나봐	-11.1371
▁현실적	-11.1376
이었을	-11.1386
여친이	-11.1393
▁평가	-11.1393
▁안좋	-11.1396
▁깨지	-11.14
오게	-11.1402
▁초대하	-11.1411
▁복잡하	-11.1413
▁것만	-11.143
▁안정적	-11.1436
▁상처주	-11.1443
▁다양	-11.1447
▁일하	-11.1449
갔다	-11.1452
▁예쁘다	-11.1457
▁떠나갔	-11.1467
▁안좋아	-11.1479
▁사랑이에요	-11.1497
▁남자의	-11.1518
▁넘어	-11.1529
▁거였	-11.1542
▁말만	-11.1545
주실	-11.1553
▁되어요	-11.1601
▁찾아야	-11.1616
▁했네	-11.163
▁세우	-11.1638
▁도와드	-11.1643
▁무덤덤해	-11.1646
▁똑	-11.1677
줘서	-11.1696
▁야근이	-11.1699
▁모른척	-11.1705
▁깎아야	-11.1707
▁심하네	-11.1709
▁건강하	-11.1719
▁놀랐	-11.1763
▁연인이	-11.1766
고파	-11.1772
하지마	-11.1795
▁할지	-11.1797
▁센	-11.1811
시도	-11.1815
▁미팅	-11.1819
▁주저리	-11.1827
▁견	-11.1842
▁든든	-11.1843
▁액	-11.1848
▁고독	-11.1853
▁머릿속에	-11.1854
▁만족해	-11.1858
▁단점	-11.1864
▁물가	-11.1866
▁털어	-11.1874
▁짝사랑인	-11.1874
▁부려	-11.1876
아서	-11.1886
▁달에	-11.1889
▁상황에	-11.1891
▁중이	-11.1933
▁이야기하고	-11.1972
▁연속이	-11.1974
▁떨면	-11.1981
감이	-11.1986
▁미안해하	-11.2045
▁기다려보	-11.2051
▁향이	-11.2063
▁사랑받	-11.2069
사갈	-11.2076
▁전과	-11.2078
▁장난인	-11.2081
▁살아가는	-11.209
▁보시	-11.2114
▁지냈	-11.2121
▁터지	-11.2125
해야하나	-11.2142
겼어	-11.2152
▁대단	-11.2161
▁남사친	-11.2186
▁쌓	-11.2189
▁따라가	-11.2192
정리하	-11.2203
▁덤덤	-11.2206
▁문제인	-11.2216
질까	-11.2235
▁오락가락	-11.2236
▁날까	-11.2261
쳤	-11.2282
간을	-11.2284
▁아련	-11.2304
▁아이돌	-11.2312
▁내면	-11.2315
▁관계에	-11.2323
▁깨졌	-11.2335
인줄	-11.2342
할지	-11.2358
▁언제가	-11.2366
▁예민	-11.2376
사드리	-11.2384
였는	-11.2392
▁쿨	-11.2435
시키는	-11.2444
▁말자	-11.2463
▁때인	-11.2482
▁찬	-11.2488
▁멀	-11.2505
테	-11.2516
▁만나기	-11.2522
▁결혼준비	-11.2522
▁카	-11.253
▁울었	-11.2544
▁적극적이	-11.2558
▁해외여행	-11.2568
▁죽었	-11.2573
셔야	-11.2581
절한	-11.2585
▁없을거	-11.2592
달라는	-11.2605
▁풀어야	-11.2615
▁버려야	-11.2633
▁사람하고	-11.2634
았으면	-11.2646
냈	-11.2653
렇게	-11.2683
▁그리	-11.2693
껴	-11.2698
▁믿는	-11.2702
▁이별중	-11.2709
식을	-11.2717
▁날들	-11.2749
▁났	-11.275
올려	-11.2751
▁잘하니	-11.2765
▁일이라	-11.2782
던데	-11.2819
▁치열	-11.282
주인	-11.283
잘	-11.284
▁뜨	-11.284
학원	-11.2844
▁충전해	-11.2856
렀어	-11.2867
실에	-11.2874
촉	-11.2901
을수	-11.2905
▁상황인	-11.2926
어야	-11.2941
▁무색하	-11.2947
하시는	-11.2956
▁죽는	-11.2957
▁움직	-11.2973
▁줄일	-11.299
처	-11.2993
즘	-11.2994
▁뛰	-11.2994
웃으	-11.2995
▁끊어	-11.2996
▁뽑	-11.2998
▁사겨	-11.2999
법이	-11.3007
았더	-11.3011
꾼	-11.3015
▁상메	-11.3017
▁멀어진	-11.3019
▁남아있	-11.302
텐	-11.3022
▁되는건	-11.3031
닥	-11.3032
곡	-11.3034
▁자책	-11.3035
▁집안	-11.3036
혔	-11.3038
▁바랄	-11.3038
춰	-11.3039
블	-11.3039
봉	-11.304
범	-11.304
뱃	-11.304
낌	-11.304
둥	-11.304
▁씁	-11.304
▁기쁨	-11.304
▁홈	-11.304
a	-11.304
s	-11.304
▁간섭	-11.304
▁간질간질	-11.304
▁견과류	-11.304
▁공휴일에	-11.304
▁구썸남	-11.304
▁깍	-11.304
▁뇌	-11.304
▁눈꺼풀	-11.304
▁눕	-11.304
▁대리효도	-11.304
▁드레스	-11.304
▁로맨스	-11.304
▁매몰	-11.304
▁밑바닥	-11.304
▁배불러	-11.304
▁비혼주의	-11.304
▁뻐근	-11.304
▁설렐	-11.304
▁세탁	-11.304
▁쇼핑몰	-11.304
▁숫자	-11.304
▁시간낭비인	-11.304
▁심쿵	-11.304
▁아날로그	-11.304
▁앱	-11.304
▁얼떨떨	-11.304
▁엄마아빠	-11.304
▁예측	-11.304
▁오지랖	-11.304
▁우습	-11.304
▁의존	-11.304
▁잘생겨	-11.304
▁저편	-11.304
▁창피해	-11.304
▁토닥토닥	-11.304
▁하객	-11.304
▁헥헥	-11.304
▁현관문	-11.304
▁호르몬	-11.304
▁홧	-11.304
▁흐지부지	-11.304
겐	-11.304
넋	-11.304
닷	-11.304
돕	-11.304
됬	-11.304
땜	-11.304
띠	-11.304
렴	-11.304
륵	-11.304
벤	-11.304
샜	-11.304
송	-11.304
옵	-11.304
젤	-11.304
짼	-11.304
쿠	-11.304
▁구남친	-11.304
▁깰	-11.304
▁꽉	-11.304
▁어딘가	-11.304
▁캬	-11.304
▁턱	-11.304
▁혼인신고	-11.304
왓	-11.304
▁꿰	-11.304
▁묘	-11.304
▁베란다	-11.304
▁헐	-11.304
▁현명	-11.304
▁꼼	-11.304
▁나빴네	-11.304
▁떴	-11.304
▁얽	-11.304
▁피시방	-11.304
▁0	-11.304
▁북	-11.304
▁텀	-11.304
▁투잡	-11.304
▁헹	-11.304
▁소름돋	-11.304
▁예쁠	-11.304
▁식단조절	-11.3041
▁주워담	-11.3041
▁주인공	-11.3041
▁표출	-11.3041
▁낭만이	-11.3041
▁자극이	-11.3041
▁떨어뜨려	-11.3041
블루	-11.3041
▁근교	-11.3041
▁낮술	-11.3041
▁비참한	-11.3041
▁느꼈	-11.3041
그램	-11.3041
▁불가능	-11.3041
▁관찰	-11.3041
챙겼	-11.3041
▁공황	-11.3041
▁바람둥이	-11.3041
▁안타까워	-11.3041
▁충실하	-11.3041
▁흘렸	-11.3041
▁격식	-11.3041
▁비참해	-11.3041
▁자유여행이	-11.3041
▁뒤돌아	-11.3041
▁뜨끈	-11.3041
▁씨씨	-11.3041
▁환경	-11.3041
▁빌릴까	-11.3041
▁뉴스	-11.3041
▁도저히	-11.3041
▁색다른	-11.3041
▁체력	-11.3041
▁스릴있	-11.3041
▁흐려지	-11.3041
▁깜빡거려	-11.3041
▁평범	-11.3041
▁예랑이	-11.3041
▁숙취	-11.3041
▁카공	-11.3041
▁빼앗	-11.3041
▁힘드셨	-11.3041
설계	-11.3041
▁정열적	-11.3041
▁투성이	-11.3041
▁창문	-11.3041
▁환심	-11.3041
▁병행	-11.3041
▁찬물	-11.3041
▁태그	-11.3041
▁재설계	-11.3041
▁계획적이	-11.3041
▁억울	-11.3041
▁갈등	-11.3041
▁욜로	-11.3042
▁스노	-11.3042
▁친군	-11.3042
▁불순	-11.3042
▁오랜연애	-11.3042
▁위축	-11.3042
▁도와준	-11.3042
▁혼란스럽	-11.3042
베리	-11.3042
▁사회	-11.3042
▁곤두	-11.3042
▁생일선물	-11.3042
▁혼밥	-11.3042
▁하셔야	-11.3042
▁흔들	-11.3042
▁잊혀진	-11.3042
▁휴유증	-11.3042
▁딴짓	-11.3042
▁찬성	-11.3043
▁되돌아보	-11.3043
▁구박하	-11.3043
▁엮여	-11.3043
▁찾으	-11.3043
▁벗겨	-11.3043
▁가벼워질	-11.3043
▁난감하	-11.3043
▁제습기	-11.3043
▁환장	-11.3043
▁바나나	-11.3043
▁공복이	-11.3043
▁갑작스러웠	-11.3043
▁두렵	-11.3043
▁딸까	-11.3043
용품	-11.3043
▁유명	-11.3044
▁사로잡	-11.3044
하우스	-11.3044
▁길거리에	-11.3044
▁쉬었다	-11.3044
▁감수성	-11.3044
▁미끄러질	-11.3044
▁서핑	-11.3044
▁계약	-11.3044
▁내딛	-11.3044
▁설마	-11.3044
▁옥상	-11.3044
▁직후	-11.3045
▁이끌어	-11.3045
▁백수	-11.3045
▁매달려	-11.3045
준비하는방법	-11.3045
둬야	-11.3045
잔치	-11.3045
▁반영	-11.3045
▁스쳐	-11.3045
▁씹어	-11.3045
▁영화보러	-11.3045
▁맞출	-11.3045
▁배워가는	-11.3046
▁최저	-11.3046
▁스케	-11.3046
▁예정	-11.3046
▁유료	-11.3046
▁보여드리	-11.3046
▁치마	-11.3046
▁속아주	-11.3046
▁첫이별	-11.3046
▁혼란스	-11.3046
▁무리일까	-11.3046
▁아까운	-11.3047
▁백업해	-11.3047
▁탈출구	-11.3047
▁있었는지	-11.3047
▁분양	-11.3047
▁권리	-11.3047
▁심남	-11.3047
▁천국	-11.3047
▁11	-11.3047
▁경제	-11.3047
▁숨막히	-11.3047
▁느낀다면	-11.3048
▁떠나보내	-11.3048
▁솔직했	-11.3048
▁놀러갈	-11.3048
▁대학원	-11.3048
▁바닥	-11.3049
▁구매	-11.3049
▁친구사이	-11.3049
▁데려다줬	-11.3049
▁사과해야	-11.3049
▁벗어	-11.3049
▁식혀	-11.3049
▁정신병	-11.3049
▁취소	-11.3049
▁부팅	-11.3049
▁한눈	-11.305
▁나쁜놈	-11.305
▁누워	-11.305
님들	-11.305
▁느껴질	-11.305
▁즐거워	-11.3051
▁단단해지	-11.3051
▁불안한	-11.3051
▁귀여운	-11.3051
▁식사	-11.3051
▁심난	-11.3051
▁호구	-11.3051
되어있는	-11.3051
▁편안해질	-11.3052
▁술자리	-11.3052
▁편린	-11.3052
▁사회에서	-11.3052
▁남녀	-11.3053
▁벌레	-11.3053
▁꿈꾸	-11.3053
▁증상이	-11.3053
▁추스리	-11.3053
▁거둬	-11.3053
▁알아버렸	-11.3053
▁바람피	-11.3053
▁잘살고	-11.3054
▁공통점	-11.3054
▁알게되면	-11.3054
▁배워볼까	-11.3054
▁양치	-11.3056
▁공부방법	-11.3056
▁기다렸나봐	-11.3057
▁열받아	-11.3057
▁자장면이	-11.3057
▁그쪽	-11.3058
▁뿌려	-11.3059
생각	-11.306
▁다쳤	-11.306
▁연하	-11.306
▁사무	-11.3061
▁취직이나	-11.3061
▁한달반	-11.3062
▁매정	-11.3063
▁난방비	-11.3063
간당	-11.3064
▁문화	-11.3064
▁밀려오	-11.3066
이브	-11.3066
▁수십	-11.3066
▁보약	-11.3067
방비	-11.3067
▁결정이었겠	-11.3067
▁전학가	-11.3068
▁복잡했나	-11.3068
▁다되어가네	-11.3068
▁계신	-11.3069
▁챙겨줄	-11.3069
▁부러	-11.3069
▁꼬시	-11.307
기름	-11.307
▁특히	-11.3071
▁미운	-11.3071
▁모처럼	-11.3072
▁배려해야	-11.3073
▁엇갈리	-11.3073
▁해외	-11.3075
▁저음이	-11.3075
▁잘라	-11.3076
침해	-11.3077
름이	-11.3079
▁찾은	-11.308
▁속상할거	-11.308
▁생생한	-11.3081
▁모여	-11.3081
▁물건들	-11.3082
▁나온대	-11.3082
▁쟁취하는	-11.3083
▁연락올	-11.3083
▁오랜만	-11.3084
▁편하대	-11.3084
▁졸라	-11.3085
▁때리기	-11.3085
▁데려다주려	-11.3086
▁낙이	-11.3087
소음	-11.3088
▁여자사람	-11.3089
▁일반	-11.309
▁멍청한	-11.309
▁들텐데	-11.309
▁커플여행	-11.3091
▁여기까지였	-11.3092
우선이	-11.3092
로그	-11.3093
▁알아줄	-11.3093
▁수상한	-11.3093
▁판단력	-11.3094
▁하셔	-11.3096
▁분에게	-11.3096
▁살았는데	-11.3096
▁복잡하네	-11.3097
▁헤어져야하는	-11.3097
순수한	-11.31
▁허기	-11.3103
▁처음이라	-11.3103
▁됐나	-11.3104
은데	-11.3104
▁말하면	-11.3104
▁공기	-11.3104
▁소식에	-11.3104
▁어색해졌어	-11.3105
올려봐	-11.3105
▁발라	-11.3106
▁어쩔수없	-11.3106
▁지냈나	-11.3108
▁않으셨	-11.3109
▁신경쓰인	-11.3109
▁묻어두는	-11.3113
▁사랑이야기	-11.3114
▁채우	-11.3114
▁수학여행가	-11.3116
▁정신과	-11.3116
▁출근길	-11.3116
▁스트레칭해	-11.3117
▁사랑했으니	-11.3119
올랐다	-11.3122
▁언제부터	-11.3123
▁할말	-11.3123
▁싫어져	-11.3124
▁누락됐	-11.3125
▁확실해	-11.313
▁속시원해	-11.313
▁적당해	-11.313
▁남았어	-11.3131
▁나이들	-11.3131
▁깔끔한	-11.3134
일뿐	-11.3135
▁혼나	-11.3135
▁쓰리	-11.3136
▁카톡할	-11.3137
▁몰아	-11.3138
▁무뎌지는	-11.3138
▁성숙해지	-11.3139
▁지옥같	-11.3139
▁끊어야	-11.3139
▁후련해	-11.314
마트	-11.3142
▁욕하는	-11.3143
▁서울	-11.3143
착해	-11.3145
▁둔한	-11.3146
▁예고	-11.3147
▁벌려	-11.3149
▁보셨나	-11.315
▁빌리	-11.315
▁꼼꼼한	-11.3151
로워	-11.3153
페이	-11.3153
해봐	-11.3154
▁만져	-11.3154
▁안받아	-11.3154
기사	-11.3156
▁열까지	-11.3157
▁힘들어져	-11.3158
▁약해지	-11.3161
▁작아지	-11.3162
▁얘	-11.3165
▁병이	-11.3167
▁이번달	-11.317
▁동거하다	-11.3171
▁헤어지자네	-11.3174
▁괜찮은거	-11.3176
▁어이가	-11.3176
▁받으셨	-11.3178
▁무거	-11.3178
▁하트	-11.3178
▁마라	-11.3179
▁아려	-11.3184
▁효도	-11.3191
▁받는다는	-11.3191
▁보기만	-11.3192
▁생겼나봐	-11.3197
▁깨진	-11.3199
▁자라	-11.3204
안된다	-11.3204
값이	-11.3205
▁요청	-11.3207
▁떨리네	-11.3208
▁청춘이	-11.321
▁막막하	-11.3211
▁친구로서	-11.3212
때리는	-11.3213
▁지나갔네	-11.3213
▁몰랐네	-11.3216
▁산다	-11.3216
▁끝이났	-11.3217
▁궁금해하지	-11.3218
▁보듬어주	-11.3218
▁날려	-11.3226
▁대리	-11.3227
이니	-11.3228
되어가네	-11.3228
▁고집	-11.3239
▁골랐	-11.3239
▁거부	-11.3242
▁없다는	-11.3243
마음	-11.3249
▁채워보세요	-11.3252
▁덤덤해	-11.3253
▁소개받	-11.3257
▁돌아오는	-11.3257
▁모임에	-11.3262
▁치열해	-11.3267
▁급	-11.3272
▁접은	-11.3272
▁저주	-11.3274
▁마음이네	-11.3278
▁집착하지	-11.3278
▁싫어할까	-11.328
▁다가가야	-11.328
▁싶을	-11.3282
▁귀찮게	-11.3282
▁되돌	-11.3282
▁포기하지	-11.3287
▁철벽이	-11.3294
▁꿈이었	-11.3294
▁나름	-11.3301
▁치우	-11.3304
▁티나	-11.3306
▁엉	-11.3308
서서	-11.3314
▁공개해	-11.3314
기니	-11.3315
▁마음가는	-11.3324
▁나들이	-11.3333
▁무너지	-11.3334
끔하	-11.3335
장소에	-11.334
간에	-11.3353
▁표현에	-11.3361
진지	-11.3365
▁썸타다	-11.3365
감한	-11.3376
▁농구하	-11.3385
다녀야	-11.339
▁지날	-11.3391
▁받아들여지	-11.3394
▁콕	-11.3397
▁될수	-11.3399
▁정확한	-11.3405
▁둘다	-11.3406
▁지나고	-11.3408
▁남자와	-11.3408
▁내려놓기	-11.3409
▁웃기	-11.3412
▁이러고	-11.3412
자리	-11.3413
▁안갈	-11.3416
▁허락하	-11.3421
▁연락하기	-11.3423
▁안나나	-11.3426
▁이야기할	-11.3434
끝	-11.3436
▁애인이	-11.3437
지나가네	-11.3438
▁질려하	-11.344
▁불금이	-11.3445
▁비우	-11.3446
▁질문이	-11.3447
▁이어지	-11.3457
▁상처받는	-11.346
안됩니다	-11.3463
▁대단해	-11.3469
▁버렸다	-11.3471
세포	-11.3472
▁낫지	-11.3478
▁취향이	-11.3482
안나	-11.3488
▁행	-11.3489
▁중독인	-11.3497
▁잃을	-11.3504
▁지워지	-11.3504
▁상처받았	-11.3507
▁만나야	-11.3512
▁배려해	-11.3515
▁짝사랑에서	-11.3517
▁될거	-11.3523
▁변해가는	-11.3525
▁시간이었을	-11.353
▁무서	-11.3535
▁연애인	-11.3538
▁사람이었어	-11.3543
▁오나봐	-11.3545
늘	-11.3546
▁해보면	-11.3547
▁피곤하	-11.3547
느	-11.3552
소식을	-11.3576
▁태도에	-11.359
해야겠네	-11.3595
▁되어가	-11.3595
▁할인	-11.3596
▁깨질	-11.3599
된다는	-11.36
▁머리로	-11.3601
상일	-11.3604
▁공허하	-11.3615
▁포기하	-11.3621
▁아쉽겠	-11.3624
▁일과	-11.3625
▁가슴은	-11.363
▁아무일	-11.3633
▁얻는	-11.3637
여자친구	-11.3637
▁동기	-11.364
▁휴학	-11.3648
▁품	-11.3651
▁붙는	-11.3652
타는	-11.3661
오늘	-11.3666
적이	-11.367
랐나봐	-11.3679
화가	-11.368
▁이대로	-11.369
방에	-11.3693
▁일인가봐	-11.3697
▁사귄지	-11.3702
촬영	-11.3704
▁장기	-11.3705
▁너무너무	-11.3706
▁너랑	-11.3706
키스	-11.3706
▁썼다	-11.3706
▁쓸쓸하	-11.3708
낫네	-11.3712
해주	-11.3719
▁숨기	-11.3719
방향	-11.3725
▁갠톡	-11.3726
안하지	-11.3731
달래	-11.3735
▁뜻밖	-11.3744
▁아파서	-11.3751
▁요구하	-11.3754
▁어떻해	-11.3754
▁상관이	-11.3756
▁지르	-11.3756
빙	-11.3758
▁헤어지고나	-11.3766
▁오해하	-11.3774
려는	-11.3775
▁준비하느	-11.3776
▁복전	-11.3783
패	-11.3789
▁끝이라	-11.3789
픈	-11.3793
▁털	-11.3801
▁해결해	-11.3803
▁그랬을	-11.3809
떡	-11.3813
해본	-11.3817
▁풀어보	-11.3818
▁잔인하	-11.3819
▁만들까	-11.3823
▁저기	-11.383
붙	-11.3841
들지	-11.3847
▁자다	-11.3862
했다면	-11.3863
▁페	-11.3868
▁어렵겠지	-11.3883
▁연락왔	-11.3883
▁챙겨줘	-11.3887
축	-11.389
주차	-11.3895
말이라	-11.3896
불가	-11.3899
▁욕을	-11.3914
▁오락가락하	-11.3915
집에	-11.3918
사정	-11.3927
▁가시	-11.393
▁미루	-11.3931
좋아	-11.394
▁아련하	-11.3942
▁급해	-11.3944
간의	-11.3951
▁똑똑	-11.3958
▁수준	-11.3959
▁중독인가	-11.396
▁맞이	-11.3963
▁즐	-11.3971
랑이	-11.3976
▁의지하	-11.3984
난거	-11.3984
▁접어두는	-11.3986
▁그에게	-11.3987
▁무지	-11.3988
▁변하니	-11.3988
었다	-11.3989
▁알았다	-11.3998
▁익숙함이	-11.4001
▁사람일	-11.4001
아들	-11.4018
▁감정들	-11.4025
▁잊지말	-11.4032
너	-11.4046
▁꿨는	-11.4047
▁준비해	-11.4055
▁잘됐	-11.4066
년하고	-11.4073
그런	-11.4075
▁가득	-11.408
▁부여하	-11.4089
▁많나	-11.4102
▁공부한	-11.4106
▁신기하	-11.4111
▁추가	-11.4122
잘라	-11.4123
▁100	-11.4123
▁해봤어	-11.4123
▁떼	-11.4124
▁쭉	-11.4124
▁날이었	-11.4129
▁깜빡	-11.4131
▁김치	-11.4133
▁꾸미	-11.4138
▁총회	-11.4138
▁불쑥	-11.4138
▁시급	-11.4138
▁날짜	-11.4139
였던	-11.414
비해	-11.4152
여의	-11.4153
쪽	-11.4169
같지	-11.4174
▁비용	-11.4178
▁지속해	-11.4187
▁소원이	-11.419
▁기억하	-11.4202
버려야지	-11.4206
업	-11.4212
▁되었는	-11.4216
▁직구	-11.4217
▁말들	-11.4219
쏟아	-11.4232
▁어이	-11.4233
▁멈춰	-11.4233
▁끊었	-11.4239
틈	-11.4257
지못한	-11.4261
▁기다리게	-11.4261
탄	-11.4263
시켜야	-11.4265
탈출	-11.4285
▁진지	-11.4285
▁가을이	-11.4294
자리에	-11.4295
▁입어보	-11.4296
솔	-11.4299
▁개인적	-11.43
▁살만	-11.4311
같았	-11.4318
있겠	-11.4319
많은	-11.4321
▁보였	-11.4322
▁날에	-11.4323
▁전까지	-11.4327
▁긍정적이	-11.433
▁그러다	-11.433
퍼	-11.4334
충	-11.4347
견	-11.4347
▁반복하	-11.4353
골	-11.4363
▁아파하	-11.4364
▁기다리다	-11.4366
▁찾아왔	-11.4381
▁해야하나	-11.4384
액	-11.4386
직	-11.4391
선의	-11.4395
▁끝인거	-11.4404
▁지우는	-11.4404
▁나타났	-11.4407
되기	-11.4412
주저리	-11.442
▁잘되	-11.4424
구하	-11.4429
▁이혼이	-11.4433
미팅	-11.4435
센	-11.4437
무슨	-11.4446
부려	-11.4447
별의	-11.4449
죽겠	-11.4449
따르	-11.4455
▁궁금하다	-11.4457
▁흐르면	-11.4464
단점	-11.4476
▁피나	-11.448
▁사실이	-11.4482
안돼	-11.4495
눈	-11.4498
▁달라졌	-11.4504
▁꿨	-11.4506
학생	-11.4506
끌	-11.4507
없네	-11.4511
기에	-11.4521
▁싫지	-11.4526
받은	-11.453
케이스	-11.4533
놓으	-11.4536
속	-11.4537
전과	-11.4541
▁펴	-11.4543
읽씹	-11.4546
소모	-11.4546
좋을까	-11.4557
▁데서	-11.4559
감정	-11.4559
태	-11.4576
아파	-11.4578
먹을	-11.459
▁내년	-11.4598
열	-11.4599
어진다	-11.4604
생	-11.461
▁우정이	-11.4611
밀어	-11.4615
인사	-11.4615
와야	-11.4616
스타일이	-11.4619
문제	-11.4619
시키	-11.4622
육아	-11.4629
▁놓는	-11.4635
헤	-11.4638
짠	-11.4638
고민	-11.4641
찌	-11.4646
먼	-11.4651
패턴	-11.4657
쉬	-11.4663
쓸	-11.4663
▁만족하	-11.4667
다시	-11.4668
초대	-11.4674
자격증	-11.4674
▁검색해	-11.4675
나쁜	-11.4677
벌	-11.4682
땅	-11.4682
세우	-11.4683
▁다르니	-11.4685
▁즐겨보	-11.4686
▁깎아	-11.469
싫어	-11.47
나올	-11.4701
눈물	-11.4701
아플	-11.4709
▁추억들	-11.4711
▁왜이	-11.4712
따	-11.4715
노래방	-11.4717
▁그만하	-11.4717
계	-11.4719
큰	-11.472
조절	-11.4724
꿨	-11.4725
▁남나	-11.4725
▁실망하	-11.4725
들었어	-11.4731
코스	-11.4732
▁도와드릴	-11.4738
사귄	-11.4738
마시	-11.4739
철	-11.4741
딱	-11.4742
▁수건	-11.4743
맨날	-11.4745
늦	-11.4746
향이	-11.4747
미리	-11.475
미	-11.4751
안녕	-11.4751
다니기	-11.4757
가입	-11.4757
시작이	-11.4758
경우	-11.476
쇼핑	-11.4761
차단	-11.4763
싸	-11.4764
뿌	-11.4765
빼	-11.4767
6	-11.4771
▁안나겠	-11.4771
▁본다	-11.4775
빌려	-11.4781
웃	-11.4785
심리	-11.4786
문자	-11.479
갖	-11.4793
▁속이는	-11.4795
소리	-11.4796
학원에	-11.4799
▁나으	-11.4802
▁울면	-11.4813
▁마주	-11.4829
전할	-11.4835
▁저만	-11.4836
▁고백이	-11.4843
있네	-11.4845
▁극복해	-11.4847
들은	-11.4862
▁그리운가	-11.4865
있다	-11.4867
서점에	-11.4868
▁오늘로	-11.4873
▁특	-11.4886
▁못나	-11.4895
달에	-11.4898
곳에	-11.491
▁물이	-11.4913
분인	-11.4915
약이	-11.492
▁아쉽	-11.4923
심하네	-11.4927
▁노력해야	-11.4937
▁아픈가	-11.4951
집에서	-11.4958
나온	-11.4959
▁나라	-11.4976
후폭풍	-11.499
▁가까워	-11.4999
손잡	-11.501
▁이기	-11.5015
▁죽고싶	-11.5018
▁학기	-11.5019
보이는	-11.502
지금	-11.5047
받았다	-11.5048
▁입는	-11.505
해가	-11.508
▁바라보	-11.5083
▁여행이	-11.5088
좋은건	-11.5091
▁올려달	-11.5099
▁준다	-11.5107
주면	-11.5113
마셔	-11.5113
틀어	-11.5155
▁걸어보	-11.5158
▁안풀	-11.5175
▁현실이	-11.5188
야겠어	-11.5193
▁병신	-11.5218
맘이	-11.5221
▁경험해	-11.526
▁이별할	-11.5291
▁알바하면	-11.5295
▁영상	-11.5302
워보	-11.531
▁잘되고	-11.5319
▁민	-11.5338
▁해주	-11.534
쓰는	-11.5341
▁비만	-11.5343
▁처리	-11.5361
▁건데	-11.5366
▁집앞에	-11.5379
▁비워보	-11.5397
▁선택했	-11.54
▁않다	-11.5404
▁웃어주	-11.5411
▁얘기하	-11.5417
어지고	-11.5423
지겠네	-11.5426
먹으	-11.5427
▁연락해보	-11.5432
다보니	-11.5435
▁위험할	-11.5439
▁마음정리	-11.5444
▁말했	-11.5458
▁헤어졌다	-11.5491
적을	-11.5509
▁잊지마	-11.5569
아온	-11.5582
▁없다가	-11.5594
▁얼어	-11.5599
것에	-11.5605
돌이	-11.5606
▁사랑만	-11.5615
▁틀어	-11.5626
사고	-11.564
사이	-11.564
▁뜻하	-11.5652
▁두려운	-11.5661
상해	-11.5667
워야	-11.5692
▁연애중	-11.5706
스러울	-11.5716
▁듣고싶	-11.5724
보이	-11.5753
▁색	-11.5771
▁교회에	-11.5773
하고있어	-11.5775
▁도와주세	-11.5779
▁사랑해줘	-11.5798
▁잊어볼	-11.58
▁자신다	-11.5815
▁즐겨	-11.582
▁붙잡으	-11.5834
▁멍청	-11.5855
▁운명적	-11.5858
었지	-11.5869
▁애인	-11.5873
▁표현해주	-11.588
▁제자리걸음	-11.5885
▁괜찮아졌다	-11.5901
▁골	-11.5907
▁우정	-11.5936
▁기네	-11.595
▁미워해	-11.5965
나쁘	-11.5966
▁구하	-11.5968
▁미끄러	-11.5969
시는	-11.597
▁간단	-11.6035
▁운동해	-11.6055
▁해야하는	-11.6078
▁짰	-11.6089
▁따르	-11.6091
▁인정해야	-11.6107
인다	-11.6114
▁데이트하기	-11.6118
싶어요	-11.612
▁익숙해지는	-11.6129
▁했는	-11.6129
된다	-11.613
▁가입	-11.6164
▁충	-11.6171
▁로맨틱해	-11.6205
생긴	-11.6206
▁확인하	-11.6206
▁다니면	-11.6227
▁해보	-11.6227
▁사이라	-11.6246
▁솔	-11.6247
▁반응해	-11.6257
▁탈출	-11.6286
인건	-11.6293
▁탄	-11.6313
다는걸	-11.6315
▁틈	-11.6321
하라	-11.6322
▁사먹	-11.6333
▁쏟아	-11.6351
▁잔소리해	-11.6376
▁아프니	-11.6384
▁비가오	-11.6387
▁쪽	-11.6393
▁준비하면	-11.6393
정적	-11.6397
갔	-11.6408
▁날인	-11.6418
보낼	-11.642
▁거래	-11.6436
▁집앞	-11.6439
▁헬스장	-11.644
▁되가	-11.6486
▁화냈	-11.6506
▁안정	-11.6508
▁버려야지	-11.6514
▁아니었	-11.6536
▁정상이	-11.6546
▁잊어버리는	-11.6569
▁힘내라	-11.657
▁착각하	-11.6572
▁공시생	-11.6574
▁할게	-11.6576
증이	-11.6585
▁물리	-11.6586
▁부여	-11.6603
졌는데	-11.6618
당하기	-11.6631
온	-11.6632
달렸나봐	-11.6645
그치	-11.6653
▁모르니	-11.6671
▁요구	-11.669
는걸	-11.6706
▁결혼하는	-11.671
러운	-11.6724
▁답인	-11.6744
▁갖는	-11.6745
▁생각났	-11.6747
전이	-11.6759
쳐버리	-11.676
▁조언해	-11.6766
▁차이일	-11.6772
▁유지	-11.6784
▁잃	-11.6801
▁선물해주	-11.6828
▁기억나	-11.6853
야할지	-11.6856
되겠어	-11.6866
▁보름달	-11.687
▁절친	-11.6878
하더라고요	-11.6881
▁흔적이	-11.6882
돼야	-11.6887
고픈	-11.6912
▁거지같	-11.6913
났는데	-11.6914
▁순수	-11.6923
가나봐	-11.6934
리가	-11.6943
▁복전하	-11.6954
▁돌보	-11.6966
야되는	-11.6978
▁싫었	-11.6995
▁기억들	-11.7011
▁없거	-11.7028
▁쓸쓸	-11.7037
겼는데	-11.7048
▁잔인	-11.7051
▁구별해	-11.7057
▁애석	-11.7065
▁싫어하나	-11.7067
▁서점에	-11.7068
하려나	-11.7083
▁아무는	-11.7088
▁약인	-11.7121
▁보내보	-11.7173
▁원하	-11.7182
온대	-11.7185
▁공허	-11.7193
▁연락해봐	-11.7203
▁준비해야	-11.7205
하자는	-11.7207
▁나날	-11.7225
편이	-11.7227
이냐	-11.7229
▁씻어	-11.7237
▁과에	-11.7238
▁서점	-11.7242
▁시간인가	-11.7242
여기	-11.7246
점이	-11.7292
▁안했	-11.7305
▁허전	-11.7326
▁남겠	-11.7333
▁성숙	-11.7355
것인가	-11.7378
▁질문	-11.7421
▁바람이	-11.7427
가보는	-11.743
▁불금	-11.7431
으면서	-11.7454
올라	-11.7463
▁전하면	-11.7498
▁치맥	-11.7525
담하	-11.7536
▁예뻐해	-11.7552
▁성덕	-11.7585
▁표현할	-11.7595
▁자리에	-11.76
아내	-11.7617
표	-11.762
보네	-11.7648
났네	-11.767
▁잘생겼	-11.767
▁현실에	-11.7675
▁변해가	-11.7679
▁이어나가	-11.7691
폭풍	-11.77
▁바람난	-11.7708
▁있었지	-11.7715
▁느낀	-11.7721
▁이래	-11.7723
▁신고	-11.7729
▁착각일	-11.773
▁그만둬	-11.7732
▁싫어해	-11.7736
▁부족하	-11.7738
했었	-11.7742
▁들겠	-11.7762
▁달려	-11.777
▁직업	-11.7777
▁매달	-11.7785
▁말아보	-11.7786
▁불타	-11.7806
마시러	-11.7807
▁집착인	-11.7809
▁현금	-11.7812
어리	-11.782
▁감정적	-11.7833
▁나오는	-11.7836
젠	-11.7838
▁알아주	-11.7842
▁잊혀져	-11.7847
▁습관이라	-11.785
▁꼼꼼	-11.7862
나긴	-11.7863
▁그나	-11.7869
▁밤인	-11.7874
▁손이	-11.7892
▁써보	-11.7898
▁나오지	-11.7903
▁밉	-11.7905
루	-11.791
▁씌	-11.7913
▁수학여행	-11.7919
▁앞이	-11.7926
▁구멍	-11.7927
▁익숙	-11.7936
▁늙어	-11.7945
▁수면	-11.795
▁안맞	-11.7951
▁카톡하는	-11.7959
▁머릿	-11.7963
▁부질없	-11.7965
▁낙	-11.7965
▁아쉬움	-11.7968
쁜	-11.7969
맥	-11.797
▁쟁취하	-11.7972
▁옳	-11.7984
▁올거	-11.7987
▁떨어졌	-11.7992
▁찾아갔	-11.7997
십	-11.7998
▁괴	-11.7998
▁오니	-11.7999
▁허무하	-11.7999
▁어쩔수	-11.8
▁스타	-11.8003
환	-11.8011
년동	-11.8013
▁약해	-11.8017
▁늙	-11.8017
▁추스	-11.8022
싹	-11.8024
▁사람이었	-11.8029
주정	-11.8029
▁권	-11.803
귄	-11.8033
▁옥	-11.8034
▁자유로워	-11.8034
쩌	-11.8036
▁불효	-11.8036
습기	-11.8036
▁엮	-11.8037
킨	-11.8037
▁끓	-11.8037
▁도망	-11.8037
▁대충	-11.8038
로우니	-11.8038
▁존	-11.8038
▁억	-11.8038
험해	-11.8039
첨	-11.8039
찢	-11.8039
끗	-11.8039
▁밝	-11.8039
쑥	-11.8039
앗	-11.804
혼전	-11.804
▁희생	-11.804
▁컴	-11.804
▁렌	-11.804
텔	-11.804
댓	-11.804
으셨	-11.804
▁깔	-11.804
▁비행기	-11.804
넛	-11.804
깅	-11.804
탐	-11.804
▁관절염	-11.804
▁금사빠	-11.804
▁기획사	-11.804
▁김치볶음밥	-11.804
▁나쁨	-11.804
▁못받	-11.804
▁불륜	-11.804
▁소극적	-11.804
▁스몰웨딩	-11.804
▁전기장판	-11.804
▁조명빨	-11.804
▁취뽀	-11.804
▁풍부	-11.804
뒹	-11.804
웁	-11.804
D	-11.804
O	-11.804
P	-11.804
X	-11.804
go	-11.804
▁40	-11.804
▁CC	-11.804
▁감정컨트롤	-11.804
▁개당황	-11.804
▁거리두기	-11.804
▁건강검진	-11.804
▁곱씹	-11.804
▁괘씸하	-11.804
▁교직이수	-11.804
▁그리웠나	-11.804
▁기뻐해	-11.804
▁깜깜	-11.804
▁낙엽	-11.804
▁날카로워	-11.804
▁논문	-11.804
▁답변	-11.804
▁대부분	-11.804
▁돌싱	-11.804
▁돌아섰	-11.804
▁들이댔	-11.804
▁들켰	-11.804
▁롤	-11.804
▁마찬가지	-11.804
▁못믿겠	-11.804
▁묻	-11.804
▁반배정	-11.804
▁봄방학	-11.804
▁부딪혀	-11.804
▁부딪히	-11.804
▁북받쳐	-11.804
▁블랙박스	-11.804
▁빡빡	-11.804
▁뽀뽀	-11.804
▁상견례	-11.804
▁샐러드	-11.804
▁서툴어	-11.804
▁소풍	-11.804
▁숏컷	-11.804
▁스킨쉽	-11.804
▁실험실	-11.804
▁안돌아오나	-11.804
▁애매모호	-11.804
▁애키우	-11.804
▁예식장	-11.804
▁옛	-11.804
▁웨딩	-11.804
▁웨딩드레스	-11.804
▁의사표시	-11.804
▁이쁘	-11.804
▁익숨함	-11.804
▁재택근무	-11.804
▁젊	-11.804
▁죄송해	-11.804
▁주눅들	-11.804
▁지겹	-11.804
▁춘곤증인가	-11.804
▁카풀	-11.804
▁컨트롤	-11.804
▁클스마스	-11.804
▁텁텁	-11.804
▁포근포근	-11.804
▁폰겜	-11.804
▁피어싱	-11.804
▁햇볕	-11.804
▁헌팅	-11.804
▁험담	-11.804
▁호박씨	-11.804
▁화풀이	-11.804
▁황당하	-11.804
▁황당해	-11.804
걍	-11.804
균	-11.804
귤	-11.804
깃	-11.804
꽂	-11.804
꿩	-11.804
넹	-11.804
녔	-11.804
뇨	-11.804
눴	-11.804
닭	-11.804
덩	-11.804
뚱	-11.804
띰	-11.804
랭	-11.804
렉	-11.804
룰	-11.804
룸	-11.804
룽	-11.804
릭	-11.804
맹	-11.804
뮤	-11.804
밭	-11.804
벨	-11.804
붓	-11.804
뷔	-11.804
빽	-11.804
뻤	-11.804
뽀송	-11.804
뽕	-11.804
삔	-11.804
샘	-11.804
섯	-11.804
솜	-11.804
쇠	-11.804
쑤	-11.804
씰룩	-11.804
왼	-11.804
웽	-11.804
윙	-11.804
잊기싫은	-11.804
조언부탁	-11.804
층	-11.804
컷	-11.804
템	-11.804
흡	-11.804
▁깬	-11.804
▁사투리	-11.804
▁식욕폭발	-11.804
c	-11.804
▁고시생	-11.804
▁깼	-11.804
▁꼴	-11.804
▁꾹	-11.804
▁노처녀	-11.804
▁덮	-11.804
▁동문서답	-11.804
▁두근두근	-11.804
▁드러내	-11.804
▁띵	-11.804
▁모태솔로	-11.804
▁섞	-11.804
▁섣부르	-11.804
▁얇	-11.804
▁정동진	-11.804
▁중소기업	-11.804
▁켠	-11.804
닦	-11.804
메이크업	-11.804
징글	-11.804
▁가르쳐	-11.804
▁규	-11.804
▁뺏	-11.804
▁썰	-11.804
▁옮	-11.804
▁중간중간	-11.804
▁훈	-11.804
권이	-11.804
▁괴로웠을	-11.804
▁쌍커풀	-11.804
▁조교하면	-11.804
▁쥐꼬리	-11.804
▁진부한	-11.804
▁타입인	-11.804
▁메시지	-11.804
▁서먹해	-11.804
▁처량하	-11.804
뿅	-11.804
섹	-11.804
▁데려달라고	-11.8041
▁배부르	-11.8041
▁입소문	-11.8041
▁존경	-11.8041
▁감미로	-11.8041
▁식도염	-11.8041
걸레질	-11.8041
▁허무해	-11.8041
▁견딜	-11.8041
▁유세부	-11.8041
▁섬유	-11.8041
▁씨앗	-11.8041
넥	-11.8041
▁넘어질뻔	-11.8041
▁고구마	-11.8041
▁친절하	-11.8041
▁태몽	-11.8041
▁근황	-11.8041
▁깐깐	-11.8041
▁헤어졋	-11.8041
▁겉모습	-11.8041
▁이별하신	-11.8041
▁황사	-11.8041
▁엊그	-11.8041
투덜	-11.8041
▁댄디	-11.8041
▁멀미	-11.8041
▁탄생	-11.8041
▁양면과	-11.8041
▁탄탄	-11.8041
▁댓글	-11.8041
▁쓸모	-11.8041
▁건물주	-11.8041
▁무색해지네	-11.8041
▁동아리에	-11.8041
▁호텔	-11.8041
▁쪽팔	-11.8041
▁지옥이네	-11.8041
▁체육	-11.8041
▁해결방안	-11.8041
▁폭식	-11.8041
▁렌즈	-11.8041
▁노답이	-11.8041
▁대학교	-11.8041
▁문화센터	-11.8041
▁가라앉혀	-11.8041
▁출국	-11.8041
▁초조해	-11.8041
▁텅비	-11.8041
▁잠식시키	-11.8041
▁시누	-11.8041
▁핸드	-11.8041
▁퇴사	-11.8041
추세	-11.8041
▁소홀	-11.8041
▁비참하	-11.8041
▁선연하	-11.8041
▁독학하	-11.8041
▁부작용	-11.8041
▁경제력	-11.8041
▁뻔뻔	-11.8041
▁일반적이	-11.8041
▁잘지내고있	-11.8041
▁놀이터에	-11.8041
▁대리님	-11.8041
▁팔찌	-11.8041
▁발등	-11.8041
▁담담하	-11.8041
▁매순간	-11.8041
▁스킨	-11.8041
▁감추는	-11.8041
▁갱신	-11.8041
▁단톡에	-11.8041
▁머물	-11.8041
▁슈퍼문이	-11.8041
▁내키는	-11.8041
▁알뜰	-11.8041
▁눌러	-11.8041
▁다가온	-11.8041
▁뜬금	-11.8042
▁무뎌져	-11.8042
▁폭식증	-11.8042
▁변덕스러운	-11.8042
▁처방	-11.8042
▁돌아온	-11.8042
▁문콕	-11.8042
▁숨쉬	-11.8042
▁강해지	-11.8042
▁못잊겠	-11.8042
▁소액	-11.8042
순위	-11.8042
▁잊었다	-11.8042
▁후덜덜	-11.8042
▁광탈	-11.8042
▁응원해주면	-11.8042
▁구분짓	-11.8042
▁팔뚝	-11.8042
▁환상	-11.8042
국물	-11.8042
▁야구장	-11.8042
▁무뎌진	-11.8043
▁꽃바구니	-11.8043
▁친추	-11.8043
▁잡담	-11.8043
▁인형뽑기	-11.8043
▁성급	-11.8043
▁마음가짐	-11.8043
▁시절	-11.8043
▁짝사랑이었네	-11.8043
▁절망적	-11.8043
▁불타오르	-11.8043
▁답답하신가	-11.8043
뜨문	-11.8044
▁국경	-11.8044
▁일어난	-11.8044
▁청강	-11.8044
▁여행지에서	-11.8044
▁신입	-11.8044
▁변명거리	-11.8044
▁이용당	-11.8044
▁퇴근시간	-11.8044
▁씌었나봐	-11.8044
▁잊어버려	-11.8044
▁사치인	-11.8044
▁막혔	-11.8044
▁후련해졌	-11.8044
▁잊어야한다는	-11.8044
▁털어내	-11.8044
▁장거리연애	-11.8044
▁지워버리	-11.8045
▁명언	-11.8045
▁내려놔	-11.8045
▁외박	-11.8045
▁기계	-11.8045
▁난처	-11.8045
꾸룩	-11.8045
마디	-11.8045
미칠꺼	-11.8045
▁부담된다	-11.8045
▁욕먹	-11.8046
▁불효자	-11.8046
▁자제하는	-11.8046
▁꼬셔	-11.8046
▁기름값	-11.8046
▁작별	-11.8046
근무	-11.8046
쳐올	-11.8046
▁새롭	-11.8046
▁영역	-11.8046
▁확실해졌	-11.8046
느껴진다	-11.8047
▁장난친	-11.8047
▁구걸하	-11.8047
▁취급	-11.8047
▁대충했	-11.8047
액션	-11.8047
▁괴로운	-11.8047
▁바보짓	-11.8047
▁따위	-11.8047
▁뽑아	-11.8047
모닝	-11.8048
▁직감	-11.8048
▁불러준	-11.8048
▁헤어졌을때	-11.8048
진행중	-11.8048
▁되돌리	-11.8048
▁내맘같	-11.8048
▁진담	-11.8048
▁어색할까	-11.8048
▁전남자친구	-11.8048
▁심각	-11.8049
▁반복될까	-11.8049
▁오늘밤	-11.8049
▁쳐다보	-11.8049
바구니	-11.8049
▁체질	-11.8049
▁무덤덤한데	-11.8049
▁학교생활	-11.805
▁조심스	-11.805
▁초초	-11.805
▁사겼는데	-11.805
▁당사자만	-11.805
킬	-11.805
▁쌓아	-11.805
▁먹여주나	-11.805
▁주름	-11.8051
▁비례	-11.8051
▁가운데	-11.8051
▁또라이	-11.8051
▁놓아줬	-11.8051
▁이상이	-11.8051
▁휴우	-11.8051
▁여부	-11.8051
▁해낸	-11.8051
▁냉정해	-11.8051
▁애써봐	-11.8052
▁찔러	-11.8052
▁못잊는거	-11.8052
▁무뎌졌	-11.8052
▁외로울	-11.8052
▁해결해줄	-11.8052
▁결재	-11.8052
▁포기하려	-11.8052
정말끝이	-11.8052
▁두분이	-11.8052
▁잠들기	-11.8053
▁위안	-11.8053
환해	-11.8053
▁가혹	-11.8054
▁서운한거	-11.8054
▁골인	-11.8054
▁나날이었	-11.8054
주룩	-11.8054
▁사랑했다는	-11.8055
▁어째서	-11.8055
쓰담	-11.8055
▁바래다	-11.8055
▁받아드리	-11.8055
달반	-11.8055
▁다가갈	-11.8055
▁한쪽	-11.8055
▁아른거	-11.8056
▁회의감	-11.8056
▁들어줄래	-11.8056
▁번복	-11.8057
▁원하던	-11.8057
▁맞추려고	-11.8057
바싹	-11.8057
프다	-11.8057
▁동성애	-11.8058
▁식단	-11.8058
▁냄새날	-11.8058
▁정리되었길	-11.8058
▁정량	-11.8058
▁원두	-11.8058
초반	-11.8058
▁보름	-11.8059
▁놓으려	-11.8059
▁연애끝	-11.8059
▁회복되	-11.8059
▁돌아간	-11.8059
▁일주일째	-11.8059
람을	-11.806
▁걸어다니	-11.806
▁비추	-11.806
개월간의	-11.8061
물이라	-11.8061
▁인간적	-11.8061
▁시린	-11.8062
▁파마	-11.8062
▁느끼나	-11.8062
▁심란	-11.8062
▁만나지말	-11.8063
▁잘해준	-11.8063
▁너덜너덜해	-11.8064
크림	-11.8064
▁돌아다니	-11.8065
▁몸매	-11.8065
▁소용	-11.8065
▁너그	-11.8066
▁하품	-11.8066
▁행복하지	-11.8066
▁변했	-11.8066
▁죽음	-11.8067
던곳	-11.8067
▁복합적	-11.8068
▁은퇴후	-11.8068
▁담아	-11.8068
▁긴장돼	-11.8068
리마	-11.8068
▁주차장	-11.8068
▁꺼질	-11.807
▁만납	-11.807
▁겁이나	-11.807
▁깨달	-11.807
▁결혼생활	-11.807
▁순간들이	-11.807
▁기부	-11.8071
▁자유로워질까	-11.8073
보내주려	-11.8073
▁눈빛	-11.8074
▁무난	-11.8074
▁변할까	-11.8074
▁괴로	-11.8075
▁느끼게	-11.8076
▁화살	-11.8076
비꼬는	-11.8076
▁해주기	-11.8077
▁심정	-11.8077
▁삼주	-11.8077
▁메일	-11.8077
▁무사	-11.8078
▁헤어지신	-11.8078
▁책보	-11.8079
▁이해해줄	-11.8079
▁순진	-11.808
▁멀어진다는	-11.808
▁떨어진	-11.808
▁돌아올거	-11.808
▁돌봐	-11.8081
키니	-11.8081
▁입맛없	-11.8081
▁온천	-11.8082
착이	-11.8082
▁경과	-11.8082
▁사랑꾼	-11.8083
▁잘생긴	-11.8083
아휴	-11.8083
쓰레기통	-11.8083
▁이번주	-11.8083
▁완벽해지	-11.8084
개월동안	-11.8084
▁못잊을	-11.8084
생에	-11.8085
상화	-11.8085
▁자식	-11.8086
▁쓰디	-11.8086
▁지침	-11.8087
▁보조	-11.8087
▁같았나	-11.8087
▁구해야	-11.8088
▁피해자	-11.8088
▁졸리	-11.8088
▁매달리	-11.8088
▁안열	-11.8089
▁궁금한게있	-11.8089
▁방구	-11.8089
출할	-11.809
▁원망스럽	-11.809
▁되버렸	-11.8092
▁설레발	-11.8092
▁위대한	-11.8092
▁바본	-11.8092
▁휘둘리	-11.8093
▁아물어	-11.8094
▁임신	-11.8094
▁정상인가	-11.8095
▁상메에	-11.8096
▁사이트	-11.8096
건너	-11.8096
학번	-11.8097
▁찾아갔네	-11.8097
근한	-11.8097
직한	-11.8097
▁헤어졌으니까	-11.8097
관에	-11.8098
▁좋아보여	-11.8098
▁몇번	-11.8098
▁내릴까	-11.8098
▁엉망	-11.8098
▁면세	-11.8099
▁불만만	-11.8099
▁회의	-11.81
▁물건	-11.81
▁기운내	-11.8101
▁붙어	-11.8101
▁아이구	-11.8101
▁엿같	-11.8102
▁대신	-11.8103
▁왜이러	-11.8103
▁쉽지않	-11.8104
▁동거해도	-11.8105
▁먹었나봐	-11.8105
▁과제	-11.8107
▁수수한	-11.8108
▁초라해	-11.8108
유발	-11.8108
▁피곤할	-11.8109
▁겁이	-11.8109
▁진지한	-11.8109
▁친해지	-11.8109
▁헤어지겠	-11.811
▁훈훈하	-11.8111
▁모른	-11.8112
리스	-11.8112
▁정치	-11.8113
우니	-11.8114
▁먹방	-11.8115
▁말로만	-11.8115
▁부질없는	-11.8116
▁잠들	-11.8117
▁장수	-11.8118
▁없었나봐	-11.8119
▁생활비	-11.8119
▁침대에	-11.8121
▁제사	-11.8121
▁식상	-11.8122
▁모자	-11.8122
▁대상이	-11.8123
▁흐음	-11.8124
▁젖어	-11.8124
보하	-11.8125
▁약이라는	-11.8126
사람이	-11.8129
▁찾았	-11.8131
▁밤이네	-11.8132
▁모질	-11.8132
▁간지러	-11.8134
▁연기	-11.8136
▁서글	-11.8137
▁긴여	-11.8137
샤워해	-11.8137
▁한사람	-11.8137
▁만들었	-11.8138
▁흘렀는데	-11.8138
▁어머나	-11.8139
▁미안함	-11.8139
▁적응해	-11.8139
▁질린다	-11.814
▁오늘부	-11.8141
반짝	-11.8141
▁그대로인	-11.8141
▁여기까지였나	-11.8141
▁다른반	-11.8143
▁속지말	-11.8143
▁나이먹	-11.8144
▁상처들	-11.8148
▁구상	-11.8148
▁자금	-11.8149
▁남아있나	-11.8149
주라	-11.815
▁오후	-11.8152
▁노래들	-11.8155
▁연락하고싶어	-11.8155
▁전화하기	-11.8156
▁짝사랑중	-11.8156
▁못잊는	-11.8157
▁레고	-11.8157
▁이것만	-11.8158
▁소통	-11.8159
▁첫사랑인	-11.8161
▁대상	-11.8162
▁초기	-11.8165
쓸까	-11.8165
될것같	-11.8165
주정도	-11.8166
▁내려놓으면	-11.8168
▁그놈	-11.8168
▁안내는	-11.8176
▁들었는데	-11.8177
▁놀려	-11.8177
▁밉다	-11.8177
▁강요하는	-11.8178
식이	-11.8178
▁괜찮았	-11.8178
▁참아야겠	-11.8178
▁버리기	-11.8182
▁사랑이였	-11.8182
▁길에	-11.8182
▁들리네	-11.8184
▁힘들일이	-11.8185
▁살릴	-11.8185
▁멀어	-11.8185
▁기차	-11.8185
채나	-11.8186
▁같기도	-11.8186
▁다시만나	-11.8188
▁집사	-11.8188
▁수순	-11.8189
그여자	-11.8192
▁그분과	-11.8194
▁무색하게	-11.8195
▁연애하다	-11.8196
▁말해줄	-11.8197
▁가까워지	-11.8199
▁대쉬해	-11.8199
돋을	-11.8201
끌리	-11.8204
▁반가	-11.8205
▁티비	-11.8205
▁못하나봐	-11.8209
거지같이	-11.8211
▁예를	-11.8211
▁감당이	-11.8217
▁주체할	-11.8219
스럽다	-11.8228
▁필요없어	-11.8228
▁아끼는	-11.8229
▁사귀면서	-11.823
트인	-11.823
▁못내는	-11.8231
▁갈구	-11.8232
▁힘드나	-11.8235
▁안올	-11.8235
▁써야	-11.8237
▁잊혀져가	-11.8239
▁맘대로	-11.8239
아리	-11.8239
셔야겠	-11.8242
▁오르고	-11.8244
▁놀라	-11.8247
놓은	-11.8247
▁그립겠	-11.8253
▁서운한	-11.8254
▁가출	-11.8255
▁이별할때	-11.8255
▁내꺼	-11.8255
▁설레게하	-11.8256
▁안난다	-11.826
▁내려놓는	-11.8264
▁끝내야	-11.8264
▁화내는	-11.8268
▁양심	-11.8272
▁촉이	-11.8272
▁짱나	-11.8273
▁재회하고	-11.8273
▁좋으면서	-11.8275
▁유학간	-11.8277
▁자유시간	-11.8282
▁추우니	-11.8283
▁냉정할	-11.8283
▁힘들줄	-11.8287
움에	-11.8288
▁못하는거	-11.829
통이	-11.8291
▁여친과	-11.8292
▁이겨	-11.8293
▁감기약	-11.8293
▁받을까	-11.8297
수라	-11.8299
▁본인만	-11.8304
▁술기운	-11.8306
지망	-11.8307
▁질리게	-11.8308
▁직업이	-11.8311
론이	-11.8315
▁전화할	-11.8319
주시	-11.8332
잡히	-11.8334
▁생각했을	-11.8338
▁불렀	-11.8338
▁이루어질	-11.8342
▁단어	-11.8349
▁아깝다	-11.8351
▁오긴	-11.8351
▁공감되	-11.8354
린대	-11.8356
민가	-11.8357
▁여행가고	-11.8358
▁끈이었	-11.8359
▁익숙해졌	-11.836
기적이	-11.8362
▁쓴다	-11.8363
▁장난치	-11.8363
▁그만둬야	-11.8364
▁못했는	-11.8366
어보	-11.8367
▁취직이	-11.8373
된거	-11.8374
았다	-11.8377
▁이마	-11.8379
되었	-11.8383
▁냉정하	-11.8389
▁그후	-11.8393
▁모르나봐	-11.8394
▁오래걸	-11.8398
▁흐르네	-11.84
셨을	-11.84
▁잘해줘서	-11.8401
▁맞았네	-11.8403
▁마주보	-11.8407
▁다했다	-11.8407
▁사라지	-11.8409
체가	-11.8409
▁놈이	-11.841
▁실망했	-11.8413
▁기억할	-11.8415
▁때문일까	-11.8415
▁바람난거	-11.842
▁뿌리	-11.8428
움이	-11.8437
▁리액션	-11.8437
▁헌신하	-11.8438
▁갈거	-11.844
▁극복한	-11.8441
▁사랑이란	-11.8441
▁존중하는	-11.8443
▁전여친이	-11.8444
▁귀엽다	-11.8445
▁만나러가	-11.8448
만두	-11.8453
▁상처받아	-11.8453
표인	-11.8455
▁만났네	-11.8458
성이	-11.8459
▁같은거	-11.8469
▁이별인가봐	-11.8472
▁잘지내고	-11.8476
맞는다면	-11.8481
▁경우에	-11.8481
라구	-11.8482
▁붙잡으려	-11.8493
▁보수적이	-11.8503
▁있더	-11.8506
▁다정	-11.851
▁전화하고	-11.851
▁직장인이	-11.8516
▁다음주	-11.8517
▁힘들대	-11.8517
▁최악이	-11.8519
▁꽝이	-11.852
가봅	-11.8524
천하	-11.8526
▁높이는	-11.8526
해하지	-11.8527
겼다	-11.8537
▁붙잡을	-11.8539
▁연애할	-11.8547
해본적	-11.8552
▁놔주	-11.8559
▁결혼할까	-11.8561
말았	-11.8562
▁지금까지	-11.8567
▁커지기	-11.8571
▁바보라	-11.8573
▁음악이	-11.8575
▁없겠어	-11.8576
▁돌아왔	-11.8579
▁찍은	-11.8581
▁깊이	-11.8582
▁더럽	-11.8588
▁솔로인	-11.8596
▁사실일	-11.8607
▁성숙해	-11.8607
▁잊은	-11.8609
▁잡기	-11.861
▁이별후에	-11.8612
▁차단한	-11.8614
▁껴	-11.8617
일거	-11.8617
▁타이밍인	-11.8623
▁단순하	-11.8625
닫고	-11.8629
▁조심해야겠	-11.8631
타이	-11.8635
▁걷는	-11.864
꼬리	-11.8646
▁벌어	-11.8654
▁노력한	-11.8656
▁적을	-11.8659
어진	-11.8666
▁어떤거	-11.8676
걸리	-11.8676
이신	-11.8677
▁휴지	-11.8685
▁처음만	-11.8687
▁새장	-11.8687
들겠지	-11.869
시간만큼	-11.8701
출근해	-11.8706
▁풀어주	-11.8708
▁가는거	-11.872
▁많을까	-11.8721
▁적절	-11.8728
었나	-11.8748
을거	-11.876
▁엄청나	-11.8763
잘못으로	-11.877
▁속지	-11.8772
가기	-11.8777
▁죄인	-11.8777
▁싫은가	-11.8794
▁전해지	-11.8801
▁위로받	-11.881
▁남을까	-11.881
▁타로	-11.8811
▁이사람	-11.8813
했을	-11.8822
▁모의	-11.8823
▁잘라야	-11.8823
▁보고싶은	-11.8833
사랑	-11.8847
▁해외여행가	-11.8862
▁에이	-11.8867
▁오래타	-11.8867
남보다	-11.8875
▁모임이	-11.8881
해졌나봐	-11.8883
▁내장	-11.8892
▁왕따인	-11.8896
나니까	-11.8897
▁하려	-11.8898
▁안받	-11.8907
▁별이	-11.8911
▁연락이었	-11.893
▁클럽가	-11.8933
낸	-11.8939
▁빈	-11.8939
▁못하겠네	-11.8944
▁씻기	-11.8952
되겠지	-11.8954
뭐냐	-11.8956
▁기복	-11.8963
▁까먹지	-11.8989
▁말려	-11.8989
보고싶어	-11.8995
▁키워보	-11.8995
▁판	-11.8996
보내	-11.8997
려야	-11.8999
대하면	-11.9
▁고하	-11.9001
▁돌아오기	-11.9004
하셨나	-11.9006
▁차단했	-11.9022
▁팩	-11.9023
▁잊어가	-11.9025
만이라	-11.9032
▁쌓이	-11.9046
▁올라오	-11.9054
▁단톡방에	-11.9065
어질	-11.9067
떠나려	-11.9068
▁다녀온	-11.9069
기라	-11.9071
▁선물할	-11.9072
▁투자하는	-11.9096
났는	-11.9102
▁받았나	-11.9102
▁좋아하면서	-11.9107
▁쿨하	-11.9114
고쳤	-11.9115
▁상처에	-11.9116
▁볶	-11.9118
▁잘된	-11.912
▁사귀지	-11.9123
▁혼자라는	-11.9142
▁놓았	-11.9144
▁구하는	-11.9144
▁구별	-11.9145
와주	-11.9172
▁살인	-11.9176
▁걸리	-11.9183
▁시간이었	-11.921
▁부담스러워해	-11.9219
▁악	-11.9223
▁삼가	-11.9231
관계인가	-11.924
▁자만	-11.9241
▁조심해야	-11.9241
본지	-11.9242
월해	-11.9243
▁짝사랑하	-11.9246
못된	-11.9259
▁전부였	-11.9267
▁단계라	-11.9271
동을	-11.9271
▁부르는	-11.9272
했을거	-11.9282
상대로	-11.9285
▁먼저하는	-11.9288
▁한편	-11.9295
▁찾	-11.93
▁사람일까	-11.9309
▁짜증나게	-11.9309
▁도자기	-11.9322
▁시간이었겠	-11.9323
▁지키는	-11.9328
여친	-11.9332
▁영화보자	-11.9336
하러가	-11.9337
되니	-11.935
▁절친이	-11.9355
▁보름달이	-11.9365
▁모르지	-11.9366
▁잊어야해	-11.9373
▁나빠졌	-11.9374
▁걸지	-11.9376
▁마셨어	-11.938
오려나	-11.9381
▁과식했	-11.9393
▁끝이보	-11.9404
▁관심있는	-11.9411
▁운명인	-11.9423
▁그리워지	-11.9452
▁편식	-11.9471
▁침	-11.9477
로라	-11.9485
사니	-11.9491
해야할	-11.9495
▁싶어서	-11.9516
인과	-11.9558
▁기억안	-11.9561
▁혼자있	-11.9573
▁않음	-11.9587
▁줄이고	-11.9587
여행이	-11.9591
▁이사가	-11.9609
▁받으려	-11.9632
들게	-11.9636
▁깊어	-11.9644
▁않으	-11.9651
백한	-11.9669
▁힘겨	-11.9679
▁되도	-11.9698
말인가	-11.9705
▁나갔	-11.9715
▁착각인	-11.9717
기지	-11.9721
▁잊어야겠	-11.9725
▁안해야	-11.9729
▁공시생이	-11.9752
▁아니었나봐	-11.977
▁일이었	-11.9774
났었지	-11.9778
가운	-11.9782
▁만날수	-11.9782
▁척도	-11.9792
▁후련할거	-11.9815
▁마무리하	-11.9818
나와	-11.9824
▁오나	-11.9824
독한	-11.9849
▁그사람은	-11.9856
▁저장할	-11.9884
▁행동을	-11.9893
▁낸다	-11.9894
▁받아들여야할	-11.9896
▁거절인	-11.9911
▁술마시면	-11.9923
▁타나봐	-11.995
▁매달렸	-11.9954
▁일일	-11.9962
▁차렸을	-11.9981
▁사랑스럽	-11.9984
▁남긴	-11.9989
져야	-12.0014
▁잔소리	-12.0031
▁든다	-12.0042
해드리	-12.0048
▁따듯해	-12.0057
알	-12.0068
▁지켜야	-12.0078
기간	-12.0081
▁잠수이별인	-12.009
섭섭하	-12.0096
▁했었	-12.0098
연애인데	-12.0115
▁슬퍼하	-12.0119
▁이별이네	-12.0121
거래	-12.0135
▁남는다	-12.0141
▁한마디	-12.0149
▁동거중	-12.0158
▁브	-12.016
▁찰랑	-12.0161
▁시켰	-12.0161
▁밑	-12.0176
▁해야되	-12.018
▁부모	-12.0186
나지	-12.0192
▁툭	-12.0195
▁썩	-12.0196
▁구질	-12.0203
많이	-12.0208
▁푸석	-12.0208
아볼	-12.022
겨울	-12.0221
▁모양	-12.0225
▁질거	-12.0227
▁주절	-12.0227
▁치킨	-12.0229
▁불쌍	-12.0229
▁울컥	-12.0229
▁다른일	-12.0238
▁근질	-12.0246
▁덜해	-12.0247
▁보내버렸	-12.0251
▁잊어보려	-12.0257
▁홀	-12.0265
▁투자라	-12.0266
▁감수	-12.0273
만난	-12.0276
▁보드	-12.0327
▁소개해	-12.034
▁불행해	-12.0373
▁내편	-12.0376
▁정리해야할	-12.0378
▁행동하	-12.0393
▁한달됐	-12.0411
▁낀	-12.0412
척이	-12.0442
짰다	-12.0451
▁지우려	-12.0477
▁힘들만	-12.0484
▁가득한가	-12.0502
▁듬	-12.0502
▁샤워하	-12.0504
▁놀리	-12.0518
▁잠겼	-12.0563
▁운명같	-12.0575
▁여행가는	-12.0577
주신	-12.059
▁둬	-12.061
갔는	-12.0617
▁미쳤	-12.0619
▁봐달라	-12.0628
▁내릴	-12.0637
▁싶으	-12.0637
▁부족했	-12.0653
▁쟁	-12.0654
▁운동하자	-12.0684
▁괜찮았는	-12.0685
▁생겼다는	-12.0686
해주세	-12.0703
▁멍청하	-12.0719
드나	-12.0731
지려고	-12.0761
▁제자리걸음이	-12.077
▁나을가	-12.0775
시간동안	-12.0793
울렸	-12.0807
▁터지겠	-12.0807
▁했더	-12.0811
▁헤어진다	-12.0815
순간에	-12.0817
▁돼지	-12.0827
▁잡으려	-12.0884
들이지	-12.0884
▁반이라	-12.0922
춘	-12.0955
▁답답한가	-12.0958
▁소개팅이	-12.0968
핑	-12.0969
▁붙였	-12.0972
사람과	-12.0983
▁망설여지	-12.1002
▁안해서	-12.1006
▁군대가	-12.1009
▁회	-12.1036
▁당황스러	-12.1048
▁은퇴해야	-12.1091
▁힘들기	-12.1105
▁결혼식이	-12.1112
참아왔	-12.1138
▁두려운가	-12.1145
해봤	-12.115
▁가수	-12.1157
나만	-12.1187
▁아쉽지	-12.1194
▁철벽치	-12.1206
▁연애상담해	-12.1229
▁후련하다	-12.123
▁이런건	-12.1239
었다는	-12.1259
내려	-12.128
▁비가오니	-12.1297
▁추억을	-12.1304
▁잘못했다	-12.1304
▁하라	-12.1315
▁가라	-12.1317
▁연애중인	-12.1322
사람들	-12.1344
▁아침이에	-12.1347
▁필요하다	-12.1355
▁오래가	-12.1378
▁터졌	-12.1393
▁좋았을	-12.1436
▁싫어할	-12.1449
했잖아	-12.1456
▁잘했다	-12.1489
잊고싶	-12.151
용해	-12.1514
▁지독	-12.1516
▁쓰다	-12.1548
▁필요없	-12.1581
▁나간	-12.1594
깜	-12.1612
▁끝내려	-12.1619
쥐	-12.1638
▁잊었는	-12.1652
▁비워	-12.1664
똥	-12.1687
잇	-12.1692
▁못났	-12.1707
▁꿈이라	-12.1714
▁아니였	-12.1733
▁밤이	-12.1763
▁감성적	-12.1763
▁싸움이	-12.1778
기운을	-12.1791
잡을	-12.18
▁맞춰보	-12.1812
있더라	-12.1813
자제	-12.1874
중한	-12.1876
남자친구	-12.1886
▁갔다왔	-12.1891
각이	-12.1923
▁병신인	-12.1947
▁차별받	-12.1956
불공평	-12.1975
▁떠나야겠	-12.1977
▁생각나기	-12.2015
▁함께하	-12.2027
밀	-12.2059
하겟	-12.207
▁개같	-12.2082
해야하는	-12.2084
드시	-12.2132
부네	-12.214
▁싸야	-12.2149
▁얼마전	-12.2172
▁끝나가	-12.2174
▁하고싶은	-12.2178
▁만들어보	-12.2214
▁의외인	-12.2225
▁신청해	-12.2248
에나와	-12.2249
으시는	-12.2249
▁돌아가면	-12.2275
▁쪄	-12.2281
▁뒀	-12.2281
▁이별하려	-12.2286
▁여자에	-12.229
야해	-12.2291
▁풀렸다	-12.2299
▁그러려	-12.231
▁잊고싶	-12.2327
▁밥도	-12.2332
하겠지	-12.2371
뻔했	-12.2379
나네	-12.2396
▁순간에	-12.242
가져	-12.2423
▁힘드신	-12.2427
기면	-12.2435
▁지내자	-12.2503
▁선에	-12.2523
▁칼로	-12.2524
해주고싶	-12.2528
▁계절	-12.2565
▁잘못했다는	-12.2566
기예	-12.257
연락	-12.2627
▁것일	-12.2629
▁살랑	-12.2638
쓰	-12.264
▁철벽치는	-12.2652
▁연애상담	-12.2661
중에	-12.2677
만하는	-12.2686
▁평가해	-12.2688
▁답답했	-12.2694
▁맞은	-12.2707
해보는	-12.2734
정말	-12.2766
않아	-12.2794
▁헤어진건	-12.2797
흘	-12.2835
▁인정해야할	-12.2864
▁존재하	-12.2871
▁안되었	-12.2932
▁망설여지는	-12.2934
자신	-12.2955
▁힘드시	-12.2972
▁나약하	-12.2972
왜	-12.2985
▁창업해	-12.2995
비만이	-12.3008
▁불면증인가	-12.3038
었을까	-12.305
▁산책하	-12.3105
켜	-12.3106
쟁	-12.3106
▁선물받	-12.3109
보러가	-12.311
▁채	-12.3112
틀	-12.3131
▁깨졌는	-12.3151
▁싸우기	-12.3161
▁힘들어하	-12.3166
▁경험해보	-12.3186
죽는	-12.319
▁못하니	-12.3196
▁자게	-12.3202
▁울적하	-12.3203
싶네	-12.3222
▁쓰이겠	-12.3229
▁믿어보	-12.3279
둬	-12.3321
려지	-12.3327
럴까	-12.3327
진짜	-12.3328
▁중요한가	-12.3328
펴	-12.3363
▁있으신	-12.3365
힘든	-12.3371
힘들어	-12.3377
사랑이	-12.3395
▁중요하겠지	-12.3401
났나봐	-12.3413
▁연락하고싶	-12.3421
는대로	-12.3421
굴	-12.3449
▁사야겠	-12.3487
모르겠어	-12.3492
미쳤	-12.35
듬	-12.3502
▁안한	-12.351
▁살았다	-12.3554
만나고싶	-12.3558
덤덤해졌	-12.3581
났	-12.3599
▁가득한	-12.3638
실수했	-12.3639
낀	-12.3641
▁몇시간	-12.3682
어져	-12.3689
왔을	-12.3705
▁참았	-12.3708
▁만들어주	-12.3708
▁사내에	-12.3735
▁보자는	-12.3757
▁인스타에	-12.3781
브	-12.3795
힘드네	-12.3824
보내기	-12.3833
같	-12.3839
어찌보	-12.3842
홀	-12.3843
잊어보려	-12.3855
졌나봐	-12.3858
하기로했	-12.3876
불쌍	-12.3894
울컥	-12.3896
술	-12.3899
치킨	-12.39
보내버렸	-12.3902
맞은	-12.3911
주절	-12.3921
▁같았	-12.3927
푸석	-12.3928
모양	-12.3929
근질	-12.3934
썩	-12.3942
툭	-12.3942
부모	-12.3958
쓰다	-12.3963
▁독한	-12.3963
밑	-12.397
▁하나봐	-12.3972
헤어진	-12.3976
중인	-12.3977
활	-12.3977
벽	-12.3982
시켰	-12.3991
카톡	-12.3999
잡	-12.4007
줄거	-12.401
만나다	-12.4012
내릴	-12.4015
밤이	-12.4022
해보시는	-12.4022
동거중인	-12.4024
▁문자보	-12.403
해지는	-12.4047
청소	-12.4047
질거	-12.4052
▁척하	-12.4052
▁사랑인	-12.4062
드는	-12.4074
▁섭섭	-12.4085
시간들	-12.4098
▁잊어주	-12.41
못하고	-12.4104
아닌	-12.4105
들어야	-12.4105
보드	-12.4111
▁일년같	-12.4112
▁겨울이	-12.4113
▁무시했	-12.4114
좋겠다	-12.412
았네	-12.4122
▁환승이	-12.4124
찰랑	-12.4126
▁출근이	-12.413
▁멈춰버	-12.4133
▁도서관에	-12.4139
않으	-12.4142
경	-12.4146
이거	-12.4151
▁데이	-12.4156
말아	-12.4163
▁생각해봐	-12.4171
봐봐	-12.418
감수	-12.4182
▁두려	-12.4209
▁반이	-12.4216
▁해야되는	-12.4219
직구	-12.4231
▁두려워지	-12.424
못해	-12.4247
▁달래	-12.4255
되셨	-12.4263
▁잘한	-12.4266
▁안할	-12.4285
귀	-12.429
않았	-12.4314
빠	-12.4314
▁지속	-12.4315
▁잡는다	-12.4317
▁하루였	-12.4322
끊었	-12.433
언제	-12.4331
이유	-12.4335
좋았	-12.4339
막	-12.4343
마지막	-12.4343
▁머	-12.4366
알았는데	-12.4372
되시	-12.4377
나타났	-12.4378
총회	-12.4384
불쑥	-12.4385
헤어짐	-12.4388
꾸미	-12.4388
날짜	-12.4389
전하	-12.4389
덕	-12.4393
오르	-12.4396
깜빡	-12.4402
짝남한테	-12.4404
있죠	-12.4409
가득	-12.4412
조심해야	-12.4416
위기	-12.4416
▁재회했	-12.4419
떼	-12.442
쭉	-12.442
집앞	-12.4426
한마디	-12.4427
헤어졌	-12.4429
짜	-12.443
▁답답하겠	-12.4431
교	-12.4436
똑똑	-12.4437
▁동거하는	-12.4449
100	-12.4449
김치	-12.4449
커피	-12.445
시급	-12.4451
결정	-12.4452
인생	-12.4453
비용	-12.4463
앞에	-12.4465
얼	-12.4469
접는	-12.4509
꼭	-12.4512
모두	-12.4514
죽어	-12.4529
뜻	-12.4531
생일	-12.4532
▁사랑하는건	-12.4536
▁포기해야할	-12.454
▁가망	-12.4544
▁미쳐	-12.4544
동생한테	-12.4544
공간	-12.4545
착	-12.4547
덜	-12.4548
날씨	-12.4548
응	-12.455
밤	-12.4552
있으신가	-12.4553
칼	-12.4554
▁후련할	-12.4555
만나고	-12.4557
▁붙잡아보	-12.4558
술한잔	-12.4559
견디기	-12.4559
외국어	-12.4559
털	-12.4559
효	-12.4559
즐	-12.4562
넘었는데	-12.4562
구질	-12.4569
다녀와	-12.4572
잊지못	-12.4572
놀아	-12.4573
뛰어	-12.4576
살랑	-12.4579
신가	-12.4584
놀	-12.4586
르는	-12.4588
영화	-12.4589
▁못생	-12.4592
예약	-12.4593
빨리	-12.4596
날까	-12.46
거울	-12.4601
듣는	-12.461
쫄	-12.4612
윗	-12.4612
공개	-12.4612
일어나	-12.4615
꽃	-12.4618
웃음	-12.4622
적하지	-12.4628
농	-12.4629
기다려야	-12.463
차렸을	-12.4631
찾기	-12.4632
냉	-12.4633
받아들여야할	-12.4633
번에	-12.4633
▁먹어보	-12.4636
느낌	-12.464
취직	-12.4643
해준	-12.4644
안되는	-12.4645
남자들	-12.4649
직장	-12.4651
신경	-12.4658
의미	-12.4663
듣	-12.4663
프로필	-12.4665
아파트	-12.4667
여유	-12.4671
잊혀지	-12.4671
싫다	-12.4672
다툼	-12.4676
주택	-12.4677
바늘	-12.4679
설명	-12.4684
축제	-12.4685
순간	-12.4687
모	-12.4688
잠	-12.4689
아픔이	-12.4691
키울	-12.4702
카페	-12.4706
시험	-12.4709
잠깐	-12.4709
손	-12.4711
낳	-12.4712
밟	-12.4712
찼	-12.4712
기울이	-12.4714
끝나	-12.4715
짜증나	-12.4717
생각나	-12.4717
스럽네	-12.4718
하늘	-12.4718
누	-12.4723
끝인가	-12.4728
노력	-12.4733
빠지	-12.4741
친구인데	-12.4741
안주	-12.4742
듣기	-12.4745
정류장	-12.4747
그럴까	-12.4753
성형	-12.4753
프로포즈	-12.4754
▁많아졌	-12.4756
▁보내려	-12.476
차리	-12.476
흘렀네	-12.4761
크리스마스	-12.4761
놀러가	-12.4761
미세먼지	-12.4763
차례	-12.4763
▁되었어	-12.4766
베터리	-12.4767
없을까	-12.4769
시어머니	-12.477
빠져	-12.4772
▁익숙함	-12.4772
숨	-12.4772
가능성	-12.4773
추억이	-12.4775
밤에	-12.4776
곧	-12.4778
찾	-12.478
안하	-12.4781
sns	-12.4784
우울해	-12.4785
헤어지	-12.4785
현상	-12.4786
살아야	-12.4789
극복	-12.4794
괜찮은	-12.4794
센스	-12.4794
예감	-12.4794
않으니	-12.4795
편할	-12.4795
베	-12.4796
시기	-12.4799
생각나네	-12.4799
왔나봐	-12.48
취미	-12.4802
얘기	-12.4802
반복	-12.4806
자신이	-12.4809
등	-12.481
무시하	-12.481
전까지	-12.481
희망	-12.4811
근처	-12.4811
여자와	-12.4813
힘	-12.4817
상태	-12.4817
우울	-12.4821
바꾸	-12.4821
말투	-12.4822
노력해	-12.4822
전공	-12.4824
않네	-12.4826
착한	-12.4838
능력	-12.4847
위해	-12.4849
축하	-12.4849
끝났	-12.485
꿈에	-12.4851
썸이	-12.4854
▁뭘해야	-12.4856
좋아했	-12.4856
9	-12.486
쓴	-12.4861
▁이해해야	-12.4864
장거리	-12.4867
잤	-12.4868
▁없애야	-12.4869
쐬	-12.4871
소비	-12.4873
졸	-12.4874
멋	-12.4875
▁먹으니	-12.4875
남자한테	-12.488
꼬	-12.4882
사귀다	-12.4885
더워	-12.489
안되	-12.489
사실	-12.4891
행복한가봐	-12.4891
▁만나고싶	-12.4899
떨	-12.49
두번	-12.4903
조심	-12.491
그만하고	-12.491
싶지	-12.4911
▁예뻐졌	-12.4922
마음인	-12.4922
▁칭찬해	-12.4923
보고싶	-12.4928
답답해	-12.4932
▁갔을	-12.4935
지났네	-12.4939
놀이	-12.4953
▁미루는	-12.4962
한잔	-12.4963
집착	-12.4974
듣고	-12.4974
만나지	-12.4978
떠	-12.4981
돌아	-12.4983
▁풀었	-12.4984
전화가	-12.4992
▁운동하면	-12.4992
위로	-12.4994
깊	-12.4997
있다는	-12.5
잊	-12.5012
도와주	-12.5018
▁축	-12.5024
▁그러니	-12.5029
▁반장이	-12.5031
끝이	-12.5031
연휴	-12.5033
별로	-12.5038
프사	-12.5045
애인	-12.5049
운전	-12.5065
쁘겠	-12.5067
됐네	-12.5082
넘어	-12.5108
화가나	-12.5117
이루	-12.5126
▁찾아가보	-12.5174
▁착해	-12.519
심장	-12.5199
그랬어	-12.5206
바라	-12.5214
먹은	-12.5218
말해	-12.5223
느끼는	-12.5226
▁무덤덤	-12.5227
슬퍼하	-12.524
▁나나봐	-12.5257
남은	-12.5287
정리했	-12.5309
▁싫어졌	-12.5312
되었나	-12.532
없는거	-12.5352
는건가	-12.5375
▁패	-12.5378
▁밥먹	-12.5379
말에	-12.5379
▁날이에	-12.5382
예의	-12.5426
먹는	-12.5432
▁아닌것	-12.5434
곳이	-12.5439
▁주차	-12.5449
▁빙	-12.5474
모임	-12.548
▁기다리겠	-12.5485
▁무기력하	-12.5497
▁헤어진것	-12.5511
▁저장	-12.5528
두는	-12.5551
▁잘되는	-12.5572
▁갠톡하	-12.5574
았	-12.558
나갈	-12.5622
▁방향	-12.5633
인이	-12.5634
▁촬영	-12.5644
▁만나고왔	-12.5652
▁키스	-12.5679
줄래	-12.569
반이	-12.5697
▁보내야	-12.5701
▁가져봐	-12.5709
겼	-12.6796
끔	-12.6864
랐	-12.7765
큼	-12.7803
람	-12.7921
현	-12.7925
긋	-12.7984
혹	-12.8003
벼	-12.8014
맙	-12.8017
렀	-12.8021
딛	-12.8024
쁠	-12.8033
봇	-12.8035
쩔	-12.8036
욜	-12.8036
황	-12.8036
뜰	-12.8036
깝	-12.8037
닿	-12.8037
톱	-12.8038
컥	-12.8038
춤	-12.8038
낭	-12.8038
턴	-12.8039
콤	-12.804
댄	-12.804
램	-12.804
익	-12.804
졋	-12.804
몽	-12.804
칭	-12.804
긍	-12.804
딜	-12.804
냄	-12.804
묵	-12.804
빴	-12.804
률	-12.804
딘	-12.804
콘	-12.804
령	-12.804
첩	-12.804
퓨	-12.804
젊	-14.1451
옮	-14.1452
옛	-14.1453
얇	-14.1454
씸	-14.1455
씰	-14.1456
썰	-14.1457
숏	-14.1458
섰	-14.1459
섣	-14.146
섞	-14.1461
샐	-14.1462
뺏	-14.1463
볕	-14.1464
륜	-14.1465
띵	-14.1466
덮	-14.1467
댔	-14.1468
논	-14.1469
꼴	-14.147
깼	-14.1471
깬	-14.1472
괘	-14.1473
겜	-14.1474
o	-14.1475
g	-14.1476
홧	-14.1477
홈	-14.1478
헹	-14.1479
헐	-14.148
텅	-14.1481
텀	-14.1482
턱	-14.1483
쿵	-14.1484
캬	-14.1485
측	-14.1486
엿	-14.1487
엊	-14.1488
얽	-14.1489
앱	-14.149
숫	-14.1491
묘	-14.1492
몬	-14.1493
렐	-14.1494
랙	-14.1495
랖	-14.1496
뜬	-14.1497
떴	-14.1498
눕	-14.1499
눌	-14.15
뇌	-14.1501
꿰	-14.1502
꽝	-14.1503
꽉	-14.1504
깰	-14.1505
겉	-14.1506
갱	-14.1507
훔	-14.1508
핫	-14.1509
텁	-14.151
컸	-14.1511
촬	-14.1512
총	-14.1513
짰	-14.1514
좌	-14.1515
웹	-14.1516
밉	-14.1517
몫	-14.1518
멘	-14.1519
맺	-14.152
맴	-14.1521
릇	-14.1522
뚫	-14.1523
넷	-14.1524
꼰	-14.1525
굳	-14.1526
겪	-14.1527
갠	-14.1528
C	-14.1529
헌	-14.153
폼	-14.1531
팠	-14.1532
팀	-14.1533
탓	-14.1534
퀴	-14.1535
쿨	-14.1536
켰	-14.1537
왠	-14.1538
엮	-14.1539
씌	-14.154
쏠	-14.1541
쏟	-14.1542
썹	-14.1543
삐	-14.1544
쁨	-14.1545
빚	-14.1546
볍	-14.1547
렜	-14.1548
렛	-14.1549
흑	-14.155
헥	-14.1551
틋	-14.1552
툼	-14.1553
찜	-14.1554
젯	-14.1555
옳	-14.1556
쌍	-14.1557
슈	-14.1558
쉴	-14.1559
묻	-14.156
릎	-14.1561
롤	-14.1562
둠	-14.1563
돋	-14.1564
늠	-14.1565
낚	-14.1566
광	-14.1567
곱	-14.1568
휘	-14.1569
툴	-14.157
켠	-14.1571
쪼	-14.1572
징	-14.1573
쌩	-14.1574
싼	-14.1575
낙	-14.1576
끓	-14.1577
객	-14.1578
A	-14.1579
훈	-14.158
짱	-14.1581
젖	-14.1582
웬	-14.1583
얻	-14.1584
씁	-14.1585
섬	-14.1586
뽀	-14.1587
맡	-14.1588
뢰	-14.1589
렬	-14.159
땡	-14.1591
늙	-14.1592
낄	-14.1593
찔	-14.1594
띄	-14.1595
땀	-14.1596
딪	-14.1597
닮	-14.1598
녹	-14.1599
넓	-14.16
검	-14.1601
앉	-14.1602
샤	-14.1603
벚	-14.1604
뤄	-14.1605
랫	-14.1606
꾹	-14.1607
겹	-14.1608
헬	-14.1609
컴	-14.161
잃	-14.1611
옥	-14.1612
빡	-14.1613
밝	-14.1614
렘	-14.1615
깎	-14.1616
곁	-14.1617
n	-14.1618
씻	-14.1619
뽑	-14.162
뛰	-14.1621
딴	-14.1622
넣	-14.1623
낮	-14.1624
규	-14.1625
걔	-14.1626
푹	-14.1627
춥	-14.1628
씹	-14.1629
렌	-14.163
닫	-14.1631
꼼	-14.1632
갚	-14.1633
컨	-14.1634
썼	-14.1635
슷	-14.1636
딸	-14.1637
뉴	-14.1638
귈	-14.1639
웨	-14.164
뒷	-14.1641
뀔	-14.1642
8	-14.1643
녁	-14.1644
뀌	-14.1645
깔	-14.1646
깍	-14.1647
N	-14.1648
7	-14.1649
셀	-14.165
획	-14.1651
텨	-14.1652
됩	-14.1653
눠	-14.1654
걷	-14.1655
엽	-14.1656
샀	-14.1657
삭	-14.1658
쌓	-14.1659
싱	-14.166
멈	-14.1661
권	-14.1662
희	-14.1663
삼	-14.1664
밍	-14.1665
헛	-14.1666
틱	-14.1667
옆	-14.1668
섭	-14.1669
북	-14.167
쇼	-14.1671
끄	-14.1672
탁	-14.1673
벗	-14.1674
숭	-14.1675
멍	-14.1676
헷	-14.1677
잖	-14.1678
읽	-14.1679
삶	-14.168
높	-14.1681
낫	-14.1682
뎌	-14.1683
멀	-14.1684
득	-14.1685
녕	-14.1686
엇	-14.1687
흔	-14.1688
빌	-14.1689
흐	-14.169
승	-14.1691
끊	-14.1692
괴	-14.1693
퇴	-14.1694
짧	-14.1695
랜	-14.1696
밌	-14.1697
덤	-14.1698
픔	-14.1699
핸	-14.17
몇	-14.1701
똑	-14.1702
풍	-14.1703
슴	-14.1704
뭔	-14.1705
뻐	-14.1706
씀	-14.1707
닐	-14.1708
0	-14.1709
맨	-14.171
평	-14.1711
풀	-14.1712
첫	-14.1713
챙	-14.1714
죽	-14.1715
존	-14.1716
험	-14.1717
격	-14.1718
최	-14.1719
엄	-14.172
뭘	-14.1721
쁘	-14.1722
럼	-14.1723
떤	-14.1724
슨	-14.1725
,	-14.1726
앞	-14.1727
걱	-14.1728
쉽	-14.1729
믿	-14.173
택	-14.1731
닌	-14.1732
접	-14.1733
랄	-14.1734
몰	-14.1735
럴	-14.1736
억	-14.1737
변	-14.1738
싫	-14.1739
맞	-14.174
떻	-14.1741
렇	-14.1742
편	-14.1743
괜	-14.1744
찮	-14.1745
뭐	-14.1746
!	-14.1747
받	-14.1748
습	-14.1749
혼	-14.175
썸	-14.1751
않	-14.1752
많	-14.1753
싶	-14.1754
없	-14.1755
?	-14.1756
좋	-14.1757
.	-14.1758
